{
  "version": "1.0",
  "truncation": null,
  "padding": null,
  "added_tokens": [
    {
      "id": 0,
      "content": "[UNK]",
      "single_word": false,
      "lstrip": false,
      "rstrip": false,
      "normalized": false,
      "special": true
    },
    {
      "id": 1,
      "content": "[PAD]",
      "single_word": false,
      "lstrip": false,
      "rstrip": false,
      "normalized": false,
      "special": true
    },
    {
      "id": 2,
      "content": "[BOS]",
      "single_word": false,
      "lstrip": false,
      "rstrip": false,
      "normalized": false,
      "special": true
    },
    {
      "id": 3,
      "content": "[EOS]",
      "single_word": false,
      "lstrip": false,
      "rstrip": false,
      "normalized": false,
      "special": true
    }
  ],
  "normalizer": null,
  "pre_tokenizer": {
    "type": "ByteLevel",
    "add_prefix_space": false,
    "trim_offsets": true,
    "use_regex": true
  },
  "post_processor": null,
  "decoder": {
    "type": "ByteLevel",
    "add_prefix_space": true,
    "trim_offsets": true,
    "use_regex": true
  },
  "model": {
    "type": "BPE",
    "dropout": null,
    "unk_token": "[UNK]",
    "continuing_subword_prefix": null,
    "end_of_word_suffix": null,
    "fuse_unk": false,
    "byte_fallback": false,
    "ignore_merges": false,
    "vocab": {
      "[UNK]": 0,
      "[PAD]": 1,
      "[BOS]": 2,
      "[EOS]": 3,
      "!": 4,
      "#": 5,
      "$": 6,
      "%": 7,
      "&": 8,
      "'": 9,
      "(": 10,
      ")": 11,
      "*": 12,
      "+": 13,
      "-": 14,
      ".": 15,
      "/": 16,
      "0": 17,
      "1": 18,
      "2": 19,
      "3": 20,
      "4": 21,
      "5": 22,
      "6": 23,
      "7": 24,
      "8": 25,
      "9": 26,
      ":": 27,
      ";": 28,
      "=": 29,
      "?": 30,
      "@": 31,
      "A": 32,
      "B": 33,
      "C": 34,
      "D": 35,
      "E": 36,
      "F": 37,
      "G": 38,
      "H": 39,
      "I": 40,
      "J": 41,
      "K": 42,
      "L": 43,
      "M": 44,
      "N": 45,
      "O": 46,
      "P": 47,
      "Q": 48,
      "R": 49,
      "S": 50,
      "T": 51,
      "U": 52,
      "V": 53,
      "W": 54,
      "X": 55,
      "Y": 56,
      "Z": 57,
      "[": 58,
      "]": 59,
      "a": 60,
      "b": 61,
      "c": 62,
      "d": 63,
      "e": 64,
      "f": 65,
      "g": 66,
      "h": 67,
      "i": 68,
      "j": 69,
      "k": 70,
      "l": 71,
      "m": 72,
      "n": 73,
      "o": 74,
      "p": 75,
      "q": 76,
      "r": 77,
      "s": 78,
      "t": 79,
      "u": 80,
      "v": 81,
      "w": 82,
      "x": 83,
      "y": 84,
      "z": 85,
      "Ċ": 86,
      "Ġ": 87,
      "ġ": 88,
      "in": 89,
      "Ġt": 90,
      "er": 91,
      "an": 92,
      "es": 93,
      "Ġs": 94,
      "on": 95,
      "or": 96,
      "ar": 97,
      "Ġf": 98,
      "at": 99,
      "Ġc": 100,
      "en": 101,
      "al": 102,
      "Ġto": 103,
      "Ġin": 104,
      "Ġp": 105,
      "it": 106,
      "Ġb": 107,
      "ed": 108,
      "Ġa": 109,
      "Ġd": 110,
      "is": 111,
      "Ġr": 112,
      "Ġo": 113,
      "Ġm": 114,
      "ur": 115,
      "Ġw": 116,
      "ing": 117,
      "Ġh": 118,
      "il": 119,
      "el": 120,
      "ic": 121,
      "as": 122,
      "Ġfor": 123,
      "et": 124,
      "ol": 125,
      "Ġl": 126,
      "ro": 127,
      "ay": 128,
      "ion": 129,
      "Ġg": 130,
      "ad": 131,
      "Ġof": 132,
      "un": 133,
      "am": 134,
      "us": 135,
      "ent": 136,
      "ec": 137,
      "ĠS": 138,
      "ac": 139,
      "ers": 140,
      "id": 141,
      "Ġon": 142,
      "ut": 143,
      "ĠC": 144,
      "ir": 145,
      "Ġn": 146,
      "ĠM": 147,
      "Ġst": 148,
      "'s": 149,
      "and": 150,
      "om": 151,
      "ot": 152,
      "Ġth": 153,
      "ak": 154,
      "le": 155,
      "iv": 156,
      "ig": 157,
      "ĠA": 158,
      "ĠB": 159,
      "re": 160,
      "ĠP": 161,
      "ĠR": 162,
      "ra": 163,
      "os": 164,
      "est": 165,
      "ow": 166,
      "em": 167,
      "ch": 168,
      "ov": 169,
      "ts": 170,
      "up": 171,
      "ill": 172,
      "ĠK": 173,
      "ter": 174,
      "ul": 175,
      "ag": 176,
      "op": 177,
      "Ġat": 178,
      "ĠI": 179,
      "im": 180,
      "Ġe": 181,
      "ation": 182,
      "ĠD": 183,
      "ab": 184,
      "od": 185,
      "ĠN": 186,
      "hi": 187,
      "um": 188,
      "ĠT": 189,
      "Ġthe": 190,
      "Ġv": 191,
      "all": 192,
      "ain": 193,
      "ap": 194,
      "Ġre": 195,
      "th": 196,
      "ĠG": 197,
      "ri": 198,
      "ith": 199,
      "Ġ1": 200,
      "st": 201,
      "Ġpro": 202,
      "nd": 203,
      "Ġ2": 204,
      "our": 205,
      "ear": 206,
      "ud": 207,
      "ess": 208,
      "Ġde": 209,
      "Ġbe": 210,
      "ity": 211,
      "Ġk": 212,
      "av": 213,
      "ĠH": 214,
      "har": 215,
      "igh": 216,
      "ate": 217,
      "ia": 218,
      "ks": 219,
      "Ġwith": 220,
      "ect": 221,
      "Ġ'": 222,
      "Ġas": 223,
      "ee": 224,
      "ore": 225,
      "oc": 226,
      "end": 227,
      "ies": 228,
      "ew": 229,
      "ver": 230,
      "ce": 231,
      "rom": 232,
      "if": 233,
      "ist": 234,
      "und": 235,
      "Ġy": 236,
      "ang": 237,
      "Ġfrom": 238,
      "Ġcon": 239,
      "ĠJ": 240,
      "ays": 241,
      "ice": 242,
      "Ġsh": 243,
      "ai": 244,
      "Ġar": 245,
      "ack": 246,
      "ly": 247,
      "00": 248,
      "Ġj": 249,
      "Ġpl": 250,
      "ug": 251,
      "ant": 252,
      "Ġch": 253,
      "Ġex": 254,
      "ive": 255,
      "ĠU": 256,
      "Ġup": 257,
      "ents": 258,
      "Ġac": 259,
      "Ġis": 260,
      "Ġpol": 261,
      "Ġag": 262,
      "por": 263,
      "ĠL": 264,
      "ath": 265,
      "ail": 266,
      "uc": 267,
      "qu": 268,
      "Ġcas": 269,
      "Ġget": 270,
      "Ġhel": 271,
      "ong": 272,
      "Ġand": 273,
      "Ġcr": 274,
      "art": 275,
      "ĠInd": 276,
      "ĠF": 277,
      "Ġcom": 278,
      "ans": 279,
      "ff": 280,
      "ha": 281,
      "ik": 282,
      "ard": 283,
      "Ġby": 284,
      "Ġoff": 285,
      "Ġover": 286,
      "aj": 287,
      "ash": 288,
      "old": 289,
      "ust": 290,
      "ment": 291,
      "ake": 292,
      "Ġwor": 293,
      "ĠV": 294,
      "ach": 295,
      "der": 296,
      "oo": 297,
      "Ġsp": 298,
      "out": 299,
      "ine": 300,
      "ĠCh": 301,
      "ell": 302,
      "ast": 303,
      "ub": 304,
      "Ġle": 305,
      "Ġnot": 306,
      "ight": 307,
      "Ġtr": 308,
      "Ġagain": 309,
      "ĠW": 310,
      "ial": 311,
      "Ġse": 312,
      "fter": 313,
      "ip": 314,
      "ĠRs": 315,
      "ovt": 316,
      "its": 317,
      "ish": 318,
      "ens": 319,
      "Ġres": 320,
      "Ġ3": 321,
      "he": 322,
      "ob": 323,
      "age": 324,
      "ĠE": 325,
      "pl": 326,
      "ge": 327,
      "Ġout": 328,
      "ost": 329,
      "Ġheld": 330,
      "Ġcl": 331,
      "ress": 332,
      "ood": 333,
      "tion": 334,
      "ĠO": 335,
      "Ġafter": 336,
      "ind": 337,
      "port": 338,
      "Ġagainst": 339,
      "ef": 340,
      "ide": 341,
      "umb": 342,
      "over": 343,
      "Ġsays": 344,
      "ass": 345,
      "han": 346,
      "pp": 347,
      "ian": 348,
      "ue": 349,
      "ous": 350,
      "Ġnew": 351,
      "ops": 352,
      "Ġfir": 353,
      "iz": 354,
      "ors": 355,
      "Ġun": 356,
      "aw": 357,
      "als": 358,
      "esh": 359,
      "eng": 360,
      "ns": 361,
      "Ġkill": 362,
      "elhi": 363,
      "Ġpr": 364,
      "St": 365,
      "Ġco": 366,
      "ĠIndia": 367,
      "ure": 368,
      "Ġme": 369,
      "iss": 370,
      "og": 371,
      "JP": 372,
      "day": 373,
      "ary": 374,
      "Ġ20": 375,
      "Ġsc": 376,
      "Ġstud": 377,
      "ave": 378,
      "Ġdr": 379,
      "Ġfl": 380,
      "oy": 381,
      "Ġtra": 382,
      "ree": 383,
      "ark": 384,
      "Ġcase": 385,
      "ey": 386,
      "ool": 387,
      "ah": 388,
      "Ġ5": 389,
      "amp": 390,
      "ank": 391,
      "ace": 392,
      "Ġman": 393,
      "ry": 394,
      "oll": 395,
      "oad": 396,
      "Ġsch": 397,
      "wo": 398,
      "ook": 399,
      "Ġint": 400,
      "per": 401,
      "Ġad": 402,
      "Ġbl": 403,
      "Ġan": 404,
      "Ġ4": 405,
      "ugh": 406,
      "Ġarr": 407,
      "ets": 408,
      "Ġmin": 409,
      "Ġmay": 410,
      "ld": 411,
      "ife": 412,
      "ater": 413,
      "Ġdis": 414,
      "ric": 415,
      "Ġqu": 416,
      "ep": 417,
      "Ġcan": 418,
      "ound": 419,
      "ana": 420,
      "Ġhe": 421,
      "Ġte": 422,
      "Ind": 423,
      "ence": 424,
      "her": 425,
      "Ġwom": 426,
      "ates": 427,
      "Ġor": 428,
      "Ġrec": 429,
      "ome": 430,
      "Ġsee": 431,
      "ourt": 432,
      "Ġgovt": 433,
      "Ġne": 434,
      "ins": 435,
      "abad": 436,
      "eb": 437,
      "ise": 438,
      "akh": 439,
      "umbai": 440,
      "ance": 441,
      "ions": 442,
      "pur": 443,
      "ild": 444,
      "own": 445,
      "ev": 446,
      "oot": 447,
      "Ġgo": 448,
      "Ġwill": 449,
      "Ġyear": 450,
      "ars": 451,
      "Ġarrest": 452,
      "Ġab": 453,
      "Ġwh": 454,
      "Ġpoll": 455,
      "Ġwork": 456,
      "Ġacc": 457,
      "Ġgets": 458,
      "Ġmore": 459,
      "Ġatt": 460,
      "'t": 461,
      "orm": 462,
      "are": 463,
      "MC": 464,
      "ower": 465,
      "Ġall": 466,
      "ock": 467,
      "Ġcont": 468,
      "irl": 469,
      "ign": 470,
      "ĠPr": 471,
      "oon": 472,
      "ve": 473,
      "Ch": 474,
      "arm": 475,
      "ges": 476,
      "one": 477,
      "ick": 478,
      "Ġhigh": 479,
      "ya": 480,
      "Ġrel": 481,
      "ult": 482,
      "amil": 483,
      "Ġal": 484,
      "ax": 485,
      "Ġmon": 486,
      "way": 487,
      "uj": 488,
      "row": 489,
      "oun": 490,
      "Ġinto": 491,
      "urn": 492,
      "ps": 493,
      "Man": 494,
      "Ġdeath": 495,
      "Ġfil": 496,
      "ĠDelhi": 497,
      "emb": 498,
      "Ġcity": 499,
      "ft": 500,
      "Ġoffic": 501,
      "ata": 502,
      "be": 503,
      "No": 504,
      "ime": 505,
      "ings": 506,
      "ants": 507,
      "Ġset": 508,
      "Ġroad": 509,
      "ovid": 510,
      "ical": 511,
      "Ġare": 512,
      "ond": 513,
      "Ġstudents": 514,
      "ite": 515,
      "Ġschool": 516,
      "reat": 517,
      "oin": 518,
      "man": 519,
      "ivers": 520,
      "ition": 521,
      "ĠY": 522,
      "act": 523,
      "ons": 524,
      "ase": 525,
      "Ġbus": 526,
      "In": 527,
      "arn": 528,
      "Ġpolice": 529,
      "ĠCM": 530,
      "ident": 531,
      "under": 532,
      "ĠBJP": 533,
      "ie": 534,
      "ok": 535,
      "ala": 536,
      "Ġop": 537,
      "Ġbr": 538,
      "Ġ201": 539,
      "Ġel": 540,
      "overn": 541,
      "Ġlead": 542,
      "Ġlakh": 543,
      "ongress": 544,
      "ister": 545,
      "ĠHC": 546,
      "Ġpart": 547,
      "Ġsec": 548,
      "akes": 549,
      "ations": 550,
      "erv": 551,
      "Ġam": 552,
      "outh": 553,
      "Ġdo": 554,
      "ush": 555,
      "000": 556,
      "Ġsl": 557,
      "Ġarrested": 558,
      "ty": 559,
      "urder": 560,
      "enc": 561,
      "na": 562,
      "Ġim": 563,
      "Ġher": 564,
      "ati": 565,
      "ict": 566,
      "att": 567,
      "year": 568,
      "Ġ6": 569,
      "Ġprot": 570,
      "Ġcases": 571,
      "Ġcomm": 572,
      "ĠRaj": 573,
      "atch": 574,
      "ody": 575,
      "Ġmeet": 576,
      "Ġapp": 577,
      "ory": 578,
      "ade": 579,
      "Ġrap": 580,
      "une": 581,
      "ends": 582,
      "ams": 583,
      "ĠSh": 584,
      "Ġunder": 585,
      "Ġass": 586,
      "ani": 587,
      "Ġit": 588,
      "ally": 589,
      "Ġcops": 590,
      "Ġkilled": 591,
      "oor": 592,
      "ues": 593,
      "unch": 594,
      "Ġ10": 595,
      "Ġbu": 596,
      "eh": 597,
      "Ġwater": 598,
      "ss": 599,
      "air": 600,
      "ists": 601,
      "Ġmurder": 602,
      "les": 603,
      "ives": 604,
      "ib": 605,
      "Ġcourt": 606,
      "ital": 607,
      "ting": 608,
      "Wh": 609,
      "ike": 610,
      "Ġ7": 611,
      "ove": 612,
      "Ġsur": 613,
      "ose": 614,
      "uck": 615,
      "Ġ&": 616,
      "Ġgirl": 617,
      "Th": 618,
      "entre": 619,
      "Ġtake": 620,
      "Ġno": 621,
      "arat": 622,
      "Ġtoday": 623,
      "tra": 624,
      "Ġhis": 625,
      "Ġla": 626,
      "Ġdem": 627,
      "osp": 628,
      "app": 629,
      "Ġcrore": 630,
      "ll": 631,
      "Ġback": 632,
      "ĠCovid": 633,
      "olle": 634,
      "rit": 635,
      "az": 636,
      "BI": 637,
      "uk": 638,
      "ids": 639,
      "Ġstate": 640,
      "ects": 641,
      "odi": 642,
      "ats": 643,
      "Ġbo": 644,
      "Ġhave": 645,
      "uld": 646,
      "ou": 647,
      "Ġfound": 648,
      "ull": 649,
      "vel": 650,
      "Ġbut": 651,
      "ort": 652,
      "engal": 653,
      "af": 654,
      "ord": 655,
      "use": 656,
      "ĠSt": 657,
      "Ġland": 658,
      "used": 659,
      "ated": 660,
      "ile": 661,
      "Ġsup": 662,
      "ahar": 663,
      "ection": 664,
      "Ġrem": 665,
      "The": 666,
      "ted": 667,
      "ery": 668,
      "ame": 669,
      "Ġstr": 670,
      "eep": 671,
      "India": 672,
      "Ġdep": 673,
      "Govt": 674,
      "ĠSing": 675,
      "ĠBh": 676,
      "Ġrev": 677,
      "anc": 678,
      "Ġpe": 679,
      "ix": 680,
      "Ġtri": 681,
      "Ġlife": 682,
      "ims": 683,
      "Ġdec": 684,
      "ĠMumbai": 685,
      "Ġcall": 686,
      "eal": 687,
      "Ġdown": 688,
      "able": 689,
      "emp": 690,
      "Ġpre": 691,
      "Ġpower": 692,
      "An": 693,
      "ann": 694,
      "Ġhas": 695,
      "overnment": 696,
      "ms": 697,
      "adesh": 698,
      "ours": 699,
      "get": 700,
      "Ġdead": 701,
      "Ġpan": 702,
      "Ġproj": 703,
      "Ġtwo": 704,
      "Ġprotest": 705,
      "hief": 706,
      "Ġact": 707,
      "Ġthis": 708,
      "Ġtest": 709,
      "enn": 710,
      "ct": 711,
      "ffic": 712,
      "ely": 713,
      "Ġret": 714,
      "ics": 715,
      "ĠUn": 716,
      "duc": 717,
      "Ġfirst": 718,
      "ujarat": 719,
      "aff": 720,
      "Ġseeks": 721,
      "ational": 722,
      "ities": 723,
      "Ġmed": 724,
      "Ġchar": 725,
      "ises": 726,
      "Ġfin": 727,
      "Ġper": 728,
      "Ġwoman": 729,
      "Ġvis": 730,
      "Ġhelp": 731,
      "Ġyears": 732,
      "Ġbook": 733,
      "Ġlaunch": 734,
      "Ġcomp": 735,
      "Ġdist": 736,
      "Ġshow": 737,
      "Ġev": 738,
      "Ġ8": 739,
      "BJP": 740,
      "ĠSingh": 741,
      "Ġair": 742,
      "ech": 743,
      "Sh": 744,
      "ashtra": 745,
      "Ġmake": 746,
      "Ġday": 747,
      "kar": 748,
      "Ġwomen": 749,
      "Two": 750,
      "gal": 751,
      "Ġsu": 752,
      "Ġiss": 753,
      "xt": 754,
      "ina": 755,
      "usp": 756,
      "Ġcar": 757,
      "Ġplay": 758,
      "ices": 759,
      "ector": 760,
      "err": 761,
      "ram": 762,
      "ink": 763,
      "ouse": 764,
      "ĠAm": 765,
      "oa": 766,
      "Ġmar": 767,
      "Delhi": 768,
      "iver": 769,
      "Ġpos": 770,
      "Ġhosp": 771,
      "Ġprobe": 772,
      "line": 773,
      "Ġdoc": 774,
      "Ġcor": 775,
      "ĠPradesh": 776,
      "aharashtra": 777,
      "oh": 778,
      "pr": 779,
      "Ġchief": 780,
      "els": 781,
      "ma": 782,
      "ĠPak": 783,
      "ards": 784,
      "ali": 785,
      "ĠModi": 786,
      "ihar": 787,
      "Ġinf": 788,
      "HC": 789,
      "ys": 790,
      "Ġdies": 791,
      "ĠUS": 792,
      "Ġpolls": 793,
      "olice": 794,
      "other": 795,
      "rik": 796,
      "Ġinv": 797,
      "gl": 798,
      "ĠCongress": 799,
      "IT": 800,
      "eleb": 801,
      "Ġcle": 802,
      "Ġdef": 803,
      "New": 804,
      "Ġdel": 805,
      "ement": 806,
      "ĠPM": 807,
      "Ġcamp": 808,
      "Ġwin": 809,
      "ump": 810,
      "Ġbeg": 811,
      "ĠAn": 812,
      "ĠMan": 813,
      "Wom": 814,
      "ines": 815,
      "aka": 816,
      "iversity": 817,
      "uru": 818,
      "sh": 819,
      "Ġreg": 820,
      "Ġexp": 821,
      "ert": 822,
      "elf": 823,
      "Ġwho": 824,
      "ale": 825,
      "olk": 826,
      "Ġdemand": 827,
      "Ġplan": 828,
      "jur": 829,
      "Ġsusp": 830,
      "Ġpar": 831,
      "ople": 832,
      "Ġrun": 833,
      "Ġits": 834,
      "Ġwas": 835,
      "ĠIndian": 836,
      "med": 837,
      "Ġhome": 838,
      "wn": 839,
      "ari": 840,
      "Ġaw": 841,
      "ission": 842,
      "urns": 843,
      "Ġfe": 844,
      "eek": 845,
      "Ġbody": 846,
      "ĠIn": 847,
      "augh": 848,
      "ĠAr": 849,
      "aid": 850,
      "Ġhit": 851,
      "reen": 852,
      "Ġdays": 853,
      "Ġcoun": 854,
      "Ġcolle": 855,
      "Ġofficial": 856,
      "now": 857,
      "LA": 858,
      "ga": 859,
      "mer": 860,
      "Ġ9": 861,
      "Ġinter": 862,
      "Ġyou": 863,
      "Ġone": 864,
      "Ġtime": 865,
      "ral": 866,
      "ennai": 867,
      "agar": 868,
      "Ġabout": 869,
      "Ex": 870,
      "Ġinjur": 871,
      "ĠBengal": 872,
      "Ġattack": 873,
      "alk": 874,
      "ots": 875,
      "ating": 876,
      "Ġopen": 877,
      "ould": 878,
      "hip": 879,
      "ikely": 880,
      "Ġmonth": 881,
      "acks": 882,
      "olkata": 883,
      "Ġfarm": 884,
      "Ġnear": 885,
      "ex": 886,
      "jab": 887,
      "Ġsm": 888,
      "adu": 889,
      "ute": 890,
      "Ġnow": 891,
      "ights": 892,
      "Ġfr": 893,
      "Ġfac": 894,
      "Ġboy": 895,
      "On": 896,
      "Ġsoon": 897,
      "asth": 898,
      "idents": 899,
      "li": 900,
      "Ġind": 901,
      "ected": 902,
      "Ġtrans": 903,
      "cr": 904,
      "Ġcut": 905,
      "Ġsw": 906,
      "SC": 907,
      "Ġpass": 908,
      "uss": 909,
      "Ġyour": 910,
      "yder": 911,
      "arnat": 912,
      "Ġvot": 913,
      "Ġgr": 914,
      "Ġinc": 915,
      "Ġgu": 916,
      "Ġplans": 917,
      "Ġstrik": 918,
      "ells": 919,
      "ember": 920,
      "Ġcoll": 921,
      "Ġkids": 922,
      "ady": 923,
      "ĠUP": 924,
      "Ġins": 925,
      "Ġref": 926,
      "Ġtax": 927,
      "Ġfilm": 928,
      "arnataka": 929,
      "asthan": 930,
      "Ġph": 931,
      "ution": 932,
      "Ġminister": 933,
      "Raj": 934,
      "Ġen": 935,
      "Ġneed": 936,
      "yderabad": 937,
      "eg": 938,
      "Ġpay": 939,
      "Ġreport": 940,
      "oss": 941,
      "Ġtrain": 942,
      "Ġgovernment": 943,
      "ual": 944,
      "Ġserv": 945,
      "19": 946,
      "Ġfamil": 947,
      "Ġstaff": 948,
      "Ġfall": 949,
      "Ġvill": 950,
      "Ġbooked": 951,
      "Ġbre": 952,
      "Ġmark": 953,
      "angana": 954,
      "Mumbai": 955,
      "ĠKhan": 956,
      "Ġceleb": 957,
      "Ġent": 958,
      "Ġem": 959,
      "ĠTh": 960,
      "Ġhold": 961,
      "een": 962,
      "unjab": 963,
      "Ġimp": 964,
      "orld": 965,
      "Ġwe": 966,
      "Ġlikely": 967,
      "ains": 968,
      "Ġtheir": 969,
      "erala": 970,
      "Ġchild": 971,
      "Ġlaw": 972,
      "iol": 973,
      "istan": 974,
      "Ġ15": 975,
      "ther": 976,
      "Ġsay": 977,
      "Ġthreat": 978,
      "ĠUniversity": 979,
      "Ġfund": 980,
      "etro": 981,
      "Ġgro": 982,
      "ire": 983,
      "Ġso": 984,
      "eck": 985,
      "Ġstart": 986,
      "ij": 987,
      "min": 988,
      "Ġteam": 989,
      "Ġpeople": 990,
      "ged": 991,
      "Ġed": 992,
      "Ġpanel": 993,
      "Ġban": 994,
      "Ġteach": 995,
      "Ġbet": 996,
      "Ġaccused": 997,
      "Ġschools": 998,
      "ara": 999,
      "urity": 1000,
      "bed": 1001,
      "elangana": 1002,
      "Ġext": 1003,
      "PM": 1004,
      "ecial": 1005,
      "ports": 1006,
      "aking": 1007,
      "Ġple": 1008,
      "DA": 1009,
      "Ġpost": 1010,
      "Ġbig": 1011,
      "Ġprom": 1012,
      "ubl": 1013,
      "Ġfire": 1014,
      "Ġnext": 1015,
      "ied": 1016,
      "Ġtakes": 1017,
      "Ġstill": 1018,
      "Ġjail": 1019,
      "uring": 1020,
      "Ġthat": 1021,
      "Ġheal": 1022,
      "Ġhear": 1023,
      "adi": 1024,
      "Woman": 1025,
      "Ġcons": 1026,
      "Ġfail": 1027,
      "Ġparty": 1028,
      "Ġmiss": 1029,
      "Ġra": 1030,
      "Ġproject": 1031,
      "CC": 1032,
      "tt": 1033,
      "anj": 1034,
      "Ġmov": 1035,
      "20": 1036,
      "eas": 1037,
      "ism": 1038,
      "Ġmen": 1039,
      "Ġthan": 1040,
      "ather": 1041,
      "itt": 1042,
      "Ġown": 1043,
      "Ġcelebr": 1044,
      "Ar": 1045,
      "Ġdir": 1046,
      "oses": 1047,
      "anch": 1048,
      "Ġdistric": 1049,
      "ope": 1050,
      "iew": 1051,
      "iness": 1052,
      "Ġhospital": 1053,
      "Ġbuild": 1054,
      "ole": 1055,
      "adh": 1056,
      "ames": 1057,
      "ĠNadu": 1058,
      "kh": 1059,
      "Ġgl": 1060,
      "edd": 1061,
      "ĠMLA": 1062,
      "bs": 1063,
      "Ġtop": 1064,
      "Ġwants": 1065,
      "ange": 1066,
      "Ġturn": 1067,
      "ama": 1068,
      "ized": 1069,
      "yr": 1070,
      "Ġend": 1071,
      "legal": 1072,
      "ures": 1073,
      "cess": 1074,
      "icide": 1075,
      "ĠNo": 1076,
      "Ġrape": 1077,
      "ena": 1078,
      "hah": 1079,
      "Ġjob": 1080,
      "ao": 1081,
      "fer": 1082,
      "ages": 1083,
      "Ġvict": 1084,
      "Ġhealth": 1085,
      "Tr": 1086,
      "Ġcop": 1087,
      "Ġcompl": 1088,
      "arb": 1089,
      "Ġwant": 1090,
      "Ġhits": 1091,
      "ĠSC": 1092,
      "Ġseek": 1093,
      "Ġstrike": 1094,
      "Ġwife": 1095,
      "ross": 1096,
      "Ġaction": 1097,
      "Ġinjured": 1098,
      "ph": 1099,
      "ious": 1100,
      "Ġfight": 1101,
      "Ġstar": 1102,
      "Ġsaf": 1103,
      "ĠMar": 1104,
      "omm": 1105,
      "hik": 1106,
      "Pro": 1107,
      "Ġorder": 1108,
      "Ġcla": 1109,
      "error": 1110,
      "ta": 1111,
      "wood": 1112,
      "Am": 1113,
      "Ġcur": 1114,
      "Police": 1115,
      "ĠDay": 1116,
      "Ġelect": 1117,
      "Ġz": 1118,
      "Ġwar": 1119,
      "Ġgoes": 1120,
      "Ġvisit": 1121,
      "Ġsub": 1122,
      "Ġdon": 1123,
      "ada": 1124,
      "Ġdoct": 1125,
      "ivic": 1126,
      "Ġey": 1127,
      "Ġrecord": 1128,
      "Ġshar": 1129,
      "Ġdra": 1130,
      "Pr": 1131,
      "cl": 1132,
      "Ġfest": 1133,
      "Ġhand": 1134,
      "amb": 1135,
      "ĠGoa": 1136,
      "Ġbail": 1137,
      "ival": 1138,
      "ĠGujarat": 1139,
      "rol": 1140,
      "Ġweek": 1141,
      "Ġscam": 1142,
      "Ġfamily": 1143,
      "Ġsy": 1144,
      "Ġrob": 1145,
      "idn": 1146,
      "Ġsex": 1147,
      "Ġdes": 1148,
      "Ġdet": 1149,
      "Ġasks": 1150,
      "ief": 1151,
      "ites": 1152,
      "Ġway": 1153,
      "Ġdrive": 1154,
      "ety": 1155,
      "uses": 1156,
      "Ġnet": 1157,
      "umar": 1158,
      "ĠMP": 1159,
      "Cops": 1160,
      "Ġtour": 1161,
      "Ġviol": 1162,
      "ait": 1163,
      "Ġmy": 1164,
      "poration": 1165,
      "ees": 1166,
      "II": 1167,
      "ont": 1168,
      "AP": 1169,
      "ning": 1170,
      "Ġsn": 1171,
      "Ġmust": 1172,
      "hmed": 1173,
      "ĠPat": 1174,
      "Ġvac": 1175,
      "Ġput": 1176,
      "ĠAd": 1177,
      "ploy": 1178,
      "Ġface": 1179,
      "Ġrail": 1180,
      "Ġtraffic": 1181,
      "Ġbef": 1182,
      "ird": 1183,
      "ublic": 1184,
      "aya": 1185,
      "Ġyouth": 1186,
      "Pak": 1187,
      "arh": 1188,
      "Ġyet": 1189,
      "Ġcontin": 1190,
      "ru": 1191,
      "ren": 1192,
      "Ġcent": 1193,
      "Now": 1194,
      "Ġshould": 1195,
      "ips": 1196,
      "oint": 1197,
      "Ġhouse": 1198,
      "Ġ12": 1199,
      "Ġbefore": 1200,
      "omb": 1201,
      "aps": 1202,
      "Ġworth": 1203,
      "Ġtal": 1204,
      "Ġaut": 1205,
      "Ġdeal": 1206,
      "Ġadd": 1207,
      "Three": 1208,
      "orms": 1209,
      "Ġrain": 1210,
      "ĠChennai": 1211,
      "Ġsuicide": 1212,
      "eed": 1213,
      "ault": 1214,
      "rid": 1215,
      "ows": 1216,
      "CM": 1217,
      "uch": 1218,
      "ply": 1219,
      "icip": 1220,
      "Ġstudent": 1221,
      "hra": 1222,
      "ere": 1223,
      "Ġsk": 1224,
      "ĠRam": 1225,
      "Congress": 1226,
      "Ġduring": 1227,
      "Ġthree": 1228,
      "Ġrise": 1229,
      "olly": 1230,
      "Sp": 1231,
      "ians": 1232,
      "Ġamong": 1233,
      "Ġfind": 1234,
      "ĠZ": 1235,
      "Ġlook": 1236,
      "iqu": 1237,
      "la": 1238,
      "Ġbro": 1239,
      "Ġaway": 1240,
      "State": 1241,
      "Ġhead": 1242,
      "eet": 1243,
      "Ġson": 1244,
      "ott": 1245,
      "Ġdevel": 1246,
      "ision": 1247,
      "Ġann": 1248,
      "Ġtells": 1249,
      "Ġofficials": 1250,
      "cer": 1251,
      "ces": 1252,
      "Ġred": 1253,
      "urs": 1254,
      "Ġgang": 1255,
      "Ġinvest": 1256,
      "led": 1257,
      "ĠPar": 1258,
      "ĠPune": 1259,
      "Ġplea": 1260,
      "Ġbill": 1261,
      "ida": 1262,
      "Ġpati": 1263,
      "Ġready": 1264,
      "Ġpolit": 1265,
      "Ġsecurity": 1266,
      "ders": 1267,
      "ĠCup": 1268,
      "Ġroads": 1269,
      "US": 1270,
      "Ġgold": 1271,
      "Ġworkers": 1272,
      "Ġaff": 1273,
      "hmedabad": 1274,
      "Ġsoc": 1275,
      "ying": 1276,
      "Ġus": 1277,
      "Ġloc": 1278,
      "Ġgive": 1279,
      "Ġgrow": 1280,
      "ĠKap": 1281,
      "ended": 1282,
      "CB": 1283,
      "ness": 1284,
      "ised": 1285,
      "Ġhur": 1286,
      "aryana": 1287,
      "ĠBihar": 1288,
      "ĠWorld": 1289,
      "rem": 1290,
      "Ġche": 1291,
      "Un": 1292,
      "Ġpolic": 1293,
      "Ġdisc": 1294,
      "ruc": 1295,
      "Ġadm": 1296,
      "SE": 1297,
      "Ġlo": 1298,
      "Ġjust": 1299,
      "ehic": 1300,
      "Ġ$": 1301,
      "Ġkills": 1302,
      "Ġturns": 1303,
      "Ġfour": 1304,
      "very": 1305,
      "Ġresc": 1306,
      "icket": 1307,
      "Ġairport": 1308,
      "ger": 1309,
      "Ġur": 1310,
      "rov": 1311,
      "ĠEx": 1312,
      "Is": 1313,
      "aste": 1314,
      "Ġpark": 1315,
      "Ġdeb": 1316,
      "Ġaccident": 1317,
      "Ġbegins": 1318,
      "ollywood": 1319,
      "It": 1320,
      "ural": 1321,
      "Ġrul": 1322,
      "angal": 1323,
      "oes": 1324,
      "ttar": 1325,
      "war": 1326,
      "itiz": 1327,
      "aves": 1328,
      "ency": 1329,
      "ucknow": 1330,
      "uty": 1331,
      "head": 1332,
      "Ġtar": 1333,
      "Ġtoo": 1334,
      "andid": 1335,
      "ĠGand": 1336,
      "ahul": 1337,
      "Ġdevelop": 1338,
      "Ġil": 1339,
      "Ġgood": 1340,
      "Ġexam": 1341,
      "Ġbank": 1342,
      "Ġfarmers": 1343,
      "ĠCor": 1344,
      "ivate": 1345,
      "Ġkeep": 1346,
      "Ġterror": 1347,
      "Ġsol": 1348,
      "Ġdro": 1349,
      "aint": 1350,
      "Ġmonths": 1351,
      "Ġopp": 1352,
      "ĠMaharashtra": 1353,
      "endra": 1354,
      "esident": 1355,
      "Ġmakes": 1356,
      "Ġ-": 1357,
      "Stud": 1358,
      "Indian": 1359,
      "IR": 1360,
      "ST": 1361,
      "Ġcap": 1362,
      "ific": 1363,
      "Ġjud": 1364,
      "Ġ50": 1365,
      "my": 1366,
      "Ġant": 1367,
      "stit": 1368,
      "Ġca": 1369,
      "Ġwrit": 1370,
      "riend": 1371,
      "ork": 1372,
      "Ġlast": 1373,
      "udget": 1374,
      "Ġself": 1375,
      "Ġbid": 1376,
      "Ġseized": 1377,
      "Ġalle": 1378,
      "Ġ11": 1379,
      "Ġprof": 1380,
      "Ġnotice": 1381,
      "ones": 1382,
      "emple": 1383,
      "Ġreal": 1384,
      "Ġbusiness": 1385,
      "Ġschem": 1386,
      "pos": 1387,
      "Ġfree": 1388,
      "ĠCentre": 1389,
      "Ġconf": 1390,
      "Ġworld": 1391,
      "ued": 1392,
      "wers": 1393,
      "Ġcalls": 1394,
      "ner": 1395,
      "ĠQ": 1396,
      "Ġonline": 1397,
      "ĠCBI": 1398,
      "ĠKolkata": 1399,
      "ndhra": 1400,
      "Ġcome": 1401,
      "Maharashtra": 1402,
      "ease": 1403,
      "form": 1404,
      "wal": 1405,
      "Ġeng": 1406,
      "Ġeduc": 1407,
      "After": 1408,
      "usic": 1409,
      "uble": 1410,
      "39": 1411,
      "ior": 1412,
      "Ġbab": 1413,
      "Ġonly": 1414,
      "How": 1415,
      "ĠCong": 1416,
      "ĠKumar": 1417,
      "Ġshoot": 1418,
      "aipur": 1419,
      "Ġrest": 1420,
      "ging": 1421,
      "Ġsal": 1422,
      "Ġbec": 1423,
      "Ġoper": 1424,
      "Ġ25": 1425,
      "Ġgives": 1426,
      "Ġnod": 1427,
      "IA": 1428,
      "Ġcandid": 1429,
      "Ġvehic": 1430,
      "10": 1431,
      "Gujarat": 1432,
      "uv": 1433,
      "Ġlist": 1434,
      "Ġspecial": 1435,
      "Ġleader": 1436,
      "Ġap": 1437,
      "Ġ100": 1438,
      "rup": 1439,
      "Ġrow": 1440,
      "Ġhot": 1441,
      "Ġdrug": 1442,
      "ĠGandhi": 1443,
      "res": 1444,
      "Ġmove": 1445,
      "Ġhost": 1446,
      "chool": 1447,
      "Ġcust": 1448,
      "Ġindust": 1449,
      "ĠTamil": 1450,
      "ift": 1451,
      "ĠPunjab": 1452,
      "Ġsurv": 1453,
      "Ġmod": 1454,
      "olog": 1455,
      "ults": 1456,
      "Ġfood": 1457,
      "ility": 1458,
      "eld": 1459,
      "apur": 1460,
      "ries": 1461,
      "ĠHyderabad": 1462,
      "rib": 1463,
      "City": 1464,
      "ments": 1465,
      "Ġhike": 1466,
      "ĠMay": 1467,
      "aks": 1468,
      "ĠThe": 1469,
      "Ġstation": 1470,
      "iving": 1471,
      "Ġ30": 1472,
      "UP": 1473,
      "Ġrelief": 1474,
      "gaon": 1475,
      "Ġillegal": 1476,
      "aur": 1477,
      "itch": 1478,
      "ĠChand": 1479,
      "Ġsupport": 1480,
      "ball": 1481,
      "ocks": 1482,
      "Ad": 1483,
      "RT": 1484,
      "Ġissue": 1485,
      "aign": 1486,
      "Ġshi": 1487,
      "Ġoffice": 1488,
      "aughter": 1489,
      "ber": 1490,
      "Ġfly": 1491,
      "Ġden": 1492,
      "ĠShar": 1493,
      "ĠNew": 1494,
      "ĠTr": 1495,
      "thers": 1496,
      "Ġconv": 1497,
      "imes": 1498,
      "pt": 1499,
      "unt": 1500,
      "Ġstay": 1501,
      "PL": 1502,
      "Ġproper": 1503,
      "earch": 1504,
      "elling": 1505,
      "embly": 1506,
      "ĠKapoor": 1507,
      "iw": 1508,
      "raight": 1509,
      "Ġrej": 1510,
      "Ġter": 1511,
      "ept": 1512,
      "Cong": 1513,
      "SP": 1514,
      "pir": 1515,
      "ering": 1516,
      "ators": 1517,
      "ĠSur": 1518,
      "ĠShah": 1519,
      "Ġresidents": 1520,
      "IC": 1521,
      "ative": 1522,
      "irth": 1523,
      "ĠAs": 1524,
      "Ġdelay": 1525,
      "CP": 1526,
      "unicip": 1527,
      "avi": 1528,
      "Ġissues": 1529,
      "Ġear": 1530,
      "Ġleaders": 1531,
      "unicipal": 1532,
      "co": 1533,
      "Ġdiv": 1534,
      "Ġstat": 1535,
      "Ġcheck": 1536,
      "Ġdistrict": 1537,
      "Ġends": 1538,
      "stem": 1539,
      "Ġmoney": 1540,
      "ret": 1541,
      "Ġwins": 1542,
      "Tra": 1543,
      "gest": 1544,
      "par": 1545,
      "Ġcentre": 1546,
      "Ġlove": 1547,
      "ides": 1548,
      "Ġjoin": 1549,
      "ooks": 1550,
      "attle": 1551,
      "As": 1552,
      "ĠJan": 1553,
      "ught": 1554,
      "ways": 1555,
      "gr": 1556,
      "itive": 1557,
      "Ġbeat": 1558,
      "Ġart": 1559,
      "anka": 1560,
      "Ġorders": 1561,
      "Ġsecond": 1562,
      "ĠPakistan": 1563,
      "ead": 1564,
      "Ġcivic": 1565,
      "agpur": 1566,
      "Ġ14": 1567,
      "ration": 1568,
      "Ġ19": 1569,
      "Min": 1570,
      "Ġstand": 1571,
      "ota": 1572,
      "tions": 1573,
      "Ġminor": 1574,
      "Pune": 1575,
      "oli": 1576,
      "ĠMal": 1577,
      "oth": 1578,
      "raud": 1579,
      "ears": 1580,
      "Ġser": 1581,
      "ĠKerala": 1582,
      "Ġboard": 1583,
      "Ġprojects": 1584,
      "Ġemploy": 1585,
      "We": 1586,
      "ony": 1587,
      "ĠSal": 1588,
      "Ġcash": 1589,
      "Ġcolleges": 1590,
      "ka": 1591,
      "Ġchall": 1592,
      "Ġresp": 1593,
      "obal": 1594,
      "Ġadv": 1595,
      "ule": 1596,
      "Ġreturn": 1597,
      "Ġteachers": 1598,
      "down": 1599,
      "Ġfun": 1600,
      "Ġlab": 1601,
      "ĠChina": 1602,
      "All": 1603,
      "ti": 1604,
      "Ġnab": 1605,
      "Ġclean": 1606,
      "Ġif": 1607,
      "Ġkin": 1608,
      "Ġsum": 1609,
      "ĠEn": 1610,
      "MS": 1611,
      "aran": 1612,
      "Ġtold": 1613,
      "ular": 1614,
      "opal": 1615,
      "ashes": 1616,
      "ĠCl": 1617,
      "ags": 1618,
      "Bh": 1619,
      "CR": 1620,
      "Ġdie": 1621,
      "Ġquest": 1622,
      "Ġrecover": 1623,
      "Ġofficer": 1624,
      "Ġcampaign": 1625,
      "ience": 1626,
      "tern": 1627,
      "Ġmissing": 1628,
      "Ġtalks": 1629,
      "Ġtemple": 1630,
      "iger": 1631,
      "Ġexper": 1632,
      "ĠRajasthan": 1633,
      "Ġcharges": 1634,
      "Ġlike": 1635,
      "Ġactiv": 1636,
      "aught": 1637,
      "Ġrules": 1638,
      "Ġeducation": 1639,
      "Ġtreat": 1640,
      "Ġhous": 1641,
      "uth": 1642,
      "ĠMetro": 1643,
      "Ġstop": 1644,
      "Ġtrad": 1645,
      "For": 1646,
      "Ġenc": 1647,
      "orth": 1648,
      "ling": 1649,
      "erc": 1650,
      "ĠMah": 1651,
      "Ġsupply": 1652,
      "Karnataka": 1653,
      "mp": 1654,
      "Ġclass": 1655,
      "Ġtech": 1656,
      "ury": 1657,
      "Straight": 1658,
      "Ġfoot": 1659,
      "ited": 1660,
      "ĠIT": 1661,
      "Ġplant": 1662,
      "Ġcollege": 1663,
      "rap": 1664,
      "ĠDec": 1665,
      "Ġshot": 1666,
      "Ġpublic": 1667,
      "Ġfunds": 1668,
      "ĠCourt": 1669,
      "ĠNar": 1670,
      "Ġlaunches": 1671,
      "Ġec": 1672,
      "rs": 1673,
      "Ġtill": 1674,
      "ĠAl": 1675,
      "ĠKarnataka": 1676,
      "What": 1677,
      "ĠCorporation": 1678,
      "Ġthr": 1679,
      "rees": 1680,
      "Ġtrib": 1681,
      "Ġsent": 1682,
      "Ġ16": 1683,
      "Ġbeh": 1684,
      "ika": 1685,
      "Ġassault": 1686,
      "Ġsystem": 1687,
      "50": 1688,
      "ract": 1689,
      "Ġold": 1690,
      "imin": 1691,
      "Ġflood": 1692,
      "Ġpap": 1693,
      "Ġahead": 1694,
      "Ġseats": 1695,
      "angalore": 1696,
      "NG": 1697,
      "reet": 1698,
      "Ġshut": 1699,
      "ension": 1700,
      "Ġdepart": 1701,
      "Ġcompan": 1702,
      "Four": 1703,
      "esc": 1704,
      "avy": 1705,
      "En": 1706,
      "ison": 1707,
      "Ġstep": 1708,
      "omes": 1709,
      "ĠWh": 1710,
      "Ġfirm": 1711,
      "Ġ202": 1712,
      "ukh": 1713,
      "Ġbirth": 1714,
      "chi": 1715,
      "ĠKh": 1716,
      "Ġclear": 1717,
      "ijay": 1718,
      "onom": 1719,
      "Ġdriver": 1720,
      "Rajasthan": 1721,
      "Ġpolicy": 1722,
      "IL": 1723,
      "orn": 1724,
      "ung": 1725,
      "Ġ13": 1726,
      "Ġmarket": 1727,
      "Ġdoctors": 1728,
      "Ġpatients": 1729,
      "Dr": 1730,
      "Ġsuc": 1731,
      "Ġsets": 1732,
      "ĠAss": 1733,
      "Ġ200": 1734,
      "Ġcount": 1735,
      "Rs": 1736,
      "Ġhar": 1737,
      "Ġ18": 1738,
      "Ġprices": 1739,
      "gy": 1740,
      "Ġlow": 1741,
      "Ġuse": 1742,
      "Ġfraud": 1743,
      "Ġcy": 1744,
      "ĠSon": 1745,
      "ĠAns": 1746,
      "Ġtrade": 1747,
      "ible": 1748,
      "bh": 1749,
      "anth": 1750,
      "Ġbar": 1751,
      "ich": 1752,
      "Ġcitiz": 1753,
      "Ġother": 1754,
      "Ġwon": 1755,
      "ased": 1756,
      "Ġareas": 1757,
      "Ġvillage": 1758,
      "Ġreach": 1759,
      "Ġbeing": 1760,
      "Ġkilling": 1761,
      "Ġdeaths": 1762,
      "Ġmarri": 1763,
      "Co": 1764,
      "band": 1765,
      "Ġav": 1766,
      "Ġmil": 1767,
      "Ġchange": 1768,
      "Kolkata": 1769,
      "gan": 1770,
      "ator": 1771,
      "ene": 1772,
      "ern": 1773,
      "Ġmob": 1774,
      "udd": 1775,
      "ustral": 1776,
      "Ġgroup": 1777,
      "Ġscheme": 1778,
      "Ġcours": 1779,
      "ĠDh": 1780,
      "ĠGur": 1781,
      "Ġ24": 1782,
      "Ġfinal": 1783,
      "Goa": 1784,
      "icks": 1785,
      "roach": 1786,
      "Why": 1787,
      "High": 1788,
      "men": 1789,
      "ĠSab": 1790,
      "ĠRoad": 1791,
      "ĠX": 1792,
      "Ġpers": 1793,
      "uple": 1794,
      "Ġdept": 1795,
      "Ġtw": 1796,
      "igns": 1797,
      "ĠTelangana": 1798,
      "ender": 1799,
      "Ġclaims": 1800,
      "Telangana": 1801,
      "ession": 1802,
      "Covid": 1803,
      "Ġsix": 1804,
      "ails": 1805,
      "Ġcould": 1806,
      "Bl": 1807,
      "When": 1808,
      "Ġfalls": 1809,
      "Ġbetter": 1810,
      "ble": 1811,
      "Ġpet": 1812,
      "Ġdaughter": 1813,
      "acy": 1814,
      "Ġthro": 1815,
      "ĠDev": 1816,
      "ape": 1817,
      "iff": 1818,
      "Ġreview": 1819,
      "Will": 1820,
      "eak": 1821,
      "Ġsing": 1822,
      "Ġdi": 1823,
      "Ġfake": 1824,
      "Ġdue": 1825,
      "Ġgreen": 1826,
      "uly": 1827,
      "Ġdoes": 1828,
      "ĠBengaluru": 1829,
      "khand": 1830,
      "Ġmost": 1831,
      "Ġmusic": 1832,
      "Ġgra": 1833,
      "ĠMad": 1834,
      "imb": 1835,
      "Ġbegin": 1836,
      "Ph": 1837,
      "ini": 1838,
      "ksh": 1839,
      "Ġaward": 1840,
      "One": 1841,
      "Bengal": 1842,
      "alu": 1843,
      "ream": 1844,
      "Ġshort": 1845,
      "Ġvacc": 1846,
      "Cl": 1847,
      "Te": 1848,
      "ason": 1849,
      "oms": 1850,
      "mit": 1851,
      "ills": 1852,
      "Ġ17": 1853,
      "iquor": 1854,
      "era": 1855,
      "Ġsign": 1856,
      "aram": 1857,
      "Ġcost": 1858,
      "Ġrep": 1859,
      "Ġtrains": 1860,
      "Ġhurt": 1861,
      "Ġbust": 1862,
      "ete": 1863,
      "here": 1864,
      "io": 1865,
      "ran": 1866,
      "uel": 1867,
      "Ġask": 1868,
      "Ġmedical": 1869,
      "Ġanti": 1870,
      "ination": 1871,
      "Ġdam": 1872,
      "ising": 1873,
      "ĠCity": 1874,
      "Ġreleas": 1875,
      "ras": 1876,
      "ature": 1877,
      "Ġpoor": 1878,
      "Ġbest": 1879,
      "Ġrate": 1880,
      "Ġproduc": 1881,
      "Ġkn": 1882,
      "Court": 1883,
      "ourn": 1884,
      "Ġresults": 1885,
      "Ġassembly": 1886,
      "ĠNoida": 1887,
      "Sc": 1888,
      "Tamil": 1889,
      "ield": 1890,
      "ening": 1891,
      "Ġrally": 1892,
      "Ġboost": 1893,
      "ener": 1894,
      "Ġwaste": 1895,
      "aster": 1896,
      "ocus": 1897,
      "Ġoffer": 1898,
      "Ġelections": 1899,
      "AT": 1900,
      "Ġcover": 1901,
      "isis": 1902,
      "ĠRe": 1903,
      "Ġconst": 1904,
      "Ġacqu": 1905,
      "Ġblast": 1906,
      "ount": 1907,
      "Ġbuilding": 1908,
      "usl": 1909,
      "oung": 1910,
      "Ġgrowth": 1911,
      "less": 1912,
      "ron": 1913,
      "int": 1914,
      "Ġhon": 1915,
      "Ġthem": 1916,
      "Ġwithout": 1917,
      "Ġrelease": 1918,
      "Ġtro": 1919,
      "Ġrole": 1920,
      "Ġwatch": 1921,
      "ensex": 1922,
      "';": 1923,
      "AI": 1924,
      "Over": 1925,
      "gn": 1926,
      "Ġhim": 1927,
      "Ġloss": 1928,
      "Ġ40": 1929,
      "ane": 1930,
      "orrow": 1931,
      "Ġchildren": 1932,
      "Ġengine": 1933,
      "Ġnight": 1934,
      "ands": 1935,
      "ĠAf": 1936,
      "Ġcustody": 1937,
      "yan": 1938,
      "Ġwr": 1939,
      "ĠAct": 1940,
      "Ġkidn": 1941,
      "Ġmanag": 1942,
      "oints": 1943,
      "edding": 1944,
      "Ġgirls": 1945,
      "..": 1946,
      "Centre": 1947,
      "Kerala": 1948,
      "Ġtoll": 1949,
      "Ġbel": 1950,
      "Ġdup": 1951,
      "ĠHaryana": 1952,
      "Ġprivate": 1953,
      "ĠAnswers": 1954,
      "ET": 1955,
      "pite": 1956,
      "Ġtrack": 1957,
      "Ġdepartment": 1958,
      "read": 1959,
      "Ġkey": 1960,
      "haw": 1961,
      "ashm": 1962,
      "Par": 1963,
      "Ġhours": 1964,
      "ĠLe": 1965,
      "ĠLucknow": 1966,
      "Ġleave": 1967,
      "IM": 1968,
      "Pl": 1969,
      "ient": 1970,
      "Ġpo": 1971,
      "ĠSp": 1972,
      "Ġ2018": 1973,
      "Hyderabad": 1974,
      "oard": 1975,
      "Ġlet": 1976,
      "Ġcrisis": 1977,
      "Ġbuy": 1978,
      "ealth": 1979,
      "arbage": 1980,
      "pen": 1981,
      "ests": 1982,
      "ajor": 1983,
      "Ġmade": 1984,
      "Ġnational": 1985,
      "Ġprov": 1986,
      "Ġprice": 1987,
      "Ġbuses": 1988,
      "Ġservices": 1989,
      "Ġcontinue": 1990,
      "isha": 1991,
      "Ġothers": 1992,
      "Com": 1993,
      "cle": 1994,
      "ej": 1995,
      "off": 1996,
      "Ġfive": 1997,
      "aces": 1998,
      "Ġnumb": 1999,
      "ĠRahul": 2000,
      "Ġclos": 2001,
      "Big": 2002,
      "Cor": 2003,
      "Ġevery": 2004,
      "Ġanother": 2005,
      "Ġservice": 2006,
      "Ġsafety": 2007,
      "Ġcab": 2008,
      "Ġnorms": 2009,
      "ĠPolice": 2010,
      "ideo": 2011,
      "appy": 2012,
      "Bihar": 2013,
      "Ġcre": 2014,
      "ĠIs": 2015,
      "ĠTV": 2016,
      "ĠOct": 2017,
      "Ġrailway": 2018,
      "Al": 2019,
      "Youth": 2020,
      "gle": 2021,
      "Ġfore": 2022,
      "ĠRT": 2023,
      "ĠFIR": 2024,
      "Ġleaves": 2025,
      "Ġmoves": 2026,
      "Ġbehind": 2027,
      "ier": 2028,
      "Ġpush": 2029,
      "Ġbur": 2030,
      "Ġminist": 2031,
      "Ġdemands": 2032,
      "Ġcare": 2033,
      "Ġpil": 2034,
      "andh": 2035,
      "agers": 2036,
      "Ġslams": 2037,
      "039": 2038,
      "CBI": 2039,
      "More": 2040,
      "eer": 2041,
      "ful": 2042,
      "eth": 2043,
      "Students": 2044,
      "Ġir": 2045,
      "add": 2046,
      "idd": 2047,
      "ĠKal": 2048,
      "Ġeff": 2049,
      "ize": 2050,
      "Ġcross": 2051,
      "unk": 2052,
      "Ġcanc": 2053,
      "embers": 2054,
      "Ġshift": 2055,
      "Ġproperty": 2056,
      "CA": 2057,
      "enge": 2058,
      "itals": 2059,
      "Ġstir": 2060,
      "igarh": 2061,
      "ĠBhar": 2062,
      "raj": 2063,
      "Ġvs": 2064,
      "Ġshop": 2065,
      "Ġsuspended": 2066,
      "Ġstarts": 2067,
      "Ġeyes": 2068,
      "irst": 2069,
      "Ġcricket": 2070,
      "Ġpositive": 2071,
      "Ġfresh": 2072,
      "ils": 2073,
      "alls": 2074,
      "MP": 2075,
      "ĠSw": 2076,
      "Ġunit": 2077,
      "Ġrout": 2078,
      "Ġlong": 2079,
      "ĠWest": 2080,
      "Ġglobal": 2081,
      "Ġrescued": 2082,
      "ese": 2083,
      "ality": 2084,
      "itness": 2085,
      "Ġaud": 2086,
      "ewell": 2087,
      "Ġcomes": 2088,
      "Ġsecret": 2089,
      "Ġmom": 2090,
      "Ġvehicles": 2091,
      "Ġthrough": 2092,
      "Five": 2093,
      "Ġben": 2094,
      "ami": 2095,
      "utt": 2096,
      "ĠMin": 2097,
      "Ġprog": 2098,
      "iance": 2099,
      "Ġcharge": 2100,
      "Cr": 2101,
      "arks": 2102,
      "Ġform": 2103,
      "utes": 2104,
      "ĠMunicipal": 2105,
      "ude": 2106,
      "PS": 2107,
      "inet": 2108,
      "eds": 2109,
      "ley": 2110,
      "ĠAug": 2111,
      "11": 2112,
      "ID": 2113,
      "Punjab": 2114,
      "ĠSP": 2115,
      "ĠAll": 2116,
      "Con": 2117,
      "MK": 2118,
      "RS": 2119,
      "achal": 2120,
      "ollege": 2121,
      "Ġheart": 2122,
      "TV": 2123,
      "rish": 2124,
      "ward": 2125,
      "Ġcos": 2126,
      "Ġcaught": 2127,
      "urch": 2128,
      "Ġless": 2129,
      "ĠLok": 2130,
      "Ġofficers": 2131,
      "Ġpromot": 2132,
      "enior": 2133,
      "Ġhal": 2134,
      "ĠComm": 2135,
      "rav": 2136,
      "rial": 2137,
      "Ġ26": 2138,
      "ĠFeb": 2139,
      "Ġclash": 2140,
      "':": 2141,
      "vent": 2142,
      "Ġlink": 2143,
      "ĠSept": 2144,
      "ĠJune": 2145,
      "Ġoffers": 2146,
      "Ġbring": 2147,
      "Ġbrid": 2148,
      "Ġbreak": 2149,
      "Ġbaby": 2150,
      "Ġtom": 2151,
      "Ġacross": 2152,
      "adhya": 2153,
      "Ġcandidates": 2154,
      "RC": 2155,
      "itation": 2156,
      "Ġmis": 2157,
      "Ġhad": 2158,
      "ode": 2159,
      "ify": 2160,
      "Don": 2161,
      "ction": 2162,
      "eel": 2163,
      "sc": 2164,
      "Ġ(": 2165,
      "Ġright": 2166,
      "raw": 2167,
      "Ġelection": 2168,
      "Power": 2169,
      "School": 2170,
      "ince": 2171,
      "Ġfar": 2172,
      "usband": 2173,
      "Ġsees": 2174,
      "Ġeye": 2175,
      "Ġannoun": 2176,
      "GP": 2177,
      "rat": 2178,
      "unn": 2179,
      "Ġincre": 2180,
      "Ġsocial": 2181,
      "Act": 2182,
      "aut": 2183,
      "edic": 2184,
      "agh": 2185,
      "aji": 2186,
      "Chennai": 2187,
      "Ġdecl": 2188,
      "Ġperform": 2189,
      "iwali": 2190,
      "Ġforeign": 2191,
      "Ġesc": 2192,
      "ores": 2193,
      "Ġliquor": 2194,
      "ĠBank": 2195,
      "odies": 2196,
      "umps": 2197,
      "ending": 2198,
      "Ġspot": 2199,
      "ĠShiv": 2200,
      "uary": 2201,
      "enue": 2202,
      "Ġhop": 2203,
      "Ġexpl": 2204,
      "ulls": 2205,
      "Not": 2206,
      "eat": 2207,
      "ough": 2208,
      "ority": 2209,
      "akers": 2210,
      "ĠApr": 2211,
      "Ġexams": 2212,
      "Ġmany": 2213,
      "Day": 2214,
      "order": 2215,
      "asts": 2216,
      "ashik": 2217,
      "ĠHind": 2218,
      "Ġconn": 2219,
      "ĠOn": 2220,
      "Ġshare": 2221,
      "Ahmedabad": 2222,
      "Ġhang": 2223,
      "Ġcrit": 2224,
      "Ġcoach": 2225,
      "Ġmeets": 2226,
      "overnor": 2227,
      "Ġfails": 2228,
      "Ġharass": 2229,
      "oom": 2230,
      "iti": 2231,
      "Ġvir": 2232,
      "riy": 2233,
      "Ġdevelopment": 2234,
      "Government": 2235,
      "ohan": 2236,
      "Ġmembers": 2237,
      "acket": 2238,
      "ĠMarch": 2239,
      "Ġdiscuss": 2240,
      "Ġcitizens": 2241,
      "Ġsave": 2242,
      "Ġfocus": 2243,
      "olen": 2244,
      "rain": 2245,
      "Ġcontest": 2246,
      "Ġmeeting": 2247,
      "Ġvictims": 2248,
      "Farm": 2249,
      "isk": 2250,
      "abh": 2251,
      "ĠNov": 2252,
      "Ġrespons": 2253,
      "by": 2254,
      "Ġcol": 2255,
      "Ġ21": 2256,
      "harkhand": 2257,
      "EO": 2258,
      "Ġfather": 2259,
      "ask": 2260,
      "Ġupd": 2261,
      "Ġjobs": 2262,
      "Sur": 2263,
      "Sensex": 2264,
      "Ġforest": 2265,
      "ĠBl": 2266,
      "This": 2267,
      "Ġcuts": 2268,
      "Ġparking": 2269,
      "Air": 2270,
      "Ġsome": 2271,
      "Ġbudget": 2272,
      "Ġeas": 2273,
      "Ġattacks": 2274,
      "Ġvictim": 2275,
      "Ġdraw": 2276,
      "Ġviolence": 2277,
      "SI": 2278,
      "ium": 2279,
      "uce": 2280,
      "Ġbattle": 2281,
      "Ġaid": 2282,
      "Ġmish": 2283,
      "Ġhub": 2284,
      "ĠAhmedabad": 2285,
      "Ġcrack": 2286,
      "ustralia": 2287,
      "Ġtomorrow": 2288,
      "itter": 2289,
      "osition": 2290,
      "ĠOpen": 2291,
      "Ġblock": 2292,
      "Ġorgan": 2293,
      "Ġopens": 2294,
      "Ġintern": 2295,
      "ĠSabha": 2296,
      "SA": 2297,
      "ween": 2298,
      "uman": 2299,
      "Ġstudy": 2300,
      "Ġmedia": 2301,
      "Ġvote": 2302,
      "ban": 2303,
      "cil": 2304,
      "Ġfle": 2305,
      "Ġdip": 2306,
      "Ġwalk": 2307,
      "Ġwait": 2308,
      "amm": 2309,
      "ĠSat": 2310,
      "ĠSena": 2311,
      "ĠPro": 2312,
      "haz": 2313,
      "empt": 2314,
      "Ġdirector": 2315,
      "Ġtaking": 2316,
      "Ġfish": 2317,
      "Ġdig": 2318,
      "Ġloses": 2319,
      "Ġseason": 2320,
      "ĠMLAs": 2321,
      "ashmir": 2322,
      "ĠApril": 2323,
      "rist": 2324,
      "ague": 2325,
      "engue": 2326,
      "El": 2327,
      "Sm": 2328,
      "Uttar": 2329,
      "Ġfo": 2330,
      "Ġpri": 2331,
      "Ġwoes": 2332,
      "elc": 2333,
      "adav": 2334,
      "Ġstates": 2335,
      "ĠAir": 2336,
      "Ġtheft": 2337,
      "iffer": 2338,
      "Ġcontinues": 2339,
      "Ġfinds": 2340,
      "ced": 2341,
      "alit": 2342,
      "Ġvars": 2343,
      "Ġ22": 2344,
      "ĠStud": 2345,
      "Ġtarget": 2346,
      "Rail": 2347,
      "Ġfact": 2348,
      "Ġdog": 2349,
      "Ġcond": 2350,
      "Ġblack": 2351,
      "Ġleads": 2352,
      "Ġparents": 2353,
      "Le": 2354,
      "cc": 2355,
      "uz": 2356,
      "Ġracket": 2357,
      "Ġmother": 2358,
      "ĠSa": 2359,
      "Ġpropos": 2360,
      "Ġdev": 2361,
      "ĠUttar": 2362,
      "Res": 2363,
      "miss": 2364,
      "Ġfee": 2365,
      "Ġroll": 2366,
      "Ġstolen": 2367,
      "ĠAndhra": 2368,
      "hib": 2369,
      "Ġprocess": 2370,
      "uja": 2371,
      "Ġsuff": 2372,
      "Ġground": 2373,
      "ology": 2374,
      "Ġbusted": 2375,
      "Ġfast": 2376,
      "Ġpoints": 2377,
      "Ġlear": 2378,
      "Ġgun": 2379,
      "Ġdisp": 2380,
      "Ġbetween": 2381,
      "Ġsuccess": 2382,
      "ita": 2383,
      "Ġwedding": 2384,
      "anga": 2385,
      "ikh": 2386,
      "ipur": 2387,
      "Ġfaces": 2388,
      "fl": 2389,
      "ten": 2390,
      "Ġfut": 2391,
      "ider": 2392,
      "Ġname": 2393,
      "Ġdoctor": 2394,
      "DP": 2395,
      "Fl": 2396,
      "With": 2397,
      "friend": 2398,
      "let": 2399,
      "ribe": 2400,
      "ĠWom": 2401,
      "hane": 2402,
      "ences": 2403,
      "Doc": 2404,
      "mon": 2405,
      "Ġmol": 2406,
      "Ġwell": 2407,
      "apan": 2408,
      "ĠHouse": 2409,
      "Ġtruck": 2410,
      "Ġhospitals": 2411,
      "Ġneeds": 2412,
      "Ġindustry": 2413,
      "ĠSharma": 2414,
      "Ġcard": 2415,
      "ayat": 2416,
      "ament": 2417,
      "ĠKan": 2418,
      "Ġver": 2419,
      "ained": 2420,
      "Ġleg": 2421,
      "Ġany": 2422,
      "Ġevent": 2423,
      "Ġclaim": 2424,
      "Ġputs": 2425,
      "ze": 2426,
      "Ġhist": 2427,
      "olv": 2428,
      "Ġconduc": 2429,
      "Ġchang": 2430,
      "ulture": 2431,
      "Ġlost": 2432,
      "Ġknow": 2433,
      "ollow": 2434,
      "Ġdistricts": 2435,
      "Ġrobb": 2436,
      "Ġmarriage": 2437,
      "Mar": 2438,
      "erve": 2439,
      "itish": 2440,
      "ĠCo": 2441,
      "ĠAAP": 2442,
      "Ġscreen": 2443,
      "Ġearly": 2444,
      "Can": 2445,
      "Girl": 2446,
      "Son": 2447,
      "Sec": 2448,
      "Ġties": 2449,
      "Ġlock": 2450,
      "Ġflight": 2451,
      "Ġfiles": 2452,
      "Ġraise": 2453,
      "Ġeconom": 2454,
      "RI": 2455,
      "Ġinst": 2456,
      "Ġbags": 2457,
      "Ġreserv": 2458,
      "rown": 2459,
      "isc": 2460,
      "andal": 2461,
      "ĠPan": 2462,
      "ĠDiwali": 2463,
      "anned": 2464,
      "Ġtests": 2465,
      "Ġpromises": 2466,
      "ombay": 2467,
      "Ġnabbed": 2468,
      "Ġbridge": 2469,
      "DI": 2470,
      "Pan": 2471,
      "au": 2472,
      "hy": 2473,
      "iation": 2474,
      "amed": 2475,
      "aken": 2476,
      "ĠAb": 2477,
      "Ġcancer": 2478,
      "Ġrecords": 2479,
      "gery": 2480,
      "Ġlif": 2481,
      "ĠSup": 2482,
      "Ġsteal": 2483,
      "anded": 2484,
      "ĠNagar": 2485,
      "Ġreve": 2486,
      "istration": 2487,
      "achin": 2488,
      "Ġemployees": 2489,
      "Ġsit": 2490,
      "arun": 2491,
      "Ġour": 2492,
      "urai": 2493,
      "Ġstage": 2494,
      "ĠAsh": 2495,
      "ĠFor": 2496,
      "Ġunits": 2497,
      "Ġreturns": 2498,
      "Ġmobile": 2499,
      "Ġsector": 2500,
      "ald": 2501,
      "Ġbad": 2502,
      "Ġri": 2503,
      "anda": 2504,
      "rip": 2505,
      "Ġraping": 2506,
      "Ġupdate": 2507,
      "hu": 2508,
      "Ġsale": 2509,
      "Ġhusband": 2510,
      "ela": 2511,
      "oles": 2512,
      "Ġproble": 2513,
      "Ġlevel": 2514,
      "Ġouts": 2515,
      "Women": 2516,
      "At": 2517,
      "rant": 2518,
      "te": 2519,
      "ila": 2520,
      "ĠMon": 2521,
      "odh": 2522,
      "Ġreb": 2523,
      "ĠVijay": 2524,
      "Ġattend": 2525,
      "Ġcontrol": 2526,
      "reme": 2527,
      "ED": 2528,
      "PC": 2529,
      "inder": 2530,
      "atter": 2531,
      "ĠBangalore": 2532,
      "overs": 2533,
      "riends": 2534,
      "ified": 2535,
      "ĠUK": 2536,
      "astic": 2537,
      "Ġraped": 2538,
      "Bengaluru": 2539,
      "EC": 2540,
      "poll": 2541,
      "se": 2542,
      "ture": 2543,
      "yle": 2544,
      "Ġtit": 2545,
      "Ġbodies": 2546,
      "ĠMusl": 2547,
      "ĠAj": 2548,
      "ula": 2549,
      "Foot": 2550,
      "Sw": 2551,
      "aug": 2552,
      "iev": 2553,
      "rd": 2554,
      "Ġsil": 2555,
      "Ġsell": 2556,
      "Ġpress": 2557,
      "Ġmill": 2558,
      "Ġlose": 2559,
      "omin": 2560,
      "ĠNagpur": 2561,
      "ĠJuly": 2562,
      "engers": 2563,
      "Ġbrings": 2564,
      "Ġparties": 2565,
      "Ġcommun": 2566,
      "Ġshows": 2567,
      "Ġsafe": 2568,
      "Pat": 2569,
      "oni": 2570,
      "Ġrule": 2571,
      "Ġoil": 2572,
      "Ġmet": 2573,
      "entral": 2574,
      "ĠIIT": 2575,
      "ections": 2576,
      "eeps": 2577,
      "Ġcouple": 2578,
      "ormer": 2579,
      "Ġinsp": 2580,
      "Sal": 2581,
      "garh": 2582,
      "ero": 2583,
      "Ġfriend": 2584,
      "Ġhope": 2585,
      "ĠKa": 2586,
      "anger": 2587,
      "Ġfile": 2588,
      "Ġcentres": 2589,
      "Ġlabour": 2590,
      "Ġbirthday": 2591,
      "oice": 2592,
      "Ġident": 2593,
      "Ġsong": 2594,
      "atra": 2595,
      "Ġcards": 2596,
      "Ġmess": 2597,
      "Ġloot": 2598,
      "Ġquota": 2599,
      "Ġvoters": 2600,
      "Ġsnatch": 2601,
      "Ġlocal": 2602,
      "Ġbenef": 2603,
      "Six": 2604,
      "olit": 2605,
      "reed": 2606,
      "ume": 2607,
      "akhand": 2608,
      "Ġwhile": 2609,
      "Ġdouble": 2610,
      "Ġprotests": 2611,
      "Ġpolitical": 2612,
      "Ġcause": 2613,
      "12": 2614,
      "Andhra": 2615,
      "Mad": 2616,
      "TC": 2617,
      "Ġtouch": 2618,
      "ĠAg": 2619,
      "Ġthey": 2620,
      "Ġyoung": 2621,
      "Ġcrimin": 2622,
      "Ġfestival": 2623,
      "Ġalleges": 2624,
      "ĠEngl": 2625,
      "Rain": 2626,
      "wa": 2627,
      "Ġburn": 2628,
      "Ġmajor": 2629,
      "ĠMC": 2630,
      "ĠKashmir": 2631,
      "ĠTN": 2632,
      "ĠTest": 2633,
      "arty": 2634,
      "ober": 2635,
      "Ġfirms": 2636,
      "Ġcontract": 2637,
      "Ġalert": 2638,
      "AC": 2639,
      "BA": 2640,
      "mar": 2641,
      "Ġfull": 2642,
      "Ġtow": 2643,
      "Ġline": 2644,
      "Ġthird": 2645,
      "ĠIPL": 2646,
      "ĠGovt": 2647,
      "ĠJaipur": 2648,
      "Ġsug": 2649,
      "Ġcell": 2650,
      "itor": 2651,
      "Ġduty": 2652,
      "Ġrises": 2653,
      "ĠSouth": 2654,
      "ĠCollege": 2655,
      "inese": 2656,
      "Ġsteps": 2657,
      "BS": 2658,
      "Water": 2659,
      "ea": 2660,
      "Ġfix": 2661,
      "Ġvideo": 2662,
      "Ġrejects": 2663,
      "book": 2664,
      "iety": 2665,
      "to": 2666,
      "ĠCops": 2667,
      "iven": 2668,
      "enders": 2669,
      "Ġlegal": 2670,
      "apped": 2671,
      "Ġfear": 2672,
      "Ġfav": 2673,
      "Ġtoget": 2674,
      "Ġdata": 2675,
      "Ġlives": 2676,
      "Ġexc": 2677,
      "ĠChh": 2678,
      "Ġallow": 2679,
      "Ġposts": 2680,
      "Ġteacher": 2681,
      "da": 2682,
      "Ġtalk": 2683,
      "aries": 2684,
      "Ġrates": 2685,
      "amata": 2686,
      "rah": 2687,
      "Ġpres": 2688,
      "Chand": 2689,
      "Ġremov": 2690,
      "Another": 2691,
      "Ġbanks": 2692,
      "go": 2693,
      "oins": 2694,
      "inc": 2695,
      "Ġmem": 2696,
      "ilm": 2697,
      "ĠCEO": 2698,
      "ĠMa": 2699,
      "Ġwithd": 2700,
      "Ġpresident": 2701,
      "ittee": 2702,
      "Ġperson": 2703,
      "Ġtogether": 2704,
      "ja": 2705,
      "of": 2706,
      "ared": 2707,
      "Ġpast": 2708,
      "Ġborder": 2709,
      "ĠIt": 2710,
      "Ġconcer": 2711,
      "uggl": 2712,
      "Ġpasses": 2713,
      "eddy": 2714,
      "Ġterm": 2715,
      "Ġmishap": 2716,
      "bama": 2717,
      "tor": 2718,
      "Ġtem": 2719,
      "Ġmot": 2720,
      "Ġraises": 2721,
      "Ġwritten": 2722,
      "riyanka": 2723,
      "15": 2724,
      "put": 2725,
      "isation": 2726,
      "Ġrights": 2727,
      "Ġhow": 2728,
      "ĠAT": 2729,
      "Ġrepl": 2730,
      "avan": 2731,
      "ĠIndians": 2732,
      "Ġspl": 2733,
      "Ġrece": 2734,
      "Ġpollution": 2735,
      "China": 2736,
      "Ġzone": 2737,
      "ruction": 2738,
      "ĠDecember": 2739,
      "SS": 2740,
      "land": 2741,
      "Ġtough": 2742,
      "Ġmatch": 2743,
      "Ġgas": 2744,
      "ĠBollywood": 2745,
      "ĠPl": 2746,
      "Ġheat": 2747,
      "Ġfeel": 2748,
      "ĠSalman": 2749,
      "Des": 2750,
      "Haryana": 2751,
      "Ġrural": 2752,
      "Ġob": 2753,
      "Ġwelc": 2754,
      "Ġstory": 2755,
      "ĠBab": 2756,
      "Ġcrime": 2757,
      "ashion": 2758,
      "Ġinfl": 2759,
      "Ġmilit": 2760,
      "Gur": 2761,
      "vani": 2762,
      "atory": 2763,
      "Ġcro": 2764,
      "idence": 2765,
      "Ġjoins": 2766,
      "Ġplace": 2767,
      "Ġmining": 2768,
      "Ġteen": 2769,
      "Ġwhat": 2770,
      "Ġamid": 2771,
      "Ġpolitics": 2772,
      "Ġbecome": 2773,
      "law": 2774,
      "nam": 2775,
      "erman": 2776,
      "Ġfollow": 2777,
      "Ġstab": 2778,
      "Ġequ": 2779,
      "aving": 2780,
      "ikes": 2781,
      "ples": 2782,
      "Ġclose": 2783,
      "rick": 2784,
      "Ġimm": 2785,
      "Ġhere": 2786,
      "ĠNarendra": 2787,
      "Ġmolest": 2788,
      "Modi": 2789,
      "Ġriver": 2790,
      "Ġgener": 2791,
      "ĠPh": 2792,
      "Ġhelps": 2793,
      "ances": 2794,
      "Ġplayers": 2795,
      "Ġvillages": 2796,
      "CCI": 2797,
      "Ġdrop": 2798,
      "Ġquestion": 2799,
      "hazi": 2800,
      "oid": 2801,
      "Ġdiffer": 2802,
      "ira": 2803,
      "ĠBang": 2804,
      "ĠKo": 2805,
      "lymp": 2806,
      "Ġspread": 2807,
      "Ġfilms": 2808,
      "Ġmurdered": 2809,
      "aze": 2810,
      "Ġloan": 2811,
      "haziabad": 2812,
      "Ġcert": 2813,
      "uri": 2814,
      "urance": 2815,
      "Ġgame": 2816,
      "ospital": 2817,
      "Ġdirect": 2818,
      "Ġsales": 2819,
      "ejri": 2820,
      "JD": 2821,
      "aul": 2822,
      "jee": 2823,
      "vest": 2824,
      "edical": 2825,
      "Ġhard": 2826,
      "Ġlooks": 2827,
      "ĠSund": 2828,
      "upee": 2829,
      "ĠDe": 2830,
      "apt": 2831,
      "Ġyrs": 2832,
      "ĠYadav": 2833,
      "Ġremain": 2834,
      "Pakistan": 2835,
      "Ġchallenge": 2836,
      "500": 2837,
      "dd": 2838,
      "ped": 2839,
      "ton": 2840,
      "inks": 2841,
      "Ġforces": 2842,
      "ĠBar": 2843,
      "Ġshe": 2844,
      "Ġspeed": 2845,
      "Ġcommission": 2846,
      "Ġphot": 2847,
      "ruption": 2848,
      "Ġpaper": 2849,
      "Ġcompanies": 2850,
      "Ġhopes": 2851,
      "First": 2852,
      "for": 2853,
      "Ġsem": 2854,
      "Ġobs": 2855,
      "ĠGh": 2856,
      "Ġquar": 2857,
      "My": 2858,
      "Pe": 2859,
      "Top": 2860,
      "West": 2861,
      "iya": 2862,
      "Ġsold": 2863,
      "Ġdump": 2864,
      "Ġlight": 2865,
      "Ġpeace": 2866,
      "ĠPatna": 2867,
      "Ġprofit": 2868,
      "ĠReport": 2869,
      "Ġnumber": 2870,
      "Do": 2871,
      "World": 2872,
      "Ġsince": 2873,
      "Ġfine": 2874,
      "Ġfield": 2875,
      "Ġlive": 2876,
      "Ġstays": 2877,
      "ĠPal": 2878,
      "Ġflu": 2879,
      "Ġdecision": 2880,
      "Ġlaunched": 2881,
      "inking": 2882,
      "Ġsmart": 2883,
      "He": 2884,
      "rance": 2885,
      "Ġens": 2886,
      "Ġlic": 2887,
      "Ġlawy": 2888,
      "Ġowner": 2889,
      "red": 2890,
      "Ġsports": 2891,
      "ortion": 2892,
      "enal": 2893,
      "eline": 2894,
      "Ġseat": 2895,
      "Ġquality": 2896,
      "Ġappoint": 2897,
      "ramm": 2898,
      "Ġdespite": 2899,
      "ĠJanuary": 2900,
      "ĠAssam": 2901,
      "Teach": 2902,
      "Ġmanagement": 2903,
      "Cop": 2904,
      "ER": 2905,
      "PF": 2906,
      "ler": 2907,
      "Ġsqu": 2908,
      "Ġdream": 2909,
      "ĠSam": 2910,
      "Ġstations": 2911,
      "lement": 2912,
      "osh": 2913,
      "emic": 2914,
      "aged": 2915,
      "acked": 2916,
      "ĠEl": 2917,
      "ampions": 2918,
      "Ġhigher": 2919,
      "Ġapprov": 2920,
      "Ġcampus": 2921,
      "Ġwarns": 2922,
      "Ġbrother": 2923,
      "Ġstatus": 2924,
      "Ġasked": 2925,
      "Ġvarsity": 2926,
      "Football": 2927,
      "ejriwal": 2928,
      "'m": 2929,
      "App": 2930,
      "Ass": 2931,
      "EA": 2932,
      "Ġill": 2933,
      "Ġused": 2934,
      "Ġpat": 2935,
      "Ġrisk": 2936,
      "Ġgarbage": 2937,
      "ĠIA": 2938,
      "ried": 2939,
      "Ġshops": 2940,
      "ishes": 2941,
      "Ġsurvey": 2942,
      "Ġtreatment": 2943,
      "Ġfuture": 2944,
      "Gang": 2945,
      "jun": 2946,
      "oud": 2947,
      "Ġbribe": 2948,
      "Ġmag": 2949,
      "Ġforce": 2950,
      "Ġlim": 2951,
      "ired": 2952,
      "ĠAP": 2953,
      "ĠRail": 2954,
      "oogle": 2955,
      "ials": 2956,
      "ense": 2957,
      "pped": 2958,
      "ollar": 2959,
      "ĠExp": 2960,
      "hit": 2961,
      "ĠSc": 2962,
      "ĠMao": 2963,
      "ĠNG": 2964,
      "acker": 2965,
      "Ġpanch": 2966,
      "Ġowners": 2967,
      "Ġdenies": 2968,
      "Traffic": 2969,
      "ĠOctober": 2970,
      "GI": 2971,
      "Gold": 2972,
      "based": 2973,
      "sp": 2974,
      "tors": 2975,
      "ven": 2976,
      "Ġfair": 2977,
      "ĠBal": 2978,
      "ĠPark": 2979,
      "perts": 2980,
      "epal": 2981,
      "Ġauto": 2982,
      "Ġdebut": 2983,
      "ĠMinister": 2984,
      "Rel": 2985,
      "SR": 2986,
      "Ġtrees": 2987,
      "erry": 2988,
      "Ġpop": 2989,
      "eter": 2990,
      "ĠSr": 2991,
      "Ġste": 2992,
      "raft": 2993,
      "Ġups": 2994,
      "Ġleft": 2995,
      "Ġ31": 2996,
      "Ġ2019": 2997,
      "ĠBhopal": 2998,
      "Ġrefuses": 2999,
      "Ġholds": 3000,
      "Ġcelebrate": 3001,
      "ĠAugust": 3002,
      "rishna": 3003,
      "hal": 3004,
      "Ġinstit": 3005,
      "Ġpics": 3006,
      "Ġdate": 3007,
      "Ġmaking": 3008,
      "Ġlar": 3009,
      "rove": 3010,
      "Ġgot": 3011,
      "Ġkeeps": 3012,
      "elled": 3013,
      "oke": 3014,
      "Ġcorpor": 3015,
      "Ġphone": 3016,
      "phy": 3017,
      "ification": 3018,
      "DMK": 3019,
      "Rahul": 3020,
      "Ġpick": 3021,
      "Ġdengue": 3022,
      "ases": 3023,
      "reak": 3024,
      "Ġ23": 3025,
      "awar": 3026,
      "Ġeven": 3027,
      "Ġhouses": 3028,
      "Ġreleased": 3029,
      "rad": 3030,
      "vir": 3031,
      "oned": 3032,
      "Ġcatch": 3033,
      "Ġride": 3034,
      "Ġrush": 3035,
      "rab": 3036,
      "Ġ27": 3037,
      "ugram": 3038,
      "Ġspe": 3039,
      "Ġtravel": 3040,
      "Inf": 3041,
      "Ġtrip": 3042,
      "Ġdecide": 3043,
      "Ġdeadline": 3044,
      "Ġhands": 3045,
      "25": 3046,
      "IIT": 3047,
      "Ram": 3048,
      "Ġwere": 3049,
      "elop": 3050,
      "asw": 3051,
      "tery": 3052,
      "Ġjewell": 3053,
      "Ġdismiss": 3054,
      "pura": 3055,
      "erred": 3056,
      "Ġregister": 3057,
      "Ġshares": 3058,
      "Ġcountry": 3059,
      "Former": 3060,
      "SU": 3061,
      "iy": 3062,
      "work": 3063,
      "Ġest": 3064,
      "eness": 3065,
      "Ġbike": 3066,
      "lex": 3067,
      "Ġreports": 3068,
      "ĠOlymp": 3069,
      "ounter": 3070,
      "Ġyouths": 3071,
      "Lucknow": 3072,
      "Ġtiger": 3073,
      "Ġsession": 3074,
      "Ġraid": 3075,
      "ivity": 3076,
      "Ġdrivers": 3077,
      "Ġstrong": 3078,
      "Ġrevenue": 3079,
      "Ġcurb": 3080,
      "Ġdrugs": 3081,
      "Ġcourse": 3082,
      "DC": 3083,
      "Pre": 3084,
      "vi": 3085,
      "Ġans": 3086,
      "asi": 3087,
      "Ġnon": 3088,
      "Ġ28": 3089,
      "ensation": 3090,
      "izz": 3091,
      "ooth": 3092,
      "Ġ2017": 3093,
      "Ġvisits": 3094,
      "Ġrescue": 3095,
      "17": 3096,
      "Os": 3097,
      "bir": 3098,
      "ners": 3099,
      "anks": 3100,
      "Ġsite": 3101,
      "Ġsigns": 3102,
      "Ġinaug": 3103,
      "itage": 3104,
      "ilities": 3105,
      "ecut": 3106,
      "ĠSec": 3107,
      "Ġstars": 3108,
      "ĠAnd": 3109,
      "ĠJay": 3110,
      "Ġcrash": 3111,
      "achch": 3112,
      "plic": 3113,
      "inds": 3114,
      "eft": 3115,
      "oyal": 3116,
      "Ġemer": 3117,
      "Ġhistory": 3118,
      "disha": 3119,
      "Ġdeg": 3120,
      "Ġplays": 3121,
      "aily": 3122,
      "Ġgetting": 3123,
      "Ġworks": 3124,
      "oga": 3125,
      "Ġamb": 3126,
      "Ġperf": 3127,
      "Ġadmission": 3128,
      "Ġcourses": 3129,
      "ĠGurgaon": 3130,
      "Ġrepair": 3131,
      "14": 3132,
      "Civic": 3133,
      "gets": 3134,
      "Ġround": 3135,
      "igil": 3136,
      "ĠBoss": 3137,
      "Ġarea": 3138,
      "Ġ2015": 3139,
      "Ġsurgery": 3140,
      "ĠArmy": 3141,
      "Ġenter": 3142,
      "anjay": 3143,
      "Ġlocals": 3144,
      "ĠSonia": 3145,
      "Ġroute": 3146,
      "Farmers": 3147,
      "Sup": 3148,
      "com": 3149,
      "vt": 3150,
      "Ġsel": 3151,
      "ĠAy": 3152,
      "ĠNag": 3153,
      "Ġresearch": 3154,
      "Ġadmin": 3155,
      "Ġchalleng": 3156,
      "Ġtechn": 3157,
      "ories": 3158,
      "Ġweb": 3159,
      "iri": 3160,
      "imachal": 3161,
      "aints": 3162,
      "Ġchair": 3163,
      "Ġurges": 3164,
      "Ġjudge": 3165,
      "Ġquestions": 3166,
      "Ġtitle": 3167,
      "Aut": 3168,
      "Shah": 3169,
      "oj": 3170,
      "agan": 3171,
      "ĠHar": 3172,
      "ogi": 3173,
      "Ġflights": 3174,
      "Ġnever": 3175,
      "Ġimport": 3176,
      "uff": 3177,
      "Ġsle": 3178,
      "Ġdest": 3179,
      "Ġformer": 3180,
      "ĠNational": 3181,
      "ĠGames": 3182,
      "ĠVid": 3183,
      "ĠClass": 3184,
      "30": 3185,
      "fall": 3186,
      "Ġrace": 3187,
      "etch": 3188,
      "ĠRao": 3189,
      "rict": 3190,
      "Ġprem": 3191,
      "Ġincl": 3192,
      "Ġtourism": 3193,
      "ruit": 3194,
      "Ġactivists": 3195,
      "Ġcompany": 3196,
      "Ġpetition": 3197,
      "Nagpur": 3198,
      "ox": 3199,
      "uit": 3200,
      "Ġsenior": 3201,
      "ona": 3202,
      "Ġfriends": 3203,
      "Ġbiz": 3204,
      "Ġwarn": 3205,
      "aced": 3206,
      "ĠRes": 3207,
      "osc": 3208,
      "Ġworking": 3209,
      "Ġhighway": 3210,
      "Ġtraining": 3211,
      "Ġdoesn": 3212,
      "ĠAfric": 3213,
      "Ġprogramm": 3214,
      "ĠMonday": 3215,
      "mas": 3216,
      "ping": 3217,
      "ades": 3218,
      "ivil": 3219,
      "ĠBill": 3220,
      "Ġaround": 3221,
      "Ġcollaps": 3222,
      "Ġsexual": 3223,
      "Il": 3224,
      "ek": 3225,
      "iet": 3226,
      "orts": 3227,
      "Ġbi": 3228,
      "Ġrains": 3229,
      "Ġmer": 3230,
      "ett": 3231,
      "ĠKar": 3232,
      "ĠKejriwal": 3233,
      "eful": 3234,
      "aidu": 3235,
      "Ġexperts": 3236,
      "Ġsingle": 3237,
      "Fin": 3238,
      "dict": 3239,
      "Ġtimes": 3240,
      "Ġpa": 3241,
      "Ġport": 3242,
      "Ġdollar": 3243,
      "Ġwa": 3244,
      "ica": 3245,
      "iction": 3246,
      "irus": 3247,
      "ĠMoh": 3248,
      "ĠBan": 3249,
      "ĠBig": 3250,
      "reg": 3251,
      "ĠHigh": 3252,
      "ĠLanka": 3253,
      "Ġflat": 3254,
      "acebook": 3255,
      "Ġactor": 3256,
      "Ġmedic": 3257,
      "Ġtransport": 3258,
      "Ġdelayed": 3259,
      "fts": 3260,
      "pass": 3261,
      "Ġtur": 3262,
      "Ġtaken": 3263,
      "Ġsearch": 3264,
      "ares": 3265,
      "Ġgiven": 3266,
      "ads": 3267,
      "ĠCan": 3268,
      "ĠPand": 3269,
      "char": 3270,
      "opard": 3271,
      "Ġ2014": 3272,
      "Ġ60": 3273,
      "Ġtrial": 3274,
      "Ġauth": 3275,
      "Ġpapers": 3276,
      "ĠSeptember": 3277,
      "Ġfavour": 3278,
      "Ġinaugur": 3279,
      "16": 3280,
      "Ne": 3281,
      "Poll": 3282,
      "gers": 3283,
      "nath": 3284,
      "Ġign": 3285,
      "Ġtank": 3286,
      "Ġbomb": 3287,
      "ention": 3288,
      "abled": 3289,
      "ĠTe": 3290,
      "Ġjourn": 3291,
      "Ġabduc": 3292,
      "Special": 3293,
      "Dev": 3294,
      "ohar": 3295,
      "ris": 3296,
      "ora": 3297,
      "ĠSar": 3298,
      "lear": 3299,
      "earing": 3300,
      "Ġwithin": 3301,
      "aik": 3302,
      "ĠVC": 3303,
      "Ġblasts": 3304,
      "ockey": 3305,
      "ickets": 3306,
      "ĠYear": 3307,
      "Ġruns": 3308,
      "Ġtrouble": 3309,
      "ĠSunday": 3310,
      "Ġensure": 3311,
      "Fire": 3312,
      "Ġsends": 3313,
      "onment": 3314,
      "Ġfuel": 3315,
      "alm": 3316,
      "Ġdance": 3317,
      "Ġwave": 3318,
      "icro": 3319,
      "icial": 3320,
      "erst": 3321,
      "ĠBMC": 3322,
      "istr": 3323,
      "Ġfiled": 3324,
      "Ġdemol": 3325,
      "Ġcomplaint": 3326,
      "Ġdetained": 3327,
      "Ġvehicle": 3328,
      "Ġencroach": 3329,
      "Ġvaccine": 3330,
      "Ġsecretary": 3331,
      "Ġresponse": 3332,
      "ring": 3333,
      "so": 3334,
      "Ġtack": 3335,
      "Ġfew": 3336,
      "Ġmig": 3337,
      "ashi": 3338,
      "uters": 3339,
      "Ġstake": 3340,
      "aker": 3341,
      "ĠKore": 3342,
      "ĠGro": 3343,
      "Ġage": 3344,
      "Ġtrying": 3345,
      "Ġquit": 3346,
      "eph": 3347,
      "ĠPresident": 3348,
      "Ġcheating": 3349,
      "Ġhotel": 3350,
      "Ġmodel": 3351,
      "Ġannounces": 3352,
      "achchan": 3353,
      "Miss": 3354,
      "Meet": 3355,
      "free": 3356,
      "Ġsanc": 3357,
      "Ġwitness": 3358,
      "icit": 3359,
      "etty": 3360,
      "amal": 3361,
      "usion": 3362,
      "abinet": 3363,
      "ĠNav": 3364,
      "Ġspace": 3365,
      "Ġalong": 3366,
      "Ġbox": 3367,
      "Ġtries": 3368,
      "Ġsmall": 3369,
      "Ġpassengers": 3370,
      "month": 3371,
      "NL": 3372,
      "tr": 3373,
      "atr": 3374,
      "Ġcars": 3375,
      "Ġpip": 3376,
      "Ġbond": 3377,
      "Ġbird": 3378,
      "usive": 3379,
      "ĠCA": 3380,
      "ĠAli": 3381,
      "ĠAustralia": 3382,
      "ĠBoard": 3383,
      "raz": 3384,
      "opra": 3385,
      "uge": 3386,
      "ĠChrist": 3387,
      "heet": 3388,
      "Ġabuse": 3389,
      "Ġguard": 3390,
      "Ġhearing": 3391,
      "Ġdrops": 3392,
      "ternational": 3393,
      "Ġhonour": 3394,
      "ĠNovember": 3395,
      "ds": 3396,
      "pal": 3397,
      "uation": 3398,
      "Ġmass": 3399,
      "Ġgut": 3400,
      "imate": 3401,
      "ĠHospital": 3402,
      "Ġ500": 3403,
      "Ġhighest": 3404,
      "onsoon": 3405,
      "ittle": 3406,
      "Ġcentral": 3407,
      "Ab": 3408,
      "OC": 3409,
      "pers": 3410,
      "Ġlit": 3411,
      "adha": 3412,
      "uted": 3413,
      "Ġaspir": 3414,
      "ĠJharkhand": 3415,
      "Ġplastic": 3416,
      "richy": 3417,
      "anning": 3418,
      "Ġsuspect": 3419,
      "Ġconsum": 3420,
      "Ġcapt": 3421,
      "Ġsummer": 3422,
      "Ġrecovered": 3423,
      "EE": 3424,
      "back": 3425,
      "iers": 3426,
      "joy": 3427,
      "soon": 3428,
      "va": 3429,
      "Ġtree": 3430,
      "Ġfans": 3431,
      "Ġtops": 3432,
      "ups": 3433,
      "ĠHow": 3434,
      "Ġchain": 3435,
      "haj": 3436,
      "ashed": 3437,
      "Ġtrig": 3438,
      "Ġinterest": 3439,
      "Ġrobbed": 3440,
      "Ġaffair": 3441,
      "ĠStudy": 3442,
      "AAP": 3443,
      "Comm": 3444,
      "Re": 3445,
      "lam": 3446,
      "onav": 3447,
      "Ġhol": 3448,
      "Ġlot": 3449,
      "Ġnation": 3450,
      "Ġnames": 3451,
      "Ġstocks": 3452,
      "igation": 3453,
      "Ġarms": 3454,
      "uction": 3455,
      "Ġcommits": 3456,
      "Ġcollection": 3457,
      "Ġthreatens": 3458,
      "Ġministry": 3459,
      "ĠBharat": 3460,
      "IP": 3461,
      "Rec": 3462,
      "Rupee": 3463,
      "run": 3464,
      "ined": 3465,
      "inagar": 3466,
      "Ġtie": 3467,
      "Ġticket": 3468,
      "ured": 3469,
      "Ġwhe": 3470,
      "Ġhom": 3471,
      "Ġgovernor": 3472,
      "andi": 3473,
      "ĠRa": 3474,
      "estic": 3475,
      "imp": 3476,
      "ĠNashik": 3477,
      "ĠChopra": 3478,
      "ĠEC": 3479,
      "Ġblame": 3480,
      "even": 3481,
      "Ġ70": 3482,
      "ĠAmit": 3483,
      "Ġcorporation": 3484,
      "Ġvillagers": 3485,
      "Ġpatient": 3486,
      "Ġtraders": 3487,
      "Ġincrease": 3488,
      "Bus": 3489,
      "hold": 3490,
      "Ġbull": 3491,
      "Ġbandh": 3492,
      "ayam": 3493,
      "una": 3494,
      "ires": 3495,
      "ĠBachchan": 3496,
      "Ġtrail": 3497,
      "Ġgoing": 3498,
      "Ġalive": 3499,
      "Ġmonsoon": 3500,
      "liament": 3501,
      "Ġtransfer": 3502,
      "Ġcelebrates": 3503,
      "ĠSurat": 3504,
      "Ġhousing": 3505,
      "Ġwrong": 3506,
      "Law": 3507,
      "Mah": 3508,
      "Ġpain": 3509,
      "Ġnurs": 3510,
      "ema": 3511,
      "imal": 3512,
      "ĠDr": 3513,
      "Ġreop": 3514,
      "Ġnote": 3515,
      "Ġprotect": 3516,
      "Ġsmuggl": 3517,
      "anchi": 3518,
      "Ġcandidate": 3519,
      "ĠTrump": 3520,
      "Ġfunction": 3521,
      "18": 3522,
      "From": 3523,
      "rast": 3524,
      "Ġbas": 3525,
      "Ġwid": 3526,
      "ĠCha": 3527,
      "irc": 3528,
      "ĠMuk": 3529,
      "ĠAz": 3530,
      "isters": 3531,
      "Ġfiring": 3532,
      "issions": 3533,
      "Ġprevent": 3534,
      "Ġcompensation": 3535,
      "Prot": 3536,
      "Ġcapital": 3537,
      "Ġseries": 3538,
      "Ġharassment": 3539,
      "Cont": 3540,
      "HP": 3541,
      "Nar": 3542,
      "Work": 3543,
      "km": 3544,
      "pro": 3545,
      "path": 3546,
      "rac": 3547,
      "Ġwall": 3548,
      "Ġhor": 3549,
      "ental": 3550,
      "aksh": 3551,
      "ĠRukh": 3552,
      "sters": 3553,
      "Noida": 3554,
      "Ġmarks": 3555,
      "Ġfront": 3556,
      "Only": 3557,
      "Ġentry": 3558,
      "Phot": 3559,
      "Ġescape": 3560,
      "BC": 3561,
      "FC": 3562,
      "Offic": 3563,
      "Ġi": 3564,
      "Ġsew": 3565,
      "ored": 3566,
      "areness": 3567,
      "ened": 3568,
      "ĠChar": 3569,
      "ulkar": 3570,
      "ĠNitish": 3571,
      "udi": 3572,
      "ighb": 3573,
      "Ġplot": 3574,
      "Ġleak": 3575,
      "Ġseal": 3576,
      "Ġheavy": 3577,
      "Ġmonitor": 3578,
      "Ġcommittee": 3579,
      "Ġdocs": 3580,
      "Ġawareness": 3581,
      "ruary": 3582,
      "Ġencounter": 3583,
      "200": 3584,
      "Dec": 3585,
      "ray": 3586,
      "resh": 3587,
      "uo": 3588,
      "ware": 3589,
      "Ġide": 3590,
      "Ġtel": 3591,
      "Ġselling": 3592,
      "athi": 3593,
      "Ġinn": 3594,
      "Ġpict": 3595,
      "itted": 3596,
      "Ġhomes": 3597,
      "iles": 3598,
      "Ġgear": 3599,
      "echi": 3600,
      "ĠReddy": 3601,
      "Ġread": 3602,
      "eeks": 3603,
      "Ġcred": 3604,
      "itional": 3605,
      "Ġextended": 3606,
      "Ġsociety": 3607,
      "...": 3608,
      "Ġwithdraw": 3609,
      "Go": 3610,
      "cert": 3611,
      "ghan": 3612,
      "vey": 3613,
      "Ġmor": 3614,
      "Ġmid": 3615,
      "Ġwould": 3616,
      "ola": 3617,
      "ĠSang": 3618,
      "Ġthrow": 3619,
      "ĠBad": 3620,
      "reater": 3621,
      "ĠRuss": 3622,
      "ements": 3623,
      "Ġresol": 3624,
      "Ġremains": 3625,
      "ĠAmb": 3626,
      "Ġregion": 3627,
      "Ġfamilies": 3628,
      "Ġaddress": 3629,
      "ĠFebruary": 3630,
      "incip": 3631,
      "13": 3632,
      "Car": 3633,
      "Shar": 3634,
      "ne": 3635,
      "time": 3636,
      "Ġang": 3637,
      "Ġbooks": 3638,
      "Ġren": 3639,
      "Ġmetro": 3640,
      "Ġhappy": 3641,
      "unior": 3642,
      "ĠSA": 3643,
      "Ġbeen": 3644,
      "Ġclub": 3645,
      "Ġtransf": 3646,
      "Ġcelebrations": 3647,
      "ĠPatel": 3648,
      "onavirus": 3649,
      "rel": 3650,
      "ually": 3651,
      "inch": 3652,
      "Ġpenal": 3653,
      "ols": 3654,
      "ided": 3655,
      "ĠBrit": 3656,
      "ĠNH": 3657,
      "Ġval": 3658,
      "ĠGST": 3659,
      "ĠVir": 3660,
      "ĠED": 3661,
      "izes": 3662,
      "apping": 3663,
      "Ġlands": 3664,
      "Ġ80": 3665,
      "Ġsoft": 3666,
      "riday": 3667,
      "Ġusing": 3668,
      "ructure": 3669,
      "Ġlearn": 3670,
      "Ġverdict": 3671,
      "ĠATM": 3672,
      "Ġcertific": 3673,
      "Ġtackle": 3674,
      "Celeb": 3675,
      "kg": 3676,
      "nagar": 3677,
      "Ġals": 3678,
      "anes": 3679,
      "atore": 3680,
      "Ġcold": 3681,
      "Ġlog": 3682,
      "roc": 3683,
      "adod": 3684,
      "ĠRan": 3685,
      "ched": 3686,
      "udhi": 3687,
      "derly": 3688,
      "Ġspir": 3689,
      "Ġsparks": 3690,
      "ĠChinese": 3691,
      "ength": 3692,
      "Ġdriving": 3693,
      "Ġdisrup": 3694,
      "epend": 3695,
      "attis": 3696,
      "Ġsurpr": 3697,
      "Ġprepar": 3698,
      "Ġmarch": 3699,
      "Ġcouncil": 3700,
      "Ġwanted": 3701,
      "Ġtourists": 3702,
      "Ġ2022": 3703,
      "imbatore": 3704,
      "Illegal": 3705,
      "Ġalso": 3706,
      "MA": 3707,
      "May": 3708,
      "PG": 3709,
      "bl": 3710,
      "mi": 3711,
      "ties": 3712,
      "elt": 3713,
      "ayan": 3714,
      "Ġnorth": 3715,
      "ĠAkh": 3716,
      "osing": 3717,
      "osys": 3718,
      "emen": 3719,
      "arsh": 3720,
      "ĠCommission": 3721,
      "Ġdispute": 3722,
      "Ġoutside": 3723,
      "adodara": 3724,
      "IS": 3725,
      "Road": 3726,
      "itions": 3727,
      "Ġrock": 3728,
      "utions": 3729,
      "ĠMo": 3730,
      "owers": 3731,
      "ĠGod": 3732,
      "ĠGhaziabad": 3733,
      "endulkar": 3734,
      "Ġjumps": 3735,
      "Ġnews": 3736,
      "Ġuns": 3737,
      "Ġblames": 3738,
      "Ġaccidents": 3739,
      "onda": 3740,
      "iversary": 3741,
      "Ġgraft": 3742,
      "Ġburgl": 3743,
      "Ġfactory": 3744,
      "Bu": 3745,
      "Hind": 3746,
      "ror": 3747,
      "uf": 3748,
      "Ġsouth": 3749,
      "Ġbag": 3750,
      "Ġdaily": 3751,
      "Ġrank": 3752,
      "iry": 3753,
      "Ġshock": 3754,
      "ĠLal": 3755,
      "Ġwhy": 3756,
      "anner": 3757,
      "Ġconstruction": 3758,
      "Ġministers": 3759,
      "Ġpilgr": 3760,
      "Ġhangs": 3761,
      "People": 3762,
      "Ag": 3763,
      "Char": 3764,
      "Jaipur": 3765,
      "rest": 3766,
      "anath": 3767,
      "Ġtoil": 3768,
      "Ġdid": 3769,
      "Ġmys": 3770,
      "Ġhuman": 3771,
      "eless": 3772,
      "round": 3773,
      "using": 3774,
      "ĠMadhya": 3775,
      "Ġstress": 3776,
      "omestic": 3777,
      "igence": 3778,
      "ĠBS": 3779,
      "ĠRBI": 3780,
      "oper": 3781,
      "Ġeach": 3782,
      "ĠNorth": 3783,
      "iah": 3784,
      "athy": 3785,
      "uct": 3786,
      "Ġsepar": 3787,
      "Ġunve": 3788,
      "Ġscare": 3789,
      "Ġintro": 3790,
      "Ġadop": 3791,
      "Ġquits": 3792,
      "Ġexpress": 3793,
      "Ġsurviv": 3794,
      "Ġinternational": 3795,
      "Ġconcern": 3796,
      "oscope": 3797,
      "Just": 3798,
      "bal": 3799,
      "ye": 3800,
      "yn": 3801,
      "Ġpitch": 3802,
      "edi": 3803,
      "Ġdues": 3804,
      "Ġlod": 3805,
      "Ġgreat": 3806,
      "ĠSun": 3807,
      "Ġstock": 3808,
      "Ġstreet": 3809,
      "ote": 3810,
      "illed": 3811,
      "ĠTwo": 3812,
      "Ġ29": 3813,
      "Ġcrush": 3814,
      "Ġcorruption": 3815,
      "Ġawards": 3816,
      "Ġanniversary": 3817,
      "Ġopposition": 3818,
      "Ġbecomes": 3819,
      "Ġclasses": 3820,
      "Ġpressure": 3821,
      "Ġmillion": 3822,
      "Patna": 3823,
      "ĠEngland": 3824,
      "ĠExpress": 3825,
      "elopment": 3826,
      "attisgarh": 3827,
      "IF": 3828,
      "Rev": 3829,
      "RBI": 3830,
      "ania": 3831,
      "Ġhy": 3832,
      "asan": 3833,
      "Ġnorm": 3834,
      "osts": 3835,
      "cept": 3836,
      "ĠJapan": 3837,
      "ĠFriday": 3838,
      "Ġaccuses": 3839,
      "icted": 3840,
      "ĠState": 3841,
      "Ġclears": 3842,
      "Ġphase": 3843,
      "Ġraids": 3844,
      "Ġcomplet": 3845,
      "ĠMPs": 3846,
      "rovers": 3847,
      "ĠMadurai": 3848,
      "Ġcreate": 3849,
      "Ġwelcome": 3850,
      "Ġprogramme": 3851,
      "rastructure": 3852,
      "PO": 3853,
      "vind": 3854,
      "Ġid": 3855,
      "Ġcam": 3856,
      "Ġbacks": 3857,
      "Ġways": 3858,
      "Ġweeks": 3859,
      "iders": 3860,
      "osed": 3861,
      "Ġjaw": 3862,
      "ĠWill": 3863,
      "ounts": 3864,
      "Ġbreaks": 3865,
      "Ġimprove": 3866,
      "Ġjustice": 3867,
      "Ġindustrial": 3868,
      "Ġtribal": 3869,
      "kshay": 3870,
      "Ġpanchayat": 3871,
      "udhiana": 3872,
      "Metro": 3873,
      "Mao": 3874,
      "Sl": 3875,
      "TO": 3876,
      "kot": 3877,
      "ĠCC": 3878,
      "ĠCentral": 3879,
      "ĠPad": 3880,
      "ĠRev": 3881,
      "ĠIC": 3882,
      "ables": 3883,
      "ancer": 3884,
      "Ġweather": 3885,
      "Ġbiggest": 3886,
      "Ġdesign": 3887,
      "Student": 3888,
      "Chandigarh": 3889,
      "Bank": 3890,
      "Get": 3891,
      "Madhya": 3892,
      "WG": 3893,
      "de": 3894,
      "Ġfreed": 3895,
      "Ġcour": 3896,
      "Ġcities": 3897,
      "Ġdidn": 3898,
      "Ġmult": 3899,
      "ican": 3900,
      "amy": 3901,
      "uments": 3902,
      "Ġjoint": 3903,
      "ĠUN": 3904,
      "ondon": 3905,
      "Ġsurr": 3906,
      "Ġposs": 3907,
      "Ġgrand": 3908,
      "Ġcurr": 3909,
      "gnant": 3910,
      "40": 3911,
      "Home": 3912,
      "Mal": 3913,
      "hav": 3914,
      "hapur": 3915,
      "ladesh": 3916,
      "ni": 3917,
      "atest": 3918,
      "Ġiniti": 3919,
      "Ġpack": 3920,
      "Ġmaint": 3921,
      "Ġgears": 3922,
      "ĠSm": 3923,
      "uti": 3924,
      "ĠAk": 3925,
      "ulation": 3926,
      "ifies": 3927,
      "Ġsever": 3928,
      "ished": 3929,
      "Ġteams": 3930,
      "Ġwhen": 3931,
      "Ġ2016": 3932,
      "appa": 3933,
      "aza": 3934,
      "Amit": 3935,
      "ĠAdity": 3936,
      "Ġbills": 3937,
      "Ġapplic": 3938,
      "Ġflyover": 3939,
      "Ġjewellery": 3940,
      "Gl": 3941,
      "NA": 3942,
      "wad": 3943,
      "yam": 3944,
      "Ġcode": 3945,
      "ilt": 3946,
      "unal": 3947,
      "Ġthose": 3948,
      "igious": 3949,
      "oshi": 3950,
      "Ġearn": 3951,
      "ĠNepal": 3952,
      "itha": 3953,
      "Ġprop": 3954,
      "axal": 3955,
      "Ġdoub": 3956,
      "Ġassets": 3957,
      "Ġinfo": 3958,
      "ĠInf": 3959,
      "Ġenjoy": 3960,
      "Ġsought": 3961,
      "ique": 3962,
      "Ġrobbery": 3963,
      "Ġreveals": 3964,
      "ĠAfrica": 3965,
      "Ġseparate": 3966,
      "Dem": 3967,
      "Fake": 3968,
      "National": 3969,
      "TE": 3970,
      "UK": 3971,
      "dev": 3972,
      "eder": 3973,
      "Ġmal": 3974,
      "Ġlack": 3975,
      "ĠBe": 3976,
      "reets": 3977,
      "upta": 3978,
      "ĠVal": 3979,
      "Ġnegl": 3980,
      "Ġattempt": 3981,
      "Ġattacked": 3982,
      "Ġfacilities": 3983,
      "Ġstrikes": 3984,
      "ĠAdvani": 3985,
      "Ġadmissions": 3986,
      "ackeray": 3987,
      "Mys": 3988,
      "UT": 3989,
      "Vill": 3990,
      "Ġsame": 3991,
      "Ġfashion": 3992,
      "Ġtown": 3993,
      "Ġmuch": 3994,
      "olhapur": 3995,
      "ĠSri": 3996,
      "ĠSchool": 3997,
      "Ġstyle": 3998,
      "Ġease": 3999,
      "ĠThane": 4000,
      "ĠChampions": 4001,
      "Ġcoast": 4002,
      "ancial": 4003,
      "Ġoppose": 4004,
      "ĠAsian": 4005,
      "Ġeasy": 4006,
      "Ġchanges": 4007,
      "Health": 4008,
      "IV": 4009,
      "Opp": 4010,
      "ke": 4011,
      "ux": 4012,
      "Ġton": 4013,
      "Ġmulls": 4014,
      "amond": 4015,
      "ĠSachin": 4016,
      "ĠMur": 4017,
      "ĠPawar": 4018,
      "ective": 4019,
      "ocation": 4020,
      "Ġ35": 4021,
      "ĠObama": 4022,
      "Ġprison": 4023,
      "Ġblood": 4024,
      "Ġmayor": 4025,
      "Ġworker": 4026,
      "Ġslum": 4027,
      "Ġdefence": 4028,
      "Ġextortion": 4029,
      "Ġbuildings": 4030,
      "Ġinvestors": 4031,
      "Ġoperations": 4032,
      "ĠChandigarh": 4033,
      "Ġgroups": 4034,
      "eaker": 4035,
      "Ġreleases": 4036,
      "Ġproposal": 4037,
      "Ġspeech": 4038,
      "21": 4039,
      "De": 4040,
      "HA": 4041,
      "Kh": 4042,
      "Soon": 4043,
      "pay": 4044,
      "atar": 4045,
      "amir": 4046,
      "ĠJa": 4047,
      "Ġunl": 4048,
      "ĠBhag": 4049,
      "Ġfinally": 4050,
      "Ġboys": 4051,
      "Ġenough": 4052,
      "Ġdetails": 4053,
      "Ġloans": 4054,
      "Ġshooting": 4055,
      "ĠDhoni": 4056,
      "Residents": 4057,
      "Ġriots": 4058,
      "Ġcriminal": 4059,
      "26": 4060,
      "Land": 4061,
      "NT": 4062,
      "To": 4063,
      "Watch": 4064,
      "Ġsand": 4065,
      "Ġlate": 4066,
      "ĠSin": 4067,
      "Ġstorm": 4068,
      "Ġvia": 4069,
      "Ġbypoll": 4070,
      "ishw": 4071,
      "Ġresume": 4072,
      "Ġcool": 4073,
      "Ġsett": 4074,
      "Ġslow": 4075,
      "afe": 4076,
      "eepika": 4077,
      "ancy": 4078,
      "Shiv": 4079,
      "Army": 4080,
      "Ġengineering": 4081,
      "Ġsuffer": 4082,
      "Ġconduct": 4083,
      "Ġlockdown": 4084,
      "100": 4085,
      "Bab": 4086,
      "Film": 4087,
      "Har": 4088,
      "Ins": 4089,
      "Und": 4090,
      "ky": 4091,
      "pet": 4092,
      "ym": 4093,
      "za": 4094,
      "ergy": 4095,
      "anesh": 4096,
      "atre": 4097,
      "Ġdone": 4098,
      "Ġdips": 4099,
      "olf": 4100,
      "Ġlov": 4101,
      "Ġgain": 4102,
      "ĠCom": 4103,
      "ulf": 4104,
      "aga": 4105,
      "ĠIm": 4106,
      "ĠNCP": 4107,
      "ĠTal": 4108,
      "anta": 4109,
      "outs": 4110,
      "enger": 4111,
      "echn": 4112,
      "Ġgrants": 4113,
      "Ġmovie": 4114,
      "Ġtargets": 4115,
      "Minor": 4116,
      "Ġcabinet": 4117,
      "odhya": 4118,
      "ĠKochi": 4119,
      "BR": 4120,
      "Bombay": 4121,
      "Dh": 4122,
      "Mon": 4123,
      "Teen": 4124,
      "mission": 4125,
      "pa": 4126,
      "Ġrams": 4127,
      "Ġmand": 4128,
      "ĠAt": 4129,
      "ems": 4130,
      "ĠDal": 4131,
      "ĠNaidu": 4132,
      "ĠTir": 4133,
      "Ġvend": 4134,
      "ĠGu": 4135,
      "Ġbeats": 4136,
      "ectors": 4137,
      "Ġpredic": 4138,
      "Ġarrests": 4139,
      "Ġalliance": 4140,
      "Ġstrength": 4141,
      "ĠAnna": 4142,
      "Ġsuspected": 4143,
      "Ġfees": 4144,
      "Ġvotes": 4145,
      "Ġgrant": 4146,
      "Ġdrain": 4147,
      "Ġsolar": 4148,
      "Ġshifted": 4149,
      "24": 4150,
      "70": 4151,
      "Bollywood": 4152,
      "lers": 4153,
      "mons": 4154,
      "rants": 4155,
      "Ġpot": 4156,
      "Ġboss": 4157,
      "Ġramp": 4158,
      "Ġmission": 4159,
      "Ġwind": 4160,
      "iling": 4161,
      "Ġlift": 4162,
      "idel": 4163,
      "ĠMeh": 4164,
      "iller": 4165,
      "hips": 4166,
      "ociation": 4167,
      "Ġcoal": 4168,
      "Ġrecruit": 4169,
      "Ġrelations": 4170,
      "okes": 4171,
      "ĠAmer": 4172,
      "Ġboyc": 4173,
      "Ġlaws": 4174,
      "Trad": 4175,
      "Ġjudicial": 4176,
      "Ġwrites": 4177,
      "Ġshoots": 4178,
      "Ġbeaten": 4179,
      "Parents": 4180,
      "Ġprovide": 4181,
      "Ġcritic": 4182,
      "ĠWoman": 4183,
      "Panel": 4184,
      "Ġsituation": 4185,
      "Ash": 4186,
      "Boy": 4187,
      "NU": 4188,
      "aith": 4189,
      "mal": 4190,
      "rand": 4191,
      "inal": 4192,
      "Ġpaid": 4193,
      "Ġbash": 4194,
      "Ġbanned": 4195,
      "ĠCB": 4196,
      "Ġnamed": 4197,
      "ĠPanch": 4198,
      "Ġvan": 4199,
      "ecting": 4200,
      "quiry": 4201,
      "Ġ300": 4202,
      "encies": 4203,
      "ĠAmar": 4204,
      "ohn": 4205,
      "Private": 4206,
      "Ġavoid": 4207,
      "Ġduped": 4208,
      "Bigg": 4209,
      "ĠRTI": 4210,
      "Ġproblem": 4211,
      "vironment": 4212,
      "BMC": 4213,
      "Cy": 4214,
      "Or": 4215,
      "Qu": 4216,
      "Ret": 4217,
      "Vis": 4218,
      "life": 4219,
      "Ġaide": 4220,
      "Ġgains": 4221,
      "ential": 4222,
      "ĠShe": 4223,
      "ĠApp": 4224,
      "raq": 4225,
      "emy": 4226,
      "Ġvigil": 4227,
      "ĠOr": 4228,
      "ointed": 4229,
      "Ġappeal": 4230,
      "Ġelectric": 4231,
      "Ġsubmit": 4232,
      "ambaram": 4233,
      "Ġconfir": 4234,
      "Bhopal": 4235,
      "Ġreaches": 4236,
      "kshop": 4237,
      "ammu": 4238,
      "ĠWomen": 4239,
      "ĠKanpur": 4240,
      "Ġeconomic": 4241,
      "ĠMuslim": 4242,
      "Salman": 4243,
      "Auto": 4244,
      "NMC": 4245,
      "Real": 4246,
      "cy": 4247,
      "Ġtips": 4248,
      "Ġinm": 4249,
      "Ġpull": 4250,
      "Ġmach": 4251,
      "ilder": 4252,
      "room": 4253,
      "Ġgri": 4254,
      "ĠST": 4255,
      "ĠSub": 4256,
      "ĠBudget": 4257,
      "ĠGad": 4258,
      "udh": 4259,
      "ĠHaz": 4260,
      "ĠLondon": 4261,
      "Ġtrust": 4262,
      "indra": 4263,
      "Ġpray": 4264,
      "Ġscience": 4265,
      "Ġheritage": 4266,
      "Ġappear": 4267,
      "ĠBhatt": 4268,
      "Ġ90": 4269,
      "Trans": 4270,
      "Ġdebate": 4271,
      "Minister": 4272,
      "Ġfootball": 4273,
      "Ġpaise": 4274,
      "Monsoon": 4275,
      "ND": 4276,
      "Sa": 4277,
      "duce": 4278,
      "light": 4279,
      "site": 4280,
      "ves": 4281,
      "arc": 4282,
      "Ġdrow": 4283,
      "ilesh": 4284,
      "olar": 4285,
      "road": 4286,
      "iding": 4287,
      "osqu": 4288,
      "ĠTw": 4289,
      "ĠUd": 4290,
      "uclear": 4291,
      "Ġresult": 4292,
      "Ġ45": 4293,
      "Child": 4294,
      "amily": 4295,
      "Ġstrug": 4296,
      "Ġissued": 4297,
      "ĠAnand": 4298,
      "Ġinspir": 4299,
      "Ġneeded": 4300,
      "Ġmarkets": 4301,
      "ĠThackeray": 4302,
      "hibition": 4303,
      "Ġlicence": 4304,
      "Lok": 4305,
      "NCP": 4306,
      "di": 4307,
      "oi": 4308,
      "inar": 4309,
      "Ġsam": 4310,
      "Ġsister": 4311,
      "atic": 4312,
      "Ġculture": 4313,
      "eni": 4314,
      "Ġder": 4315,
      "Ġdow": 4316,
      "urang": 4317,
      "Ġlake": 4318,
      "ĠCon": 4319,
      "ĠMand": 4320,
      "oday": 4321,
      "ĠGang": 4322,
      "Ġtry": 4323,
      "ĠEur": 4324,
      "ibility": 4325,
      "Who": 4326,
      "annada": 4327,
      "Ġtesting": 4328,
      "Ġrunning": 4329,
      "Ġinsurance": 4330,
      "Ġenergy": 4331,
      "Ġzoo": 4332,
      "Ġdraws": 4333,
      "23": 4334,
      "60": 4335,
      "Be": 4336,
      "Green": 4337,
      "RK": 4338,
      "ba": 4339,
      "mohan": 4340,
      "not": 4341,
      "Ġbatt": 4342,
      "Ġro": 4343,
      "Ġwoo": 4344,
      "Ġwild": 4345,
      "asad": 4346,
      "Ġlatest": 4347,
      "ĠCP": 4348,
      "ĠMor": 4349,
      "ĠMamata": 4350,
      "ĠParty": 4351,
      "ĠDhar": 4352,
      "umes": 4353,
      "Ġshr": 4354,
      "Ġextra": 4355,
      "Ġcry": 4356,
      "ĠFar": 4357,
      "Ġpract": 4358,
      "Ġtext": 4359,
      "Ġapproach": 4360,
      "Ġinfrastructure": 4361,
      "Ġpostp": 4362,
      "Ġemployee": 4363,
      "Ġpromote": 4364,
      "Ġcommunity": 4365,
      "ĠRailway": 4366,
      "Ġfat": 4367,
      "Ġfur": 4368,
      "atives": 4369,
      "alam": 4370,
      "iled": 4371,
      "Ġforms": 4372,
      "aying": 4373,
      "aco": 4374,
      "iring": 4375,
      "reams": 4376,
      "Ġreply": 4377,
      "obb": 4378,
      "Ġuniversity": 4379,
      "ogn": 4380,
      "Ġsched": 4381,
      "Ġneighb": 4382,
      "Ġstretch": 4383,
      "ĠArun": 4384,
      "Ġcollector": 4385,
      "rench": 4386,
      "RTC": 4387,
      "Ġtermin": 4388,
      "aranasi": 4389,
      "Ġcyber": 4390,
      "Ġshortage": 4391,
      "Ġcancelled": 4392,
      "ĠSupreme": 4393,
      "Missing": 4394,
      "atrina": 4395,
      "Polit": 4396,
      "hat": 4397,
      "vers": 4398,
      "wards": 4399,
      "Ġtight": 4400,
      "Ġpand": 4401,
      "Ġbik": 4402,
      "Ġmus": 4403,
      "Ġwarm": 4404,
      "Ġhun": 4405,
      "Ġled": 4406,
      "ĠRoh": 4407,
      "ĠDas": 4408,
      "ĠDGP": 4409,
      "ability": 4410,
      "Ġvol": 4411,
      "Ġflo": 4412,
      "oots": 4413,
      "ĠShetty": 4414,
      "Ġsurge": 4415,
      "ducation": 4416,
      "Ġimpact": 4417,
      "Ġmenace": 4418,
      "Probe": 4419,
      "ridge": 4420,
      "Ġprofess": 4421,
      "Ġschemes": 4422,
      "Class": 4423,
      "ĠUttarakhand": 4424,
      "Ġstealing": 4425,
      "ieves": 4426,
      "ĠKorea": 4427,
      "OT": 4428,
      "South": 4429,
      "con": 4430,
      "hood": 4431,
      "key": 4432,
      "ints": 4433,
      "alks": 4434,
      "Ġtourn": 4435,
      "ĠSikh": 4436,
      "ĠCoun": 4437,
      "otees": 4438,
      "ĠPG": 4439,
      "ĠTro": 4440,
      "Ġjump": 4441,
      "arden": 4442,
      "rying": 4443,
      "Ġ75": 4444,
      "Ġsuper": 4445,
      "Ġstranded": 4446,
      "Ġdeputy": 4447,
      "elfare": 4448,
      "Ġcouns": 4449,
      "gedy": 4450,
      "Ġextends": 4451,
      "Ġtariff": 4452,
      "Ġjudges": 4453,
      "Ġbusinessman": 4454,
      "Ġmilk": 4455,
      "Ġdismisses": 4456,
      "Are": 4457,
      "Im": 4458,
      "Mob": 4459,
      "Nashik": 4460,
      "Sat": 4461,
      "Sub": 4462,
      "gency": 4463,
      "ining": 4464,
      "Ġtag": 4465,
      "Ġcirc": 4466,
      "Ġpact": 4467,
      "Ġhunt": 4468,
      "Ġlover": 4469,
      "ecom": 4470,
      "ĠSy": 4471,
      "leg": 4472,
      "ĠBas": 4473,
      "ĠGo": 4474,
      "cep": 4475,
      "angu": 4476,
      "Ġarmy": 4477,
      "Ġcoming": 4478,
      "ahabad": 4479,
      "Ġcontrovers": 4480,
      "Many": 4481,
      "Ġoffices": 4482,
      "Ġfined": 4483,
      "Ġcorrid": 4484,
      "IADMK": 4485,
      "Ġdenied": 4486,
      "Ġletter": 4487,
      "Ġclosed": 4488,
      "Ġcareer": 4489,
      "Ġconnect": 4490,
      "Ġcritical": 4491,
      "Security": 4492,
      "Ġsuggest": 4493,
      "Ġdifferent": 4494,
      "ĠChristmas": 4495,
      "ĠCCTV": 4496,
      "Ġcourts": 4497,
      "Ġboycott": 4498,
      "'ll": 4499,
      "Bhar": 4500,
      "Good": 4501,
      "IPL": 4502,
      "Need": 4503,
      "Red": 4504,
      "So": 4505,
      "nes": 4506,
      "wadi": 4507,
      "Ġtickets": 4508,
      "Ġcad": 4509,
      "Ġcult": 4510,
      "Ġpays": 4511,
      "Ġbow": 4512,
      "Ġmember": 4513,
      "Ġnomin": 4514,
      "ĠMot": 4515,
      "ĠBombay": 4516,
      "ĠPriyanka": 4517,
      "ĠIr": 4518,
      "ĠTrichy": 4519,
      "Ġrequ": 4520,
      "ĠHimachal": 4521,
      "Ġexecut": 4522,
      "Ġtracks": 4523,
      "awati": 4524,
      "ogra": 4525,
      "Ġattemp": 4526,
      "useum": 4527,
      "Ġactress": 4528,
      "Ġfacility": 4529,
      "Ġbillion": 4530,
      "Ġtribute": 4531,
      "Ġbelow": 4532,
      "ricket": 4533,
      "Ġaspirants": 4534,
      "Ġholid": 4535,
      "MLA": 4536,
      "PU": 4537,
      "gs": 4538,
      "gen": 4539,
      "sec": 4540,
      "Ġemb": 4541,
      "urt": 4542,
      "Ġforced": 4543,
      "etic": 4544,
      "ĠMir": 4545,
      "ĠMys": 4546,
      "ivists": 4547,
      "alled": 4548,
      "riya": 4549,
      "ĠHoli": 4550,
      "Ġplants": 4551,
      "ĠLake": 4552,
      "Ġnotices": 4553,
      "Ġseven": 4554,
      "Ġ2013": 4555,
      "ixed": 4556,
      "Ġswine": 4557,
      "Ġinside": 4558,
      "Ġfailed": 4559,
      "Ġseeking": 4560,
      "IIMS": 4561,
      "Ġvaccination": 4562,
      "Ġproblems": 4563,
      "Teachers": 4564,
      "urangabad": 4565,
      "Del": 4566,
      "Dist": 4567,
      "Kan": 4568,
      "MU": 4569,
      "Pay": 4570,
      "Your": 4571,
      "gine": 4572,
      "Ġsites": 4573,
      "Ġfears": 4574,
      "Ġcrow": 4575,
      "Ġpulls": 4576,
      "Ġpvt": 4577,
      "Ġauction": 4578,
      "Ġdark": 4579,
      "Ġok": 4580,
      "Ġhapp": 4581,
      "Ġstops": 4582,
      "akash": 4583,
      "ĠRed": 4584,
      "ĠDi": 4585,
      "apore": 4586,
      "ĠLS": 4587,
      "Ġflats": 4588,
      "Ġdispl": 4589,
      "Ġdisapp": 4590,
      "Ġstrate": 4591,
      "Ġthreaten": 4592,
      "clusive": 4593,
      "ĠExperts": 4594,
      "ĠOne": 4595,
      "Ġcrop": 4596,
      "Ġspirit": 4597,
      "'d": 4598,
      "22": 4599,
      "CPM": 4600,
      "Jharkhand": 4601,
      "LC": 4602,
      "Seven": 4603,
      "cill": 4604,
      "night": 4605,
      "Ġer": 4606,
      "Ġsend": 4607,
      "olic": 4608,
      "acing": 4609,
      "ĠPC": 4610,
      "ĠPIL": 4611,
      "rael": 4612,
      "ima": 4613,
      "Ġplaces": 4614,
      "Ġcha": 4615,
      "athon": 4616,
      "ĠIndore": 4617,
      "ashing": 4618,
      "ĠVik": 4619,
      "Ġresign": 4620,
      "Ġprincip": 4621,
      "Ġcommuters": 4622,
      "ĠUnion": 4623,
      "ĠManipur": 4624,
      "Ġfarmer": 4625,
      "Ġnetwork": 4626,
      "Ġtourist": 4627,
      "Ġadds": 4628,
      "Ġinvestment": 4629,
      "Ġpolitic": 4630,
      "Couple": 4631,
      "Ġproduction": 4632,
      "Ġhalf": 4633,
      "Ġappointment": 4634,
      "soft": 4635,
      "Ġpilgrims": 4636,
      "80": 4637,
      "Aj": 4638,
      "Brit": 4639,
      "Dis": 4640,
      "Most": 4641,
      "den": 4642,
      "ji": 4643,
      "ki": 4644,
      "ved": 4645,
      "Ġcer": 4646,
      "Ġcivil": 4647,
      "Ġpra": 4648,
      "Ġpath": 4649,
      "Ġdad": 4650,
      "Ġdanger": 4651,
      "icts": 4652,
      "Ġlines": 4653,
      "uls": 4654,
      "Ġview": 4655,
      "aper": 4656,
      "ĠFacebook": 4657,
      "ansion": 4658,
      "Ġspend": 4659,
      "Ġspell": 4660,
      "ization": 4661,
      "alse": 4662,
      "Ġscient": 4663,
      "Ġscanner": 4664,
      "Ġaccount": 4665,
      "Anti": 4666,
      "Ġexpect": 4667,
      "Ġreported": 4668,
      "Ġcurbs": 4669,
      "Ġurban": 4670,
      "akshi": 4671,
      "ĠLeague": 4672,
      "ĠMuslims": 4673,
      "Despite": 4674,
      "ĠBaner": 4675,
      "Ġnormal": 4676,
      "Sing": 4677,
      "zz": 4678,
      "oring": 4679,
      "orial": 4680,
      "Ġball": 4681,
      "Ġdomestic": 4682,
      "Ġmain": 4683,
      "urday": 4684,
      "Ġward": 4685,
      "Ġhockey": 4686,
      "ĠSen": 4687,
      "action": 4688,
      "idambaram": 4689,
      "ĠBand": 4690,
      "ĠNeh": 4691,
      "ĠTendulkar": 4692,
      "ths": 4693,
      "Ġworst": 4694,
      "Ġresident": 4695,
      "Ġunion": 4696,
      "Ġ2020": 4697,
      "Ġdry": 4698,
      "areena": 4699,
      "oons": 4700,
      "ĠYou": 4701,
      "Ġcalled": 4702,
      "Ġdistrib": 4703,
      "kari": 4704,
      "Ġregular": 4705,
      "Ġimprov": 4706,
      "Ġoperators": 4707,
      "apuram": 4708,
      "Ġsummons": 4709,
      "ĠAfghan": 4710,
      "Ġnumbers": 4711,
      "Ġtemper": 4712,
      "Ġanswers": 4713,
      "ĠGroup": 4714,
      "DS": 4715,
      "Sn": 4716,
      "Vijay": 4717,
      "few": 4718,
      "gi": 4719,
      "hab": 4720,
      "ls": 4721,
      "oroscope": 4722,
      "aria": 4723,
      "Ġdrown": 4724,
      "Ġlittle": 4725,
      "adar": 4726,
      "ĠAuth": 4727,
      "ĠIIM": 4728,
      "ĠNE": 4729,
      "ĠNet": 4730,
      "apat": 4731,
      "avis": 4732,
      "Ġnotes": 4733,
      "Ġsea": 4734,
      "Ġtragedy": 4735,
      "Ġadj": 4736,
      "Ġrevamp": 4737,
      "Ġplaying": 4738,
      "ĠInc": 4739,
      "Ġsalary": 4740,
      "ĠAsia": 4741,
      "eaders": 4742,
      "Ġfloods": 4743,
      "Ġdogs": 4744,
      "Ġlabourers": 4745,
      "Heavy": 4746,
      "Ġcredit": 4747,
      "Acc": 4748,
      "Bangalore": 4749,
      "Cabinet": 4750,
      "Here": 4751,
      "ME": 4752,
      "Post": 4753,
      "Sex": 4754,
      "aits": 4755,
      "bing": 4756,
      "care": 4757,
      "view": 4758,
      "Ġtim": 4759,
      "orities": 4760,
      "Ġpension": 4761,
      "Ġhour": 4762,
      "ily": 4763,
      "Ġfort": 4764,
      "Ġlower": 4765,
      "ĠSanjay": 4766,
      "ĠCR": 4767,
      "ĠMS": 4768,
      "ived": 4769,
      "ĠAI": 4770,
      "ĠKrishna": 4771,
      "imm": 4772,
      "Ġvoice": 4773,
      "oreign": 4774,
      "vert": 4775,
      "Ġconstit": 4776,
      "Ġplanning": 4777,
      "ucks": 4778,
      "Ġwords": 4779,
      "Ġremarks": 4780,
      "Ġpanic": 4781,
      "unny": 4782,
      "Ġreveal": 4783,
      "Ġriot": 4784,
      "Ġlawyer": 4785,
      "icrosoft": 4786,
      "ĠAdityanath": 4787,
      "Google": 4788,
      "Mil": 4789,
      "Tw": 4790,
      "we": 4791,
      "Ġ@": 4792,
      "Ġtab": 4793,
      "ermen": 4794,
      "aly": 4795,
      "Ġring": 4796,
      "Ġrare": 4797,
      "Ġroom": 4798,
      "Ġmind": 4799,
      "ersion": 4800,
      "emale": 4801,
      "ĠDes": 4802,
      "Ġmeas": 4803,
      "Ġallot": 4804,
      "Inter": 4805,
      "Ġhero": 4806,
      "ehl": 4807,
      "Ġsuspects": 4808,
      "Ġawaits": 4809,
      "ĠInternational": 4810,
      "Ġreforms": 4811,
      "Ġphones": 4812,
      "Ġimplement": 4813,
      "ference": 4814,
      "Ġvictory": 4815,
      "Ġlooking": 4816,
      "Ġreduce": 4817,
      "Ġstatement": 4818,
      "Ġdigital": 4819,
      "olved": 4820,
      "Ġeconomy": 4821,
      "ĠSinha": 4822,
      "Bar": 4823,
      "NR": 4824,
      "Sar": 4825,
      "TN": 4826,
      "ster": 4827,
      "eries": 4828,
      "anna": 4829,
      "Ġsour": 4830,
      "Ġpoint": 4831,
      "ico": 4832,
      "ĠSE": 4833,
      "ĠSidd": 4834,
      "uts": 4835,
      "Ġthings": 4836,
      "change": 4837,
      "imum": 4838,
      "oda": 4839,
      "ĠJD": 4840,
      "ĠJag": 4841,
      "Ġshel": 4842,
      "Ġacad": 4843,
      "Ġcaste": 4844,
      "Ġcrashes": 4845,
      "ensus": 4846,
      "Ġdrunk": 4847,
      "ounds": 4848,
      "icking": 4849,
      "Ġdepos": 4850,
      "Ġdelays": 4851,
      "Ġhostel": 4852,
      "chiev": 4853,
      "Ġpersons": 4854,
      "Schools": 4855,
      "Ġsilver": 4856,
      "Ġallowed": 4857,
      "Ġinflation": 4858,
      "ĠIAS": 4859,
      "ĠMaoists": 4860,
      "GC": 4861,
      "Ko": 4862,
      "Musl": 4863,
      "RD": 4864,
      "SG": 4865,
      "craft": 4866,
      "rang": 4867,
      "sid": 4868,
      "Ġ:": 4869,
      "Ġbars": 4870,
      "Ġmunicipal": 4871,
      "ĠSush": 4872,
      "Ġthese": 4873,
      "ĠPra": 4874,
      "ulayam": 4875,
      "ĠIraq": 4876,
      "ĠNand": 4877,
      "Ġvows": 4878,
      "rif": 4879,
      "Ġbeaut": 4880,
      "anti": 4881,
      "Ġworry": 4882,
      "epublic": 4883,
      "ĠYogi": 4884,
      "Ġvisa": 4885,
      "Ġfever": 4886,
      "Ġopening": 4887,
      "Ġweak": 4888,
      "Ġheads": 4889,
      "ĠParliament": 4890,
      "ustralian": 4891,
      "Ġpoison": 4892,
      "Ġflee": 4893,
      "Uttarakhand": 4894,
      "Ġobj": 4895,
      "Ġmagic": 4896,
      "Ġdemolition": 4897,
      "Sun": 4898,
      "Susp": 4899,
      "Vir": 4900,
      "bar": 4901,
      "ino": 4902,
      "Ġside": 4903,
      "alin": 4904,
      "Ġwelfare": 4905,
      "ĠMedical": 4906,
      "ivals": 4907,
      "ĠBaj": 4908,
      "ĠPuja": 4909,
      "ĠKoh": 4910,
      "ĠDon": 4911,
      "ĠDur": 4912,
      "allery": 4913,
      "aved": 4914,
      "Ġcast": 4915,
      "Ġaccess": 4916,
      "Ġpartner": 4917,
      "Ġdoor": 4918,
      "Ġslam": 4919,
      "iban": 4920,
      "ukta": 4921,
      "Ġcounter": 4922,
      "Ġenters": 4923,
      "Ġhurd": 4924,
      "Ġadmits": 4925,
      "Ġdivision": 4926,
      "ercury": 4927,
      "Ġfoul": 4928,
      "friendly": 4929,
      "Ġcommissioner": 4930,
      "Ġpicture": 4931,
      "EST": 4932,
      "Hel": 4933,
      "North": 4934,
      "Oil": 4935,
      "oop": 4936,
      "Ġemp": 4937,
      "Ġsens": 4938,
      "Ġcreat": 4939,
      "Ġbans": 4940,
      "ĠCol": 4941,
      "ĠKam": 4942,
      "ĠTel": 4943,
      "ripura": 4944,
      "Ġkeen": 4945,
      "ĠJammu": 4946,
      "arters": 4947,
      "artyr": 4948,
      "ĠWar": 4949,
      "Ġ33": 4950,
      "Ġintens": 4951,
      "ebi": 4952,
      "Int": 4953,
      "Ġbranch": 4954,
      "Ġpeac": 4955,
      "Ġactive": 4956,
      "Ġwinter": 4957,
      "Ġsuspends": 4958,
      "Ġstaffers": 4959,
      "Ġdebt": 4960,
      "Ġserious": 4961,
      "Ġrecovery": 4962,
      "Ġactivist": 4963,
      "ĠSaturday": 4964,
      "Railways": 4965,
      "ĠAshok": 4966,
      "Ġapproves": 4967,
      "Ġsewage": 4968,
      "Ġsurprise": 4969,
      "Australia": 4970,
      "Net": 4971,
      "Priyanka": 4972,
      "WD": 4973,
      "lom": 4974,
      "most": 4975,
      "oe": 4976,
      "araj": 4977,
      "Ġrich": 4978,
      "uster": 4979,
      "Ġnuclear": 4980,
      "ĠMall": 4981,
      "Ġstamp": 4982,
      "ĠRoy": 4983,
      "ĠNDA": 4984,
      "ument": 4985,
      "uda": 4986,
      "udge": 4987,
      "ocr": 4988,
      "oof": 4989,
      "ĠEast": 4990,
      "ĠOdisha": 4991,
      "Ġfloor": 4992,
      "stitute": 4993,
      "Ġcitizen": 4994,
      "Ġavail": 4995,
      "ickshaw": 4996,
      "Phone": 4997,
      "Ġacquis": 4998,
      "ĠHindi": 4999,
      "Ġbenefit": 5000,
      "Ġestate": 5001,
      "Bad": 5002,
      "Cons": 5003,
      "Food": 5004,
      "Fresh": 5005,
      "Poor": 5006,
      "Time": 5007,
      "Trib": 5008,
      "wag": 5009,
      "Ġtell": 5010,
      "Ġsan": 5011,
      "alc": 5012,
      "Ġbats": 5013,
      "Ġrival": 5014,
      "Ġmur": 5015,
      "amuna": 5016,
      "ĠShan": 5017,
      "acc": 5018,
      "ivery": 5019,
      "illy": 5020,
      "ĠII": 5021,
      "ĠTo": 5022,
      "Ġvery": 5023,
      "Ġking": 5024,
      "enda": 5025,
      "ellers": 5026,
      "Ġkiller": 5027,
      "Ġallows": 5028,
      "Ġslips": 5029,
      "ibr": 5030,
      "Ġfinancial": 5031,
      "Ġregistration": 5032,
      "Ġawait": 5033,
      "Ġvoting": 5034,
      "Ġturned": 5035,
      "Ġweekend": 5036,
      "Ġadvis": 5037,
      "ĠClub": 5038,
      "Forest": 5039,
      "Ġ2021": 5040,
      "ĠGurugram": 5041,
      "Ġdamage": 5042,
      "Ġlosses": 5043,
      "Ġclosure": 5044,
      "Ġremoved": 5045,
      "ĠBangladesh": 5046,
      "Ġperfect": 5047,
      "ĠAyodhya": 5048,
      "Ġinclud": 5049,
      "ĠBanerjee": 5050,
      "Gu": 5051,
      "HO": 5052,
      "Hot": 5053,
      "LE": 5054,
      "RA": 5055,
      "Se": 5056,
      "Soc": 5057,
      "Tel": 5058,
      "Wor": 5059,
      "east": 5060,
      "lights": 5061,
      "wer": 5062,
      "inema": 5063,
      "Ġsans": 5064,
      "orge": 5065,
      "Ġrising": 5066,
      "Ġwhere": 5067,
      "iran": 5068,
      "ĠIran": 5069,
      "Ġeight": 5070,
      "ĠDub": 5071,
      "Ġreun": 5072,
      "Ġbeach": 5073,
      "Ġkg": 5074,
      "Ġexport": 5075,
      "ĠIndo": 5076,
      "ressed": 5077,
      "Ġfires": 5078,
      "arya": 5079,
      "Ġanim": 5080,
      "ervation": 5081,
      "Ġhelped": 5082,
      "Ġinvites": 5083,
      "Ġparts": 5084,
      "Ġfeels": 5085,
      "Ġdirects": 5086,
      "Ġordered": 5087,
      "Ġcosts": 5088,
      "Ġperformance": 5089,
      "Ġcriminals": 5090,
      "Ġchairman": 5091,
      "Ġjourney": 5092,
      "Ġtriggers": 5093,
      "ĠTrophy": 5094,
      "Ġchaos": 5095,
      "ĠAuthority": 5096,
      "Def": 5097,
      "Moh": 5098,
      "Old": 5099,
      "cing": 5100,
      "met": 5101,
      "ront": 5102,
      "ters": 5103,
      "water": 5104,
      "Ġbooth": 5105,
      "Ġmosqu": 5106,
      "ici": 5107,
      "Ġlinks": 5108,
      "rop": 5109,
      "unity": 5110,
      "ĠSo": 5111,
      "utta": 5112,
      "Ġstone": 5113,
      "Ġthere": 5114,
      "emony": 5115,
      "ager": 5116,
      "ĠNir": 5117,
      "ĠNMC": 5118,
      "ugs": 5119,
      "hana": 5120,
      "Ġdrama": 5121,
      "pert": 5122,
      "ĠPrasad": 5123,
      "Ġdoing": 5124,
      "Ġprotection": 5125,
      "Ġcompet": 5126,
      "Ġevening": 5127,
      "Art": 5128,
      "Ġengineer": 5129,
      "Ġcreates": 5130,
      "Assam": 5131,
      "echie": 5132,
      "Villagers": 5133,
      "Ġdrowns": 5134,
      "Budget": 5135,
      "Ma": 5136,
      "Pass": 5137,
      "kers": 5138,
      "lings": 5139,
      "mark": 5140,
      "yl": 5141,
      "Ġfill": 5142,
      "Ġcattle": 5143,
      "Ġduo": 5144,
      "Ġrum": 5145,
      "Ġha": 5146,
      "Ġhair": 5147,
      "Ġgift": 5148,
      "ĠMet": 5149,
      "ĠMadh": 5150,
      "ander": 5151,
      "oti": 5152,
      "lea": 5153,
      "ĠBSP": 5154,
      "raf": 5155,
      "Ġever": 5156,
      "aina": 5157,
      "ĠGerman": 5158,
      "state": 5159,
      "harma": 5160,
      "istic": 5161,
      "Ġplat": 5162,
      "ĠFest": 5163,
      "Ġseen": 5164,
      "izag": 5165,
      "Ġabs": 5166,
      "Ġbrand": 5167,
      "Ġcamps": 5168,
      "Ġregul": 5169,
      "Ġexpansion": 5170,
      "Ġbreach": 5171,
      "Ġnetas": 5172,
      "Ġskip": 5173,
      "Ġkidnapped": 5174,
      "Sonia": 5175,
      "Ġmotor": 5176,
      "Ġlawyers": 5177,
      "Ġdegree": 5178,
      "Ġdowry": 5179,
      "Ġcorridor": 5180,
      "Bur": 5181,
      "Dep": 5182,
      "Em": 5183,
      "Let": 5184,
      "She": 5185,
      "Senior": 5186,
      "no": 5187,
      "Ġtask": 5188,
      "Ġtook": 5189,
      "Ġpun": 5190,
      "iting": 5191,
      "isl": 5192,
      "Ġmas": 5193,
      "Ġmaster": 5194,
      "Ġhims": 5195,
      "ĠSU": 5196,
      "utch": 5197,
      "ĠCPM": 5198,
      "ĠMark": 5199,
      "Ġstuck": 5200,
      "ĠAC": 5201,
      "ĠPU": 5202,
      "ĠPre": 5203,
      "ĠRavi": 5204,
      "ĠDo": 5205,
      "abet": 5206,
      "ĠNe": 5207,
      "ĠNot": 5208,
      "ĠTMC": 5209,
      "ĠTues": 5210,
      "Ġexerc": 5211,
      "Ġworries": 5212,
      "Ġ48": 5213,
      "Ġelderly": 5214,
      "ullah": 5215,
      "ancing": 5216,
      "arbha": 5217,
      "Ġaffected": 5218,
      "Ġurge": 5219,
      "posal": 5220,
      "Ġsucc": 5221,
      "uddin": 5222,
      "Ġduping": 5223,
      "hawan": 5224,
      "ĠHindu": 5225,
      "Ġpriority": 5226,
      "Madras": 5227,
      "ĠRussia": 5228,
      "Ġschedule": 5229,
      "Ġhimself": 5230,
      "Att": 5231,
      "DF": 5232,
      "FIR": 5233,
      "Japan": 5234,
      "Nitish": 5235,
      "PMC": 5236,
      "Vid": 5237,
      "break": 5238,
      "fit": 5239,
      "ho": 5240,
      "xy": 5241,
      "Ġ+": 5242,
      "Ġtre": 5243,
      "eri": 5244,
      "Ġfalse": 5245,
      "Ġast": 5246,
      "Ġdreams": 5247,
      "Ġrom": 5248,
      "Ġlangu": 5249,
      "ĠSid": 5250,
      "Ġnat": 5251,
      "lean": 5252,
      "ester": 5253,
      "cha": 5254,
      "ĠGupta": 5255,
      "Ġseize": 5256,
      "ensive": 5257,
      "ĠODI": 5258,
      "inda": 5259,
      "Ġdisease": 5260,
      "Indust": 5261,
      "Ġcommon": 5262,
      "Ġcommit": 5263,
      "ĠArvind": 5264,
      "Ġedge": 5265,
      "Ġmovement": 5266,
      "Ġcomplaints": 5267,
      "Ġopposes": 5268,
      "Ġalleged": 5269,
      "uven": 5270,
      "Ġhotels": 5271,
      "Ġchargesheet": 5272,
      "Ġ2023": 5273,
      "ĠMadras": 5274,
      "Ġproducts": 5275,
      "Ġmoment": 5276,
      "Ġreserves": 5277,
      "Gurgaon": 5278,
      "Ġphotos": 5279,
      "Ġcurrency": 5280,
      "idelines": 5281,
      "Ġstruggle": 5282,
      "ĠCouncil": 5283,
      "ĠTuesday": 5284,
      "Jet": 5285,
      "Left": 5286,
      "Ra": 5287,
      "Sam": 5288,
      "TR": 5289,
      "ause": 5290,
      "mits": 5291,
      "Ġinquiry": 5292,
      "Ġdiss": 5293,
      "Ġraz": 5294,
      "Ġmant": 5295,
      "Ġhav": 5296,
      "Ġhikes": 5297,
      "Ġforward": 5298,
      "olars": 5299,
      "Ġlay": 5300,
      "Ġlens": 5301,
      "ional": 5302,
      "ecks": 5303,
      "Ġstreets": 5304,
      "ĠKumb": 5305,
      "Ġdeploy": 5306,
      "Ġkick": 5307,
      "eev": 5308,
      "istani": 5309,
      "ĠJain": 5310,
      "Ġarm": 5311,
      "Ġchance": 5312,
      "Ġupgr": 5313,
      "ĠVas": 5314,
      "ĠVaranasi": 5315,
      "ubs": 5316,
      "pping": 5317,
      "ankan": 5318,
      "Chh": 5319,
      "Ġalways": 5320,
      "Ġ2011": 5321,
      "ĠStreet": 5322,
      "Ġpregnant": 5323,
      "Ġcomplex": 5324,
      "adio": 5325,
      "adium": 5326,
      "Ġsym": 5327,
      "Ġcheer": 5328,
      "Ġproperties": 5329,
      "Ġcycl": 5330,
      "Ġviral": 5331,
      "ddhav": 5332,
      "Infosys": 5333,
      "adhaar": 5334,
      "Ġpenalty": 5335,
      "Ġceremony": 5336,
      "%;": 5337,
      "Cash": 5338,
      "Mark": 5339,
      "Young": 5340,
      "had": 5341,
      "oos": 5342,
      "Ġtort": 5343,
      "Ġpool": 5344,
      "ilty": 5345,
      "ĠBCCI": 5346,
      "owing": 5347,
      "ĠKannada": 5348,
      "ĠDoc": 5349,
      "ĠTimes": 5350,
      "thy": 5351,
      "ĠGanga": 5352,
      "ĠGoogle": 5353,
      "Ġagenda": 5354,
      "Ġcrunch": 5355,
      "Ġminutes": 5356,
      "riculture": 5357,
      "Ġpolling": 5358,
      "Ġreligious": 5359,
      "arathi": 5360,
      "rithik": 5361,
      "ealand": 5362,
      "Ġinfra": 5363,
      "Ġfailure": 5364,
      "Truck": 5365,
      "ĠZealand": 5366,
      "itizens": 5367,
      "Ġcleared": 5368,
      "Ġprogress": 5369,
      "Ġlessons": 5370,
      "Ġsugar": 5371,
      "Ġsquad": 5372,
      "Ġbirds": 5373,
      "razil": 5374,
      "Ġgutted": 5375,
      "Ġproposes": 5376,
      "Ġacquisition": 5377,
      "Di": 5378,
      "Garbage": 5379,
      "Jay": 5380,
      "Loc": 5381,
      "Ran": 5382,
      "Sachin": 5383,
      "Tata": 5384,
      "Tech": 5385,
      "WA": 5386,
      "bn": 5387,
      "gent": 5388,
      "ken": 5389,
      "pan": 5390,
      "pati": 5391,
      "tech": 5392,
      "yers": 5393,
      "Ġsaves": 5394,
      "Ġfog": 5395,
      "Ġboth": 5396,
      "Ġaims": 5397,
      "Ġachiev": 5398,
      "Ġgiving": 5399,
      "ading": 5400,
      "ĠMen": 5401,
      "ande": 5402,
      "Ġthieves": 5403,
      "ĠTra": 5404,
      "ĠToday": 5405,
      "ĠGuj": 5406,
      "rikar": 5407,
      "Ġexit": 5408,
      "ĠLalu": 5409,
      "ĠLudhiana": 5410,
      "ĠFC": 5411,
      "Ġspec": 5412,
      "umbs": 5413,
      "Ġdrinking": 5414,
      "Ġcanal": 5415,
      "veer": 5416,
      "Ġretail": 5417,
      "Ġinform": 5418,
      "Ġbigger": 5419,
      "Ġcomplete": 5420,
      "rolog": 5421,
      "Ġrejected": 5422,
      "Ġmarried": 5423,
      "ĠDevelopment": 5424,
      "Ġmanager": 5425,
      "Ġaudit": 5426,
      "Ġvirus": 5427,
      "Ġsplit": 5428,
      "Ġstabbed": 5429,
      "Ġadministration": 5430,
      "Ġpipeline": 5431,
      "certain": 5432,
      "Ġfurther": 5433,
      "'ve": 5434,
      "35": 5435,
      "BM": 5436,
      "Body": 5437,
      "Cur": 5438,
      "Cart": 5439,
      "HU": 5440,
      "Make": 5441,
      "NE": 5442,
      "PCB": 5443,
      "born": 5444,
      "hlet": 5445,
      "ney": 5446,
      "rum": 5447,
      "Ġsat": 5448,
      "Ġsight": 5449,
      "Ġbott": 5450,
      "Ġlosing": 5451,
      "ĠSe": 5452,
      "ĠCar": 5453,
      "ĠBel": 5454,
      "ĠPower": 5455,
      "owda": 5456,
      "ĠDutt": 5457,
      "ĠGovernment": 5458,
      "uds": 5459,
      "Ġchoice": 5460,
      "Ġworried": 5461,
      "Ġ32": 5462,
      "Ġflag": 5463,
      "Ġdisabled": 5464,
      "Ġqual": 5465,
      "amsung": 5466,
      "ucky": 5467,
      "otsav": 5468,
      "crore": 5469,
      "Ġenvironment": 5470,
      "anja": 5471,
      "Ġsubsid": 5472,
      "Ġbrothers": 5473,
      "Ġusers": 5474,
      "rupt": 5475,
      "Ġartist": 5476,
      "ĠXI": 5477,
      "Black": 5478,
      "Ġcrosses": 5479,
      "Ġlevels": 5480,
      "Gurugram": 5481,
      "Ġupset": 5482,
      "Ġlargest": 5483,
      "charge": 5484,
      "Ġtransferred": 5485,
      "Ġprofessor": 5486,
      "ĠKohli": 5487,
      "CO": 5488,
      "Family": 5489,
      "Mamata": 5490,
      "RP": 5491,
      "deal": 5492,
      "hr": 5493,
      "ham": 5494,
      "log": 5495,
      "sy": 5496,
      "tar": 5497,
      "Ġerr": 5498,
      "inam": 5499,
      "Ġtakers": 5500,
      "Ġsim": 5501,
      "ench": 5502,
      "aland": 5503,
      "alys": 5504,
      "Ġbids": 5505,
      "Ġdil": 5506,
      "Ġwing": 5507,
      "Ġhosts": 5508,
      "asa": 5509,
      "Ġgod": 5510,
      "Ġnine": 5511,
      "ĠAbh": 5512,
      "ulam": 5513,
      "Ġrehab": 5514,
      "Ġconcl": 5515,
      "acking": 5516,
      "Ġchem": 5517,
      "Ġago": 5518,
      "ĠVen": 5519,
      "achh": 5520,
      "Ġleopard": 5521,
      "ĠWe": 5522,
      "ipro": 5523,
      "Ġ34": 5524,
      "Ġclimate": 5525,
      "issa": 5526,
      "arkar": 5527,
      "Ġevents": 5528,
      "Exp": 5529,
      "Ġguilty": 5530,
      "ĠUPA": 5531,
      "Ġallege": 5532,
      "Ġrealty": 5533,
      "Ġmode": 5534,
      "Ġflying": 5535,
      "ĠSurvey": 5536,
      "raped": 5537,
      "Ġpetrol": 5538,
      "Ġfares": 5539,
      "Smart": 5540,
      "Doctors": 5541,
      "Ġscreening": 5542,
      "Ġgeneral": 5543,
      "ĠMaoist": 5544,
      "Ġambul": 5545,
      "Ġwebsite": 5546,
      "Ġsleep": 5547,
      "Ġcollapse": 5548,
      "Ġfreedom": 5549,
      "Ġattempts": 5550,
      "75": 5551,
      "BCCI": 5552,
      "Central": 5553,
      "Did": 5554,
      "IE": 5555,
      "Medical": 5556,
      "Pet": 5557,
      "Terror": 5558,
      "VP": 5559,
      "jit": 5560,
      "lin": 5561,
      "makers": 5562,
      "Ġund": 5563,
      "Ġsar": 5564,
      "alal": 5565,
      "Ġtot": 5566,
      "Ġaim": 5567,
      "Ġwest": 5568,
      "Ġho": 5569,
      "ĠSan": 5570,
      "ĠSaw": 5571,
      "ĠSector": 5572,
      "Ġstore": 5573,
      "otic": 5574,
      "ĠRat": 5575,
      "ĠRai": 5576,
      "Ġdeals": 5577,
      "Ġplots": 5578,
      "ĠLaw": 5579,
      "ĠLPG": 5580,
      "asters": 5581,
      "Ġlease": 5582,
      "heel": 5583,
      "awada": 5584,
      "Ġpriv": 5585,
      "eback": 5586,
      "Ġopt": 5587,
      "Ġassist": 5588,
      "Ġbuys": 5589,
      "Ġshowers": 5590,
      "Ġopened": 5591,
      "phone": 5592,
      "ĠWhy": 5593,
      "Ġknot": 5594,
      "Ġconstable": 5595,
      "Ġbuyers": 5596,
      "ravid": 5597,
      "Ġlimit": 5598,
      "Ġsmuggling": 5599,
      "Ġvendors": 5600,
      "ĠTwitter": 5601,
      "ĠEurope": 5602,
      "ocracy": 5603,
      "Ġmurders": 5604,
      "And": 5605,
      "Dir": 5606,
      "Ed": 5607,
      "FI": 5608,
      "MR": 5609,
      "Obama": 5610,
      "Part": 5611,
      "Sena": 5612,
      "Times": 5613,
      "kal": 5614,
      "roll": 5615,
      "alg": 5616,
      "Ġped": 5617,
      "Ġbrain": 5618,
      "Ġrice": 5619,
      "Ġrly": 5620,
      "Ġhaw": 5621,
      "asha": 5622,
      "Ġgave": 5623,
      "Ġnom": 5624,
      "ĠMohan": 5625,
      "ĠBudd": 5626,
      "ĠPil": 5627,
      "aging": 5628,
      "Ġeve": 5629,
      "ĠTata": 5630,
      "Ġtheatre": 5631,
      "Ġchop": 5632,
      "Ġchann": 5633,
      "Ġcomeback": 5634,
      "ishek": 5635,
      "Ġ2012": 5636,
      "Ġrevive": 5637,
      "Ang": 5638,
      "Ġdiesel": 5639,
      "IIM": 5640,
      "CBSE": 5641,
      "Ġsolution": 5642,
      "Ġcauses": 5643,
      "Ġcustom": 5644,
      "Ġsummit": 5645,
      "Engine": 5646,
      "Ġpoach": 5647,
      "Ġeffect": 5648,
      "Ġcancels": 5649,
      "Railway": 5650,
      "Ġmessage": 5651,
      "ĠEnglish": 5652,
      "Ġregistered": 5653,
      "Ġtechnology": 5654,
      "Ġimportant": 5655,
      "Ġdestro": 5656,
      "ĠMohali": 5657,
      "Ġthrows": 5658,
      "Ġsurvivor": 5659,
      "ĠCBSE": 5660,
      "Ġinmates": 5661,
      "Ġanimals": 5662,
      "Ban": 5663,
      "GH": 5664,
      "Life": 5665,
      "Music": 5666,
      "Pad": 5667,
      "Tax": 5668,
      "list": 5669,
      "lets": 5670,
      "pe": 5671,
      "Ġdin": 5672,
      "Ġmater": 5673,
      "ura": 5674,
      "Ġhuge": 5675,
      "Ġforec": 5676,
      "achi": 5677,
      "ĠCWG": 5678,
      "akar": 5679,
      "agging": 5680,
      "ĠDig": 5681,
      "uma": 5682,
      "apes": 5683,
      "ĠGanesh": 5684,
      "ĠHa": 5685,
      "Ġyoga": 5686,
      "Ġjunior": 5687,
      "ĠLeft": 5688,
      "ĠFY": 5689,
      "ĠFl": 5690,
      "Ġcloud": 5691,
      "Ġcoup": 5692,
      "ogue": 5693,
      "Ġ44": 5694,
      "Ġrelax": 5695,
      "oking": 5696,
      "Ġsecy": 5697,
      "ennis": 5698,
      "prene": 5699,
      "minute": 5700,
      "Ġpromise": 5701,
      "Ġfestive": 5702,
      "Ġvacant": 5703,
      "Ġsolve": 5704,
      "Ġdrought": 5705,
      "ĠMalik": 5706,
      "iddle": 5707,
      "Ġaudience": 5708,
      "Surat": 5709,
      "Ġinstall": 5710,
      "ĠAjmer": 5711,
      "ĠAgra": 5712,
      "ĠChhattisgarh": 5713,
      "Ġpopular": 5714,
      "Ġemergency": 5715,
      "Protest": 5716,
      "ĠBadal": 5717,
      "Ġcertificate": 5718,
      "Ġseveral": 5719,
      "payee": 5720,
      "Ġunlikely": 5721,
      "Ġtemperature": 5722,
      "Af": 5723,
      "Br": 5724,
      "Dig": 5725,
      "Eight": 5726,
      "Hous": 5727,
      "NS": 5728,
      "Reg": 5729,
      "You": 5730,
      "khar": 5731,
      "lock": 5732,
      "mail": 5733,
      "Ġtally": 5734,
      "eras": 5735,
      "arr": 5736,
      "Ġfan": 5737,
      "Ġfate": 5738,
      "Ġfitness": 5739,
      "Ġcrem": 5740,
      "edy": 5741,
      "icate": 5742,
      "ece": 5743,
      "ĠSIT": 5744,
      "idhi": 5745,
      "oming": 5746,
      "ĠRel": 5747,
      "ĠRSS": 5748,
      "ovation": 5749,
      "ĠDhan": 5750,
      "itya": 5751,
      "ĠHai": 5752,
      "ĠJam": 5753,
      "ĠJust": 5754,
      "Ġarch": 5755,
      "ĠFilm": 5756,
      "ĠChidambaram": 5757,
      "Indore": 5758,
      "akhapat": 5759,
      "Ġremark": 5760,
      "Ġprep": 5761,
      "Ġdelivery": 5762,
      "Experts": 5763,
      "Ġhealthy": 5764,
      "Ġcomplain": 5765,
      "Union": 5766,
      "Ġtrader": 5767,
      "Ġassaulted": 5768,
      "Const": 5769,
      "Activists": 5770,
      "Ġhanging": 5771,
      "Ġfishermen": 5772,
      "Election": 5773,
      "Ġcondem": 5774,
      "Ġtowards": 5775,
      "Ġpersonal": 5776,
      "ĠOlympics": 5777,
      "Ġdegrees": 5778,
      "Ġresolve": 5779,
      "ĠAkhilesh": 5780,
      "ufact": 5781,
      "Ġpossible": 5782,
      "Ġrelationship": 5783,
      "Call": 5784,
      "Free": 5785,
      "Give": 5786,
      "Murder": 5787,
      "NC": 5788,
      "NH": 5789,
      "Odisha": 5790,
      "Panch": 5791,
      "Thane": 5792,
      "cent": 5793,
      "hour": 5794,
      "ker": 5795,
      "load": 5796,
      "like": 5797,
      "wara": 5798,
      "yap": 5799,
      "Ġten": 5800,
      "orry": 5801,
      "Ġcinema": 5802,
      "Ġbal": 5803,
      "Ġmang": 5804,
      "Ġmuseum": 5805,
      "Ġharm": 5806,
      "olt": 5807,
      "adn": 5808,
      "ushar": 5809,
      "ĠCJ": 5810,
      "ĠKhar": 5811,
      "ĠIM": 5812,
      "ĠNC": 5813,
      "ĠNaxal": 5814,
      "ĠGl": 5815,
      "rian": 5816,
      "Ġkicks": 5817,
      "ĠHIV": 5818,
      "istry": 5819,
      "Ġexchange": 5820,
      "ĠFDI": 5821,
      "aja": 5822,
      "Ġscore": 5823,
      "Ġscores": 5824,
      "Ġscholars": 5825,
      "Ġabove": 5826,
      "irlines": 5827,
      "ulty": 5828,
      "riti": 5829,
      "Ġmakeover": 5830,
      "Ġdefault": 5831,
      "Ġdeliver": 5832,
      "ĠInstitute": 5833,
      "lier": 5834,
      "Ġguidelines": 5835,
      "Ġ150": 5836,
      "Ġturnout": 5837,
      "Trump": 5838,
      "Ġskin": 5839,
      "Ġskills": 5840,
      "Ġreality": 5841,
      "Ġapolog": 5842,
      "ĠChandr": 5843,
      "Ġexpert": 5844,
      "Ġeco": 5845,
      "Ġdeclared": 5846,
      "Ġdiplom": 5847,
      "ĠCoimbatore": 5848,
      "Madurai": 5849,
      "Ġreceives": 5850,
      "Ġmilitants": 5851,
      "Ġquarant": 5852,
      "hajan": 5853,
      "Ġintroduc": 5854,
      "Ġsamples": 5855,
      "Ġholiday": 5856,
      "Ġmeasures": 5857,
      "ĠSUV": 5858,
      "akhapatnam": 5859,
      "If": 5860,
      "Love": 5861,
      "Plea": 5862,
      "Rape": 5863,
      "TA": 5864,
      "kumar": 5865,
      "oz": 5866,
      "wan": 5867,
      "inance": 5868,
      "Ġtig": 5869,
      "Ġtable": 5870,
      "eral": 5871,
      "anab": 5872,
      "Ġfare": 5873,
      "aters": 5874,
      "itra": 5875,
      "itivity": 5876,
      "Ġdied": 5877,
      "Ġrop": 5878,
      "Ġhints": 5879,
      "ilip": 5880,
      "ilpa": 5881,
      "adia": 5882,
      "level": 5883,
      "ĠIS": 5884,
      "ĠDM": 5885,
      "ĠNath": 5886,
      "ĠJoshi": 5887,
      "Ġplun": 5888,
      "Ġplanned": 5889,
      "Ġexhibition": 5890,
      "Ġagitation": 5891,
      "que": 5892,
      "ĠVill": 5893,
      "Ġflags": 5894,
      "Ġblind": 5895,
      "Ġquiz": 5896,
      "actors": 5897,
      "Ġbusy": 5898,
      "ĠRaja": 5899,
      "Ġstray": 5900,
      "Ġcorp": 5901,
      "Ġwinning": 5902,
      "Ġpassport": 5903,
      "Ġpayment": 5904,
      "Ġweight": 5905,
      "Ġextension": 5906,
      "Ġzones": 5907,
      "Ġbabus": 5908,
      "rape": 5909,
      "addy": 5910,
      "Ġcollapses": 5911,
      "Ġexecutive": 5912,
      "Ġstrategy": 5913,
      "ehlot": 5914,
      "45": 5915,
      "Dhar": 5916,
      "ES": 5917,
      "Foreign": 5918,
      "Take": 5919,
      "bad": 5920,
      "ject": 5921,
      "lal": 5922,
      "nel": 5923,
      "yar": 5924,
      "Ġtopp": 5925,
      "Ġbon": 5926,
      "Ġwent": 5927,
      "icha": 5928,
      "Ġlights": 5929,
      "rog": 5930,
      "uns": 5931,
      "ĠSom": 5932,
      "ĠSRK": 5933,
      "uter": 5934,
      "iruv": 5935,
      "ĠBr": 5936,
      "ĠRana": 5937,
      "ĠDalit": 5938,
      "ĠNR": 5939,
      "Ġrein": 5940,
      "ĠGaya": 5941,
      "Ġki": 5942,
      "Ġkiss": 5943,
      "aval": 5944,
      "ĠHealth": 5945,
      "ĠJait": 5946,
      "Ġspots": 5947,
      "ĠOf": 5948,
      "Ġflout": 5949,
      "Ġ400": 5950,
      "Ġabroad": 5951,
      "MCH": 5952,
      "Ġparticip": 5953,
      "Ġstruct": 5954,
      "Ġincome": 5955,
      "Ġstaffer": 5956,
      "President": 5957,
      "Ġtalent": 5958,
      "Ġbrought": 5959,
      "Ġurged": 5960,
      "Ġrestaur": 5961,
      "Ġdiamond": 5962,
      "Ġawarded": 5963,
      "holds": 5964,
      "Officials": 5965,
      "Ġsealed": 5966,
      "Ġneighbour": 5967,
      "Akshay": 5968,
      "Me": 5969,
      "Sush": 5970,
      "house": 5971,
      "lands": 5972,
      "panch": 5973,
      "wide": 5974,
      "yer": 5975,
      "Ġ0": 5976,
      "Ġult": 5977,
      "inter": 5978,
      "Ġsound": 5979,
      "arpur": 5980,
      "Ġfaith": 5981,
      "Ġocc": 5982,
      "Ġmartyr": 5983,
      "Ġhi": 5984,
      "asons": 5985,
      "olim": 5986,
      "Ġlad": 5987,
      "Ġgovern": 5988,
      "Ġthink": 5989,
      "ĠReg": 5990,
      "ĠKaran": 5991,
      "ĠID": 5992,
      "ĠGold": 5993,
      "Ġkid": 5994,
      "ceed": 5995,
      "ugu": 5996,
      "ĠUT": 5997,
      "Ġhelpl": 5998,
      "ĠCheck": 5999,
      "Ġdisaster": 6000,
      "Ġneg": 6001,
      "Ġappointed": 6002,
      "Ġfoundation": 6003,
      "Ġevidence": 6004,
      "Ġdocuments": 6005,
      "Ġdefends": 6006,
      "Online": 6007,
      "bedkar": 6008,
      "Ġreduc": 6009,
      "Ġsinger": 6010,
      "ĠIslam": 6011,
      "Ġwaiting": 6012,
      "Ġdevotees": 6013,
      "Ġrolls": 6014,
      "Ġsuffers": 6015,
      "Ġlearning": 6016,
      "Ġpresent": 6017,
      "Ġremoval": 6018,
      "Ġsemis": 6019,
      "ĠOlympic": 6020,
      "Ġtrailer": 6021,
      "ependence": 6022,
      "uxury": 6023,
      "Ġpeaceful": 6024,
      "xygen": 6025,
      "adnavis": 6026,
      "90": 6027,
      "Che": 6028,
      "German": 6029,
      "Kar": 6030,
      "Kidn": 6031,
      "Russ": 6032,
      "Tour": 6033,
      "auty": 6034,
      "cel": 6035,
      "eers": 6036,
      "hot": 6037,
      "iant": 6038,
      "kula": 6039,
      "turn": 6040,
      "Ġbat": 6041,
      "Ġbear": 6042,
      "Ġboun": 6043,
      "Ġbase": 6044,
      "Ġbikes": 6045,
      "ede": 6046,
      "Ġrent": 6047,
      "Ġhots": 6048,
      "eta": 6049,
      "ayi": 6050,
      "ĠSMS": 6051,
      "ĠAh": 6052,
      "ĠBa": 6053,
      "ĠPa": 6054,
      "ĠPer": 6055,
      "ĠRS": 6056,
      "ully": 6057,
      "ĠIGI": 6058,
      "ĠDMK": 6059,
      "ocate": 6060,
      "Ġyatra": 6061,
      "ĠJaya": 6062,
      "Ġpled": 6063,
      "Ġchecks": 6064,
      "ĠVish": 6065,
      "ishing": 6066,
      "ĠEV": 6067,
      "Ġaband": 6068,
      "Ġelected": 6069,
      "Ġitems": 6070,
      "Ġinjury": 6071,
      "Ġinjuries": 6072,
      "Ġentrance": 6073,
      "ittal": 6074,
      "Ġviolation": 6075,
      "Ġrainfall": 6076,
      "Ġannual": 6077,
      "Ġindustries": 6078,
      "Ġdiet": 6079,
      "Ġhalt": 6080,
      "Ġexplos": 6081,
      "Ġhubby": 6082,
      "Ġguns": 6083,
      "Doctor": 6084,
      "auvery": 6085,
      "Ġlooted": 6086,
      "Ġbenefits": 6087,
      "Ġreplace": 6088,
      "Ġmilitary": 6089,
      "Ġsoldiers": 6090,
      "Apple": 6091,
      "Ġauthorities": 6092,
      "ĠTeam": 6093,
      "Ġreopen": 6094,
      "abetes": 6095,
      "DM": 6096,
      "PIL": 6097,
      "Rem": 6098,
      "gm": 6099,
      "gar": 6100,
      "ked": 6101,
      "maker": 6102,
      "oil": 6103,
      "yond": 6104,
      "inals": 6105,
      "Ġship": 6106,
      "Ġpending": 6107,
      "isal": 6108,
      "Ġovers": 6109,
      "Ġmight": 6110,
      "Ġhacked": 6111,
      "asing": 6112,
      "Ġlater": 6113,
      "acle": 6114,
      "akhi": 6115,
      "ĠAwards": 6116,
      "ĠRah": 6117,
      "allies": 6118,
      "Ġproof": 6119,
      "Ġbeef": 6120,
      "Ġbeauty": 6121,
      "Ġbeyond": 6122,
      "hara": 6123,
      "Ġchit": 6124,
      "Ġagency": 6125,
      "ĠLord": 6126,
      "Ġcracks": 6127,
      "Ġcomb": 6128,
      "ipe": 6129,
      "plant": 6130,
      "umber": 6131,
      "Ġtraff": 6132,
      "Ġ55": 6133,
      "heri": 6134,
      "Ġimage": 6135,
      "Ġdefeat": 6136,
      "ĠArjun": 6137,
      "Ġcouncill": 6138,
      "Ġrefund": 6139,
      "Ġdraft": 6140,
      "Ġterrorists": 6141,
      "Ġexperience": 6142,
      "ĠXII": 6143,
      "vention": 6144,
      "Ġobserv": 6145,
      "Ġwarning": 6146,
      "Photog": 6147,
      "ĠBritish": 6148,
      "Ġtoilets": 6149,
      "ĠReview": 6150,
      "Global": 6151,
      "Ġrecruitment": 6152,
      "Ġmusical": 6153,
      "ĠNehru": 6154,
      "Ġshelter": 6155,
      "Amer": 6156,
      "Col": 6157,
      "Citizens": 6158,
      "Fly": 6159,
      "Tiger": 6160,
      "Want": 6161,
      "iate": 6162,
      "nbs": 6163,
      "oir": 6164,
      "Ġ.": 6165,
      "Ġpill": 6166,
      "itary": 6167,
      "Ġbed": 6168,
      "Ġdust": 6169,
      "Ġhire": 6170,
      "Ġganja": 6171,
      "adra": 6172,
      "ĠCal": 6173,
      "Ġsteel": 6174,
      "agn": 6175,
      "ĠICC": 6176,
      "ĠTop": 6177,
      "alli": 6178,
      "Ġkh": 6179,
      "Ġash": 6180,
      "Ġplaint": 6181,
      "Ġchamp": 6182,
      "ĠWed": 6183,
      "ĠWith": 6184,
      "ĠEk": 6185,
      "inde": 6186,
      "Ġminors": 6187,
      "Ġaccounts": 6188,
      "Ġoption": 6189,
      "Ġslip": 6190,
      "ĠRajkot": 6191,
      "Ġdecline": 6192,
      "Ġplayer": 6193,
      "Ġguards": 6194,
      "Ġcollect": 6195,
      "Ġenv": 6196,
      "Ġconsult": 6197,
      "Ġcelebrated": 6198,
      "Ġvisitors": 6199,
      "Ġdonation": 6200,
      "Ġgoods": 6201,
      "stitution": 6202,
      "uvraj": 6203,
      "Ġapart": 6204,
      "Ġmodern": 6205,
      "Ġactivities": 6206,
      "Ġcycle": 6207,
      "uzaff": 6208,
      "Ġburning": 6209,
      "Supreme": 6210,
      "racts": 6211,
      "Ġunveils": 6212,
      "IFA": 6213,
      "Amitabh": 6214,
      "ĠHazare": 6215,
      "Ġcontroversy": 6216,
      "usharraf": 6217,
      "'re": 6218,
      "300": 6219,
      "Bang": 6220,
      "Dead": 6221,
      "OR": 6222,
      "Rest": 6223,
      "Where": 6224,
      "hai": 6225,
      "pin": 6226,
      "son": 6227,
      "win": 6228,
      "Ġtied": 6229,
      "aro": 6230,
      "arth": 6231,
      "Ġband": 6232,
      "Ġdial": 6233,
      "Ġment": 6234,
      "ayukta": 6235,
      "unts": 6236,
      "ĠRanchi": 6237,
      "ĠKolhapur": 6238,
      "abb": 6239,
      "abu": 6240,
      "Ġprove": 6241,
      "Ġjab": 6242,
      "atha": 6243,
      "ĠVadodara": 6244,
      "Ġ37": 6245,
      "plete": 6246,
      "hani": 6247,
      "Ġcoff": 6248,
      "Ġcannot": 6249,
      "Ġrecogn": 6250,
      "Ġattract": 6251,
      "Ġalarm": 6252,
      "ĠYamuna": 6253,
      "atters": 6254,
      "Ġcommerc": 6255,
      "Ġbuilder": 6256,
      "Ġremand": 6257,
      "They": 6258,
      "affron": 6259,
      "Ġaircraft": 6260,
      "Ġfeed": 6261,
      "Ġweap": 6262,
      "Arun": 6263,
      "Ġautos": 6264,
      "ottest": 6265,
      "Ġlooms": 6266,
      "Ġalleg": 6267,
      "Ġoperation": 6268,
      "Ġconvicted": 6269,
      "Ġassaulting": 6270,
      "Corpor": 6271,
      "Ġlonger": 6272,
      "Actor": 6273,
      "Ġcoaches": 6274,
      "uzz": 6275,
      "ĠMaha": 6276,
      "ĠNGT": 6277,
      "Ġinstitute": 6278,
      "Ġanswer": 6279,
      "Ġselection": 6280,
      "Ġwaiver": 6281,
      "Ġjawan": 6282,
      "ithaa": 6283,
      "ishwarya": 6284,
      "Ġpandemic": 6285,
      "Ġcrowd": 6286,
      "Ġprincipal": 6287,
      "Aamir": 6288,
      "Bo": 6289,
      "Book": 6290,
      "LT": 6291,
      "Lalu": 6292,
      "Out": 6293,
      "Park": 6294,
      "Sum": 6295,
      "Sri": 6296,
      "Sania": 6297,
      "eget": 6298,
      "ground": 6299,
      "pm": 6300,
      "iny": 6301,
      "Ġfig": 6302,
      "itude": 6303,
      "Ġdiver": 6304,
      "Ġmaid": 6305,
      "Ġhrs": 6306,
      "Ġhiring": 6307,
      "Ġgh": 6308,
      "usa": 6309,
      "acco": 6310,
      "erson": 6311,
      "ĠAc": 6312,
      "ĠACB": 6313,
      "reens": 6314,
      "illing": 6315,
      "ĠIPS": 6316,
      "ĠTour": 6317,
      "ĠGe": 6318,
      "ĠGreater": 6319,
      "riors": 6320,
      "Ġchurch": 6321,
      "ĠLo": 6322,
      "ajpayee": 6323,
      "Ġworkshop": 6324,
      "Ġ36": 6325,
      "ĠOver": 6326,
      "Ġdrives": 6327,
      "ampnbs": 6328,
      "Ġtea": 6329,
      "Ġalone": 6330,
      "Ġalmost": 6331,
      "ĠYatra": 6332,
      "Ġoptions": 6333,
      "ushka": 6334,
      "Ġraps": 6335,
      "Ġremove": 6336,
      "Ġmedal": 6337,
      "Ġcoronavirus": 6338,
      "Ġthanks": 6339,
      "phones": 6340,
      "Ġsky": 6341,
      "ĠTrans": 6342,
      "Ġdivor": 6343,
      "eneral": 6344,
      "Ġengineers": 6345,
      "Ġkidnap": 6346,
      "Ġpilot": 6347,
      "ĠKalyan": 6348,
      "Ġinternet": 6349,
      "Ġcondition": 6350,
      "Ġquarter": 6351,
      "Ġsteals": 6352,
      "Ġmigrants": 6353,
      "Ġcaptain": 6354,
      "Opposition": 6355,
      "ĠGadkari": 6356,
      "Ġincluding": 6357,
      "DU": 6358,
      "Every": 6359,
      "MT": 6360,
      "Mod": 6361,
      "Major": 6362,
      "Vadodara": 6363,
      "happy": 6364,
      "jan": 6365,
      "point": 6366,
      "ori": 6367,
      "Ġfemale": 6368,
      "enance": 6369,
      "Ġpurch": 6370,
      "Ġax": 6371,
      "Ġdear": 6372,
      "Ġwish": 6373,
      "Ġgarden": 6374,
      "aming": 6375,
      "ĠSum": 6376,
      "ĠSud": 6377,
      "ĠSukh": 6378,
      "ĠMarathi": 6379,
      "Ġther": 6380,
      "ĠAIIMS": 6381,
      "ĠRepublic": 6382,
      "ĠKas": 6383,
      "ĠNCR": 6384,
      "ĠTej": 6385,
      "star": 6386,
      "Ġdeep": 6387,
      "Ġkept": 6388,
      "ĠHP": 6389,
      "Ġagriculture": 6390,
      "ailed": 6391,
      "ooja": 6392,
      "ĠWeek": 6393,
      "Ġreserve": 6394,
      "Star": 6395,
      "Ġmega": 6396,
      "aveen": 6397,
      "Indians": 6398,
      "eve": 6399,
      "Chinese": 6400,
      "Ġ65": 6401,
      "Ġevac": 6402,
      "Ġparks": 6403,
      "Ġvoter": 6404,
      "Ġphys": 6405,
      "ĠThak": 6406,
      "Ġfunding": 6407,
      "Ġpleas": 6408,
      "anji": 6409,
      "eases": 6410,
      "Ġpolicemen": 6411,
      "aluation": 6412,
      "Ġwrite": 6413,
      "Ġefforts": 6414,
      "Ġlegisl": 6415,
      "ĠSuper": 6416,
      "Ġreceive": 6417,
      "Ġlarge": 6418,
      "Ġchallenges": 6419,
      "Business": 6420,
      "ĠMoU": 6421,
      "Ġsurrenders": 6422,
      "Ġhurdle": 6423,
      "ĠFestival": 6424,
      "Ġastrolog": 6425,
      "alalithaa": 6426,
      "ampnbsp": 6427,
      "400": 6428,
      "BT": 6429,
      "Kal": 6430,
      "There": 6431,
      "bound": 6432,
      "laze": 6433,
      "mumbai": 6434,
      "uing": 6435,
      "Ġpace": 6436,
      "Ġrallies": 6437,
      "olution": 6438,
      "Ġgames": 6439,
      "ĠKing": 6440,
      "ĠNA": 6441,
      "ainment": 6442,
      "Ġreasons": 6443,
      "str": 6444,
      "harth": 6445,
      "ifts": 6446,
      "Ġaccept": 6447,
      "ĠFrench": 6448,
      "ĠVarun": 6449,
      "Ġtrucks": 6450,
      "ĠEd": 6451,
      "Ġmeal": 6452,
      "Ġscene": 6453,
      "Ġarrive": 6454,
      "Ġarrives": 6455,
      "Ġablaze": 6456,
      "axals": 6457,
      "ĠSingapore": 6458,
      "Ġsuit": 6459,
      "Ġexpected": 6460,
      "Exclusive": 6461,
      "Ġnearly": 6462,
      "Ġfaculty": 6463,
      "Ġcollision": 6464,
      "Ġstartups": 6465,
      "Ġviolations": 6466,
      "SEB": 6467,
      "Ġstopped": 6468,
      "Ġfootpath": 6469,
      "Ġharvest": 6470,
      "Ġacquitted": 6471,
      "ĠIsrael": 6472,
      "eerut": 6473,
      "Ġaudio": 6474,
      "Ġdeclares": 6475,
      "Ġconnection": 6476,
      "Ġchallenged": 6477,
      "Ġpremises": 6478,
      "Ġabducted": 6479,
      "Ġliter": 6480,
      "Ġmystery": 6481,
      "Maoists": 6482,
      "Ġcoastal": 6483,
      "ĠApple": 6484,
      "Ġpostponed": 6485,
      "Ġterminal": 6486,
      "Ġhunger": 6487,
      "Ġdisplay": 6488,
      "ĠShankar": 6489,
      "Burgl": 6490,
      "Ġcouples": 6491,
      "Ġstructures": 6492,
      "Photogallery": 6493,
      "Ġcommercial": 6494,
      "Av": 6495,
      "Ay": 6496,
      "BMP": 6497,
      "Kids": 6498,
      "Pics": 6499,
      "kn": 6500,
      "uild": 6501,
      "vy": 6502,
      "Ġentre": 6503,
      "Ġaf": 6504,
      "Ġdivers": 6505,
      "Ġwear": 6506,
      "Ġliving": 6507,
      "Ġgen": 6508,
      "Ġgone": 6509,
      "Ġonce": 6510,
      "uting": 6511,
      "anding": 6512,
      "ĠPort": 6513,
      "ĠKi": 6514,
      "ĠISI": 6515,
      "ĠDC": 6516,
      "ĠDa": 6517,
      "ĠDeepika": 6518,
      "ĠTripura": 6519,
      "udes": 6520,
      "ĠHollywood": 6521,
      "ivek": 6522,
      "ĠUp": 6523,
      "ĠUddhav": 6524,
      "Ġupholds": 6525,
      "Ġaccep": 6526,
      "Ġagencies": 6527,
      "ikanth": 6528,
      "Ġspike": 6529,
      "ousands": 6530,
      "Ġunivers": 6531,
      "Ġblow": 6532,
      "ĠYouth": 6533,
      "Ġimpr": 6534,
      "ĠRajya": 6535,
      "Ġboat": 6536,
      "Ġgradu": 6537,
      "Ġbreath": 6538,
      "Ġhealthcare": 6539,
      "Ġelectroc": 6540,
      "Ġhandle": 6541,
      "ĠPatil": 6542,
      "Speed": 6543,
      "otton": 6544,
      "Ġaffect": 6545,
      "Ġruling": 6546,
      "Ġearth": 6547,
      "otholes": 6548,
      "Ġtribals": 6549,
      "ĠWhat": 6550,
      "ĠRTO": 6551,
      "Ġirks": 6552,
      "autam": 6553,
      "Ġspotted": 6554,
      "Ġvirt": 6555,
      "Ġchanged": 6556,
      "Ġrobbers": 6557,
      "iscal": 6558,
      "odhpur": 6559,
      "Ġrebels": 6560,
      "Ġcommunal": 6561,
      "ĠKaif": 6562,
      "Ġpersonnel": 6563,
      "Ġmolestation": 6564,
      "Teacher": 6565,
      "ĠCanada": 6566,
      "Under": 6567,
      "Ġprayers": 6568,
      "ĠAfghanistan": 6569,
      "Ġexercise": 6570,
      "84": 6571,
      "Abh": 6572,
      "Bomb": 6573,
      "Education": 6574,
      "Sanjay": 6575,
      "br": 6576,
      "bul": 6577,
      "nan": 6578,
      "rec": 6579,
      "yas": 6580,
      "onk": 6581,
      "Ġcart": 6582,
      "Ġcook": 6583,
      "Ġpc": 6584,
      "Ġpump": 6585,
      "isions": 6586,
      "Ġrage": 6587,
      "urd": 6588,
      "inger": 6589,
      "elift": 6590,
      "unction": 6591,
      "ĠCont": 6592,
      "ĠRos": 6593,
      "Ġep": 6594,
      "odd": 6595,
      "Ġvax": 6596,
      "Ġrepr": 6597,
      "ĠGen": 6598,
      "ĠGreen": 6599,
      "Ġyr": 6600,
      "ĠVer": 6601,
      "ĠVis": 6602,
      "ĠOpp": 6603,
      "Ġunear": 6604,
      "Ġscra": 6605,
      "Ġdisposal": 6606,
      "puri": 6607,
      "Ġattach": 6608,
      "Ġ2010": 6609,
      "Ġfines": 6610,
      "ĠAnil": 6611,
      "Ġincidents": 6612,
      "Ġguide": 6613,
      "Ġhearts": 6614,
      "Ġfighting": 6615,
      "Ġzero": 6616,
      "ĠParrikar": 6617,
      "Ġconfident": 6618,
      "Advani": 6619,
      "Ġstands": 6620,
      "Ġkidney": 6621,
      "Ġhalts": 6622,
      "Flood": 6623,
      "regular": 6624,
      "Ġmachines": 6625,
      "Ġcultural": 6626,
      "Ġadjourn": 6627,
      "ĠDurga": 6628,
      "ĠWednes": 6629,
      "Ġentreprene": 6630,
      "AU": 6631,
      "Ac": 6632,
      "College": 6633,
      "Governor": 6634,
      "Ir": 6635,
      "LF": 6636,
      "Ur": 6637,
      "eets": 6638,
      "kha": 6639,
      "oric": 6640,
      "Ġfit": 6641,
      "Ġfel": 6642,
      "Ġpup": 6643,
      "Ġpock": 6644,
      "Ġpicks": 6645,
      "itz": 6646,
      "Ġrid": 6647,
      "Ġrange": 6648,
      "Ġwishes": 6649,
      "olation": 6650,
      "Ġlovers": 6651,
      "Ġgap": 6652,
      "ĠMil": 6653,
      "ĠBi": 6654,
      "ĠDU": 6655,
      "ĠDhawan": 6656,
      "alling": 6657,
      "ĠHy": 6658,
      "Ġshine": 6659,
      "Ġexports": 6660,
      "Ġacid": 6661,
      "ĠFadnavis": 6662,
      "Ġovert": 6663,
      "ĠEid": 6664,
      "Ġclar": 6665,
      "Ġmanufact": 6666,
      "Ġquarters": 6667,
      "Ġrecomm": 6668,
      "arshan": 6669,
      "Ġwhite": 6670,
      "ĠRajput": 6671,
      "Ġapply": 6672,
      "Ġassess": 6673,
      "azon": 6674,
      "ĠStalin": 6675,
      "Ġrevival": 6676,
      "Ġfinance": 6677,
      "Ġinterim": 6678,
      "Ġfray": 6679,
      "Ġextend": 6680,
      "ruct": 6681,
      "Ġlowest": 6682,
      "Ġcyl": 6683,
      "Ġdamaged": 6684,
      "Ġknock": 6685,
      "Ġcolon": 6686,
      "Ġreservation": 6687,
      "ĠPanaji": 6688,
      "Ġtowns": 6689,
      "Ġmerger": 6690,
      "ĠCAG": 6691,
      "Ġmorning": 6692,
      "Maoist": 6693,
      "Ġpackage": 6694,
      "Ġconfirms": 6695,
      "Ġcounselling": 6696,
      "Kochi": 6697,
      "ĠDubai": 6698,
      "47": 6699,
      "ACB": 6700,
      "Dalit": 6701,
      "GST": 6702,
      "Himachal": 6703,
      "SH": 6704,
      "ganj": 6705,
      "hir": 6706,
      "ially": 6707,
      "long": 6708,
      "rigation": 6709,
      "inn": 6710,
      "inated": 6711,
      "Ġty": 6712,
      "ato": 6713,
      "Ġcame": 6714,
      "alpur": 6715,
      "Ġpts": 6716,
      "Ġpuja": 6717,
      "ito": 6718,
      "Ġburns": 6719,
      "Ġrocks": 6720,
      "eli": 6721,
      "ĠMath": 6722,
      "Ġstadium": 6723,
      "ĠAIADMK": 6724,
      "ĠPath": 6725,
      "eman": 6726,
      "illa": 6727,
      "ĠKot": 6728,
      "ulk": 6729,
      "Ġathlet": 6730,
      "ĠDesh": 6731,
      "ĠTRS": 6732,
      "Ġvice": 6733,
      "Ġveter": 6734,
      "iful": 6735,
      "ackers": 6736,
      "Ġspect": 6737,
      "plus": 6738,
      "Ġcler": 6739,
      "Ġcloses": 6740,
      "ĠOld": 6741,
      "Ġunf": 6742,
      "eshwar": 6743,
      "Ġcooper": 6744,
      "Ġtrap": 6745,
      "Ġdiseases": 6746,
      "Ġrecovers": 6747,
      "Ġaltern": 6748,
      "Ġsetting": 6749,
      "ĠRajnath": 6750,
      "ĠInter": 6751,
      "Ġintervention": 6752,
      "Ġfacelift": 6753,
      "Ġconservation": 6754,
      "Ġfighters": 6755,
      "Ġdeter": 6756,
      "Ġfourth": 6757,
      "Ġserve": 6758,
      "Ġthrashed": 6759,
      "Engl": 6760,
      "Corporation": 6761,
      "Coronavirus": 6762,
      "Ġsongs": 6763,
      "Ġexcise": 6764,
      "Ġwithdra": 6765,
      "Ġequip": 6766,
      "Ġapproval": 6767,
      "ĠNGO": 6768,
      "Ġcatches": 6769,
      "Finally": 6770,
      "Ġwithdraws": 6771,
      "Ġsoftware": 6772,
      "Ġinitiative": 6773,
      "Ġdoubles": 6774,
      "Death": 6775,
      "ĠTaliban": 6776,
      "Mobile": 6777,
      "Muslim": 6778,
      "Social": 6779,
      "Ġcompetition": 6780,
      "AMC": 6781,
      "BSP": 6782,
      "BBS": 6783,
      "God": 6784,
      "Hon": 6785,
      "Happy": 6786,
      "IO": 6787,
      "Imp": 6788,
      "Men": 6789,
      "NDA": 6790,
      "NBA": 6791,
      "Rare": 6792,
      "Tal": 6793,
      "War": 6794,
      "peak": 6795,
      "week": 6796,
      "Ġtor": 6797,
      "ano": 6798,
      "Ġfram": 6799,
      "Ġcow": 6800,
      "Ġcous": 6801,
      "itors": 6802,
      "Ġbra": 6803,
      "Ġdomin": 6804,
      "Ġwhip": 6805,
      "Ġhab": 6806,
      "icle": 6807,
      "acter": 6808,
      "achar": 6809,
      "ĠCr": 6810,
      "ĠCant": 6811,
      "ĠChief": 6812,
      "ĠMc": 6813,
      "Ġstalls": 6814,
      "Ġstories": 6815,
      "akk": 6816,
      "ĠAfter": 6817,
      "raine": 6818,
      "ĠKe": 6819,
      "ĠKab": 6820,
      "ĠKart": 6821,
      "ĠNIA": 6822,
      "ĠTiger": 6823,
      "Ġvent": 6824,
      "thing": 6825,
      "ĠGehlot": 6826,
      "avid": 6827,
      "ighter": 6828,
      "ectric": 6829,
      "ocol": 6830,
      "ĠJohn": 6831,
      "ĠFort": 6832,
      "Ġtruth": 6833,
      "Ġresumes": 6834,
      "ĠOm": 6835,
      "Ġ52": 6836,
      "Ġpartners": 6837,
      "Ġ600": 6838,
      "uckus": 6839,
      "Ġdemocracy": 6840,
      "Ġshowc": 6841,
      "ĠManohar": 6842,
      "ĠManmohan": 6843,
      "ĠInt": 6844,
      "gao": 6845,
      "Ġsweet": 6846,
      "Ġrefuse": 6847,
      "Ġtaxi": 6848,
      "Ġsubur": 6849,
      "ursday": 6850,
      "RTS": 6851,
      "Ġterms": 6852,
      "Ġstatue": 6853,
      "Drug": 6854,
      "ĠAssociation": 6855,
      "Coimbatore": 6856,
      "Ġgrab": 6857,
      "Ġhonours": 6858,
      "Ġflees": 6859,
      "Ġproposals": 6860,
      "Ġidentified": 6861,
      "Ġwelcomes": 6862,
      "Ġmolesting": 6863,
      "Ġwitnesses": 6864,
      "Ġwheat": 6865,
      "Ġbullet": 6866,
      "Narendra": 6867,
      "Ġhorror": 6868,
      "ĠiPhone": 6869,
      "Ġcertificates": 6870,
      "ĠRanbir": 6871,
      "Ġcrushed": 6872,
      "ĠArunachal": 6873,
      "Ġplatform": 6874,
      "Ġsuccumbs": 6875,
      "Cartoons": 6876,
      "ĠWednesday": 6877,
      "65": 6878,
      "CS": 6879,
      "Camp": 6880,
      "GA": 6881,
      "Her": 6882,
      "ING": 6883,
      "Liquor": 6884,
      "PP": 6885,
      "Sr": 6886,
      "Sil": 6887,
      "come": 6888,
      "coh": 6889,
      "eals": 6890,
      "esent": 6891,
      "Ġsac": 6892,
      "orks": 6893,
      "Ġfights": 6894,
      "Ġpowers": 6895,
      "Ġaver": 6896,
      "ishi": 6897,
      "Ġoxygen": 6898,
      "Ġmap": 6899,
      "Ġwary": 6900,
      "Ġhum": 6901,
      "icult": 6902,
      "oly": 6903,
      "ĠAv": 6904,
      "ĠAustralian": 6905,
      "rew": 6906,
      "ĠPrem": 6907,
      "ĠPuri": 6908,
      "imary": 6909,
      "Ġeast": 6910,
      "ĠDir": 6911,
      "abour": 6912,
      "ĠNow": 6913,
      "ĠTechn": 6914,
      "Ġvari": 6915,
      "ifest": 6916,
      "Ġshad": 6917,
      "Ġji": 6918,
      "ĠFrance": 6919,
      "awan": 6920,
      "Ġdrink": 6921,
      "Ġ47": 6922,
      "Ġattention": 6923,
      "axy": 6924,
      "beat": 6925,
      "Ġopport": 6926,
      "Ġelev": 6927,
      "enced": 6928,
      "Ġbuying": 6929,
      "uke": 6930,
      "Ġcalling": 6931,
      "Ġprotesters": 6932,
      "ĠUnited": 6933,
      "Ġcharged": 6934,
      "Ġmarry": 6935,
      "minton": 6936,
      "hika": 6937,
      "Ġwriter": 6938,
      "Ġprofession": 6939,
      "Ġapathy": 6940,
      "Ġtwice": 6941,
      "ĠKalam": 6942,
      "Farmer": 6943,
      "Ġresponsible": 6944,
      "Ġcolours": 6945,
      "Leopard": 6946,
      "Ġcontractor": 6947,
      "aptain": 6948,
      "ĠIAF": 6949,
      "Ġjournal": 6950,
      "Ġtrigger": 6951,
      "Build": 6952,
      "Charges": 6953,
      "Ġnegligence": 6954,
      "ĠChampionship": 6955,
      "ĠAmarinder": 6956,
      "Ġconstitu": 6957,
      "Ġlanguage": 6958,
      "IEW": 6959,
      "Ġtotal": 6960,
      "ĠSawant": 6961,
      "iruvan": 6962,
      "Ġoccup": 6963,
      "Ġdivorce": 6964,
      "known": 6965,
      "'?": 6966,
      "Facebook": 6967,
      "Lack": 6968,
      "Nine": 6969,
      "auc": 6970,
      "gment": 6971,
      "iences": 6972,
      "ought": 6973,
      "phan": 6974,
      "power": 6975,
      "wani": 6976,
      "wada": 6977,
      "inikanth": 6978,
      "Ġtemp": 6979,
      "aring": 6980,
      "atia": 6981,
      "Ġpond": 6982,
      "Ġdhar": 6983,
      "Ġdose": 6984,
      "Ġmist": 6985,
      "Ġmixed": 6986,
      "asy": 6987,
      "etan": 6988,
      "Ġlashes": 6989,
      "Ġlyn": 6990,
      "ayana": 6991,
      "entine": 6992,
      "ĠCO": 6993,
      "ĠMiss": 6994,
      "ĠBah": 6995,
      "ĠPaul": 6996,
      "ĠRagh": 6997,
      "ĠKatrina": 6998,
      "ules": 6999,
      "oph": 7000,
      "ĠDiv": 7001,
      "ĠNRI": 7002,
      "ĠTown": 7003,
      "ĠGirl": 7004,
      "Ġproduce": 7005,
      "ources": 7006,
      "eart": 7007,
      "ĠJal": 7008,
      "ĠFM": 7009,
      "iked": 7010,
      "ĠChat": 7011,
      "Ġleast": 7012,
      "ankar": 7013,
      "perty": 7014,
      "Ġblocks": 7015,
      "Ġ43": 7016,
      "hern": 7017,
      "ĠPrakash": 7018,
      "armer": 7019,
      "Ġprev": 7020,
      "Anna": 7021,
      "Ġvision": 7022,
      "Shr": 7023,
      "Ġposition": 7024,
      "Ġfacts": 7025,
      "Ġpassenger": 7026,
      "egg": 7027,
      "ĠThree": 7028,
      "Ġconsider": 7029,
      "Ġcelebration": 7030,
      "ĠMayawati": 7031,
      "onomy": 7032,
      "Ġreviews": 7033,
      "Ġkidnapping": 7034,
      "Ġdupes": 7035,
      "Crimin": 7036,
      "ĠVidarbha": 7037,
      "ieties": 7038,
      "ĠPaduk": 7039,
      "Ġmultip": 7040,
      "Ġmandatory": 7041,
      "ĠMehta": 7042,
      "Traders": 7043,
      "Accused": 7044,
      "Ġbooths": 7045,
      "Ġrumours": 7046,
      "Ġtrafficking": 7047,
      "Bal": 7048,
      "Bro": 7049,
      "Fish": 7050,
      "Ghaziabad": 7051,
      "Med": 7052,
      "Microsoft": 7053,
      "Nav": 7054,
      "Po": 7055,
      "Rob": 7056,
      "Readers": 7057,
      "TMC": 7058,
      "Video": 7059,
      "gin": 7060,
      "ias": 7061,
      "ned": 7062,
      "rets": 7063,
      "Ġaides": 7064,
      "Ġranks": 7065,
      "Ġlays": 7066,
      "Ġlying": 7067,
      "Ġlapt": 7068,
      "Ġlibr": 7069,
      "Ġgifts": 7070,
      "ĠSSC": 7071,
      "ĠMD": 7072,
      "ĠMG": 7073,
      "ĠMas": 7074,
      "andeep": 7075,
      "igin": 7076,
      "ĠAkshay": 7077,
      "ĠAurangabad": 7078,
      "ĠBedi": 7079,
      "ĠKamal": 7080,
      "imited": 7081,
      "apy": 7082,
      "istle": 7083,
      "Ġexec": 7084,
      "ĠUk": 7085,
      "ĠLad": 7086,
      "Ġwors": 7087,
      "ĠVizag": 7088,
      "ĠChow": 7089,
      "Ġtrue": 7090,
      "Ġresigns": 7091,
      "Ġoutbreak": 7092,
      "Ġclim": 7093,
      "Ġunite": 7094,
      "Ġflow": 7095,
      "Ġquake": 7096,
      "Ġquick": 7097,
      "eves": 7098,
      "actor": 7099,
      "Third": 7100,
      "Ġfinish": 7101,
      "Ġhelping": 7102,
      "Ġcarry": 7103,
      "Ġregistr": 7104,
      "Ġfarming": 7105,
      "Ġcelebs": 7106,
      "ĠThursday": 7107,
      "Ġjailed": 7108,
      "CCTV": 7109,
      "Arjun": 7110,
      "Ġsexually": 7111,
      "Ġflyers": 7112,
      "Ġrespite": 7113,
      "NGT": 7114,
      "Enc": 7115,
      "Ġtwin": 7116,
      "Ġdiabetes": 7117,
      "Ġsignals": 7118,
      "Ġcloser": 7119,
      "Ġpushes": 7120,
      "Small": 7121,
      "ĠStudents": 7122,
      "Ġpresence": 7123,
      "laws": 7124,
      "Ġdumping": 7125,
      "aswan": 7126,
      "Ġperforms": 7127,
      "Ġinaugurates": 7128,
      "Ġconsumers": 7129,
      "Hindu": 7130,
      "Ġlodged": 7131,
      "Ġcameras": 7132,
      "Ġsurrender": 7133,
      "Ġmaintain": 7134,
      "Ġapplications": 7135,
      "ĠValley": 7136,
      "District": 7137,
      "Ġprepare": 7138,
      "ĠJaitley": 7139,
      "Ġfelicit": 7140,
      "ĠPadukone": 7141,
      "Cricket": 7142,
      "Deb": 7143,
      "Deepika": 7144,
      "Father": 7145,
      "HE": 7146,
      "Head": 7147,
      "Karan": 7148,
      "Low": 7149,
      "Mo": 7150,
      "Mot": 7151,
      "Mass": 7152,
      "VC": 7153,
      "VIP": 7154,
      "dr": 7155,
      "iro": 7156,
      "iest": 7157,
      "want": 7158,
      "wari": 7159,
      "zen": 7160,
      "Ġuses": 7161,
      "erate": 7162,
      "Ġsick": 7163,
      "Ġbased": 7164,
      "Ġradar": 7165,
      "Ġmall": 7166,
      "Ġmakers": 7167,
      "Ġhoard": 7168,
      "icon": 7169,
      "asion": 7170,
      "ayed": 7171,
      "enty": 7172,
      "ĠCS": 7173,
      "ĠMela": 7174,
      "ĠAut": 7175,
      "ĠAadhaar": 7176,
      "ĠPMC": 7177,
      "ĠRI": 7178,
      "ĠKish": 7179,
      "ĠId": 7180,
      "ĠDw": 7181,
      "ĠDravid": 7182,
      "abl": 7183,
      "ĠNavi": 7184,
      "ĠNavy": 7185,
      "Ġthefts": 7186,
      "ĠGopal": 7187,
      "Ġprob": 7188,
      "Ġproc": 7189,
      "ifty": 7190,
      "ĠLankan": 7191,
      "ĠVihar": 7192,
      "outhern": 7193,
      "Ġtrend": 7194,
      "Ġ38": 7195,
      "ĠOsc": 7196,
      "Ġscen": 7197,
      "Ġflays": 7198,
      "Ġcommand": 7199,
      "Ġappeals": 7200,
      "Ġassures": 7201,
      "Ġboards": 7202,
      "anced": 7203,
      "Ġpeak": 7204,
      "Ġtried": 7205,
      "Ġpositivity": 7206,
      "Ġwinner": 7207,
      "ĠAnt": 7208,
      "Ġplane": 7209,
      "Ġsuspension": 7210,
      "Ġfeet": 7211,
      "exico": 7212,
      "Ġserved": 7213,
      "Ġentert": 7214,
      "eena": 7215,
      "Ġcentury": 7216,
      "Ġgolden": 7217,
      "Ġrestric": 7218,
      "Train": 7219,
      "Ġthriller": 7220,
      "NGO": 7221,
      "anthapuram": 7222,
      "Team": 7223,
      "Ġoffered": 7224,
      "yanmar": 7225,
      "Ġbeliev": 7226,
      "Ġpilots": 7227,
      "RSS": 7228,
      "ĠBlack": 7229,
      "Ġvarsities": 7230,
      "Ġproposed": 7231,
      "Ġinstitutes": 7232,
      "Shahid": 7233,
      "Ġfavourite": 7234,
      "Ġangry": 7235,
      "Celebr": 7236,
      "Ġidols": 7237,
      "Ġcamera": 7238,
      "Ġearnings": 7239,
      "Ġinspired": 7240,
      "Ġtournament": 7241,
      "ĠVikas": 7242,
      "Ġavailable": 7243,
      "Ġpedest": 7244,
      "ichael": 7245,
      "Coll": 7246,
      "Dengue": 7247,
      "IG": 7248,
      "John": 7249,
      "Keep": 7250,
      "Madh": 7251,
      "Per": 7252,
      "SBI": 7253,
      "Samsung": 7254,
      "UN": 7255,
      "aults": 7256,
      "boy": 7257,
      "iece": 7258,
      "mare": 7259,
      "mukh": 7260,
      "Ġtale": 7261,
      "Ġsops": 7262,
      "Ġfre": 7263,
      "Ġfiscal": 7264,
      "Ġcries": 7265,
      "Ġporn": 7266,
      "itin": 7267,
      "urers": 7268,
      "Ġwalks": 7269,
      "Ġhails": 7270,
      "Ġforum": 7271,
      "Ġlunch": 7272,
      "Ġgender": 7273,
      "ĠMr": 7274,
      "ĠMu": 7275,
      "Ġthief": 7276,
      "rey": 7277,
      "real": 7278,
      "ĠKat": 7279,
      "ĠNa": 7280,
      "Ġacting": 7281,
      "Ġagents": 7282,
      "ĠLG": 7283,
      "ooch": 7284,
      "elligence": 7285,
      "efin": 7286,
      "Ġuncertain": 7287,
      "Strik": 7288,
      "Ġscrap": 7289,
      "Ġquashes": 7290,
      "Ġord": 7291,
      "ĠYork": 7292,
      "International": 7293,
      "ervice": 7294,
      "Ġsurf": 7295,
      "llab": 7296,
      "azz": 7297,
      "ords": 7298,
      "Ġremember": 7299,
      "ĠBhai": 7300,
      "ancies": 7301,
      "Ġpanels": 7302,
      "Ġactors": 7303,
      "Short": 7304,
      "Ġposing": 7305,
      "Ġinvolved": 7306,
      "News": 7307,
      "alking": 7308,
      "Ġswitch": 7309,
      "Ġincident": 7310,
      "Amar": 7311,
      "Ġadditional": 7312,
      "Ġconfl": 7313,
      "Ġsalaries": 7314,
      "Ġshifts": 7315,
      "ĠMalays": 7316,
      "uthor": 7317,
      "Ġthrash": 7318,
      "Ġsentence": 7319,
      "Drunk": 7320,
      "ĠSpecial": 7321,
      "ĠAllahabad": 7322,
      "Ġlinked": 7323,
      "ĠForce": 7324,
      "Ġmeters": 7325,
      "Ġidentify": 7326,
      "Ġrenew": 7327,
      "Mayor": 7328,
      "Ġsettle": 7329,
      "Kanpur": 7330,
      "Ġsubsidy": 7331,
      "inamool": 7332,
      "Ġambulance": 7333,
      "Ġcustomers": 7334,
      "iruvananthapuram": 7335,
      "28": 7336,
      "Bill": 7337,
      "Clean": 7338,
      "Dal": 7339,
      "Fir": 7340,
      "Sk": 7341,
      "Some": 7342,
      "TU": 7343,
      "TDP": 7344,
      "do": 7345,
      "field": 7346,
      "mila": 7347,
      "Ġut": 7348,
      "Ġtender": 7349,
      "anidhi": 7350,
      "Ġsons": 7351,
      "oration": 7352,
      "Ġpurs": 7353,
      "Ġops": 7354,
      "Ġmatter": 7355,
      "Ġmental": 7356,
      "Ġmercury": 7357,
      "Ġhers": 7358,
      "ĠSch": 7359,
      "ĠMy": 7360,
      "ĠMore": 7361,
      "ĠMeg": 7362,
      "ĠRaw": 7363,
      "oster": 7364,
      "uli": 7365,
      "Ġeg": 7366,
      "ĠTaj": 7367,
      "Ġvandal": 7368,
      "ĠGowda": 7369,
      "rief": 7370,
      "Ġpros": 7371,
      "eeper": 7372,
      "Ġjoy": 7373,
      "Ġchill": 7374,
      "Ġacres": 7375,
      "Ġcrimes": 7376,
      "ĠFour": 7377,
      "Ġspree": 7378,
      "ĠChak": 7379,
      "ubanes": 7380,
      "obby": 7381,
      "Ġclashes": 7382,
      "ĠOffic": 7383,
      "awood": 7384,
      "Stop": 7385,
      "Ġmeat": 7386,
      "Ġflak": 7387,
      "Ġ41": 7388,
      "Ġmini": 7389,
      "ooter": 7390,
      "icken": 7391,
      "attar": 7392,
      "Ġdemon": 7393,
      "ordable": 7394,
      "Ġinfections": 7395,
      "Ġglory": 7396,
      "Ġviolating": 7397,
      "Ġbroad": 7398,
      "posed": 7399,
      "Ġleadership": 7400,
      "Ġshutdown": 7401,
      "isonment": 7402,
      "ĠAssembly": 7403,
      "ifficult": 7404,
      "addha": 7405,
      "ratri": 7406,
      "Ġescapes": 7407,
      "PCMC": 7408,
      "ĠMCD": 7409,
      "Ġtower": 7410,
      "Ġtemples": 7411,
      "Ġobserve": 7412,
      "SRK": 7413,
      "ĠSrinagar": 7414,
      "DCL": 7415,
      "Ġturf": 7416,
      "Ġencroachment": 7417,
      "Ġsanct": 7418,
      "Ġhonoured": 7419,
      "imple": 7420,
      "ĠAmbani": 7421,
      "Dhoni": 7422,
      "Cycl": 7423,
      "Ġtextile": 7424,
      "ĠMysore": 7425,
      "alcutta": 7426,
      "Ġupgrade": 7427,
      "Ġinformation": 7428,
      "Ġbalance": 7429,
      "Ġenvoy": 7430,
      "Ġastrological": 7431,
      "Ġelectrocuted": 7432,
      "ĠRoshan": 7433,
      "ubaneswar": 7434,
      "AE": 7435,
      "Ap": 7436,
      "Best": 7437,
      "Banks": 7438,
      "Horoscope": 7439,
      "Job": 7440,
      "Kat": 7441,
      "Kolhapur": 7442,
      "Long": 7443,
      "Ms": 7444,
      "Muk": 7445,
      "OP": 7446,
      "Of": 7447,
      "Su": 7448,
      "Sebi": 7449,
      "Week": 7450,
      "aar": 7451,
      "girl": 7452,
      "keep": 7453,
      "wala": 7454,
      "wheel": 7455,
      "xic": 7456,
      "Ġtechie": 7457,
      "Ġber": 7458,
      "Ġrig": 7459,
      "Ġrans": 7460,
      "Ġmax": 7461,
      "Ġmaf": 7462,
      "Ġminds": 7463,
      "Ġmoots": 7464,
      "Ġwet": 7465,
      "Ġwards": 7466,
      "Ġhaving": 7467,
      "icides": 7468,
      "Ġgal": 7469,
      "Ġgather": 7470,
      "Ġgolf": 7471,
      "ĠSind": 7472,
      "irement": 7473,
      "Ġstick": 7474,
      "akti": 7475,
      "ĠAward": 7476,
      "ĠBagh": 7477,
      "upur": 7478,
      "Ġeat": 7479,
      "Ġreally": 7480,
      "Ġconference": 7481,
      "ĠJagan": 7482,
      "Ġagri": 7483,
      "ĠIndust": 7484,
      "Ġspeak": 7485,
      "ĠWC": 7486,
      "ishad": 7487,
      "Ġ39": 7488,
      "Ġclin": 7489,
      "umble": 7490,
      "Ġunions": 7491,
      "Ġunique": 7492,
      "arka": 7493,
      "Ġwhich": 7494,
      "areilly": 7495,
      "Ġcontempt": 7496,
      "Ġamend": 7497,
      "Ġassociation": 7498,
      "Ġmedals": 7499,
      "Ġguest": 7500,
      "Ġsyllab": 7501,
      "angaluru": 7502,
      "Ġbabies": 7503,
      "Ġsupporters": 7504,
      "Ġconvict": 7505,
      "Ġconvocation": 7506,
      "aviour": 7507,
      "Ġdivided": 7508,
      "ĠSalem": 7509,
      "Ġacquire": 7510,
      "ronic": 7511,
      "Plan": 7512,
      "Ġeveryone": 7513,
      "ĠFIRs": 7514,
      "Ġshopping": 7515,
      "Ġroutes": 7516,
      "Crime": 7517,
      "ĠLokpal": 7518,
      "Ġpromotion": 7519,
      "rawl": 7520,
      "Ġfields": 7521,
      "Ġpopulation": 7522,
      "Ġconsumer": 7523,
      "Ġidea": 7524,
      "ĠSAD": 7525,
      "ĠBSF": 7526,
      "Ġjawans": 7527,
      "Ġmulti": 7528,
      "Demand": 7529,
      "legally": 7530,
      "Ġokays": 7531,
      "British": 7532,
      "Ġnomination": 7533,
      "Ġherself": 7534,
      "55": 7535,
      "Cust": 7536,
      "Case": 7537,
      "DMC": 7538,
      "Disc": 7539,
      "Have": 7540,
      "Katrina": 7541,
      "Meg": 7542,
      "Nepal": 7543,
      "Public": 7544,
      "Pvt": 7545,
      "Rep": 7546,
      "SRTC": 7547,
      "Wipro": 7548,
      "bum": 7549,
      "iod": 7550,
      "look": 7551,
      "polit": 7552,
      "sha": 7553,
      "vil": 7554,
      "Ġsed": 7555,
      "onal": 7556,
      "Ġfell": 7557,
      "Ġcensus": 7558,
      "Ġboot": 7559,
      "Ġdates": 7560,
      "Ġragging": 7561,
      "Ġma": 7562,
      "Ġmn": 7563,
      "Ġmull": 7564,
      "ĠSoc": 7565,
      "acity": 7566,
      "erse": 7567,
      "ĠCap": 7568,
      "ĠCabinet": 7569,
      "ĠMer": 7570,
      "ĠMed": 7571,
      "ĠART": 7572,
      "ĠAcc": 7573,
      "ĠBy": 7574,
      "ĠBrazil": 7575,
      "ready": 7576,
      "ĠPur": 7577,
      "ĠPay": 7578,
      "rag": 7579,
      "rage": 7580,
      "osure": 7581,
      "ĠKareena": 7582,
      "hieves": 7583,
      "umer": 7584,
      "Ġreason": 7585,
      "ĠHot": 7586,
      "ĠHub": 7587,
      "ifth": 7588,
      "ĠJEE": 7589,
      "Ġagent": 7590,
      "ĠFrom": 7591,
      "ĠVan": 7592,
      "ooze": 7593,
      "Ġspin": 7594,
      "Ġseizes": 7595,
      "Ġoutput": 7596,
      "Ġstudies": 7597,
      "Ġtrav": 7598,
      "Ġminute": 7599,
      "Ġquizz": 7600,
      "Check": 7601,
      "Invest": 7602,
      "arnath": 7603,
      "ĠShr": 7604,
      "Ġsuppl": 7605,
      "Anil": 7606,
      "Ġdeficit": 7607,
      "Ġdeleg": 7608,
      "ĠArt": 7609,
      "Ġfalling": 7610,
      "Ġmisses": 7611,
      "Ġmovies": 7612,
      "Amid": 7613,
      "Ġcurfew": 7614,
      "Ġsocieties": 7615,
      "ĠPunjabi": 7616,
      "iwari": 7617,
      "NGC": 7618,
      "Ġsignal": 7619,
      "ĠRTE": 7620,
      "Ġincreases": 7621,
      "Ġcoaching": 7622,
      "Girls": 7623,
      "Ġlifts": 7624,
      "Ġsilent": 7625,
      "Ġidentity": 7626,
      "Ġburnt": 7627,
      "Ġmemory": 7628,
      "Ġconcerns": 7629,
      "ĠBaba": 7630,
      "Ġstabs": 7631,
      "Ġimmig": 7632,
      "Ġphoto": 7633,
      "halaya": 7634,
      "Ġcorporator": 7635,
      "ĠBigg": 7636,
      "ĠPandey": 7637,
      "Ġvalue": 7638,
      "Ġdisrupts": 7639,
      "Ġmaintenance": 7640,
      "Ġprediction": 7641,
      "Ġpotential": 7642,
      "ĠSEZ": 7643,
      "ĠGermany": 7644,
      "ĠSidhu": 7645,
      "ĠKumbh": 7646,
      "Ġsymb": 7647,
      "ĠChandrase": 7648,
      "Ġuniversities": 7649,
      "Readerspeak": 7650,
      "36": 7651,
      "99": 7652,
      "Bet": 7653,
      "Eye": 7654,
      "Few": 7655,
      "Hy": 7656,
      "LS": 7657,
      "Live": 7658,
      "Mother": 7659,
      "NRI": 7660,
      "can": 7661,
      "gress": 7662,
      "iot": 7663,
      "rits": 7664,
      "wealth": 7665,
      "inary": 7666,
      "Ġsizz": 7667,
      "Ġsisters": 7668,
      "Ġpose": 7669,
      "Ġpedd": 7670,
      "Ġpaddy": 7671,
      "Ġdedic": 7672,
      "askar": 7673,
      "olve": 7674,
      "ecr": 7675,
      "ĠSu": 7676,
      "ĠShi": 7677,
      "acts": 7678,
      "ĠMulayam": 7679,
      "ivities": 7680,
      "ovind": 7681,
      "agiri": 7682,
      "iment": 7683,
      "ava": 7684,
      "hary": 7685,
      "ifer": 7686,
      "undr": 7687,
      "ĠJet": 7688,
      "ĠJodhpur": 7689,
      "Ġjuven": 7690,
      "Ġexemp": 7691,
      "ĠUnd": 7692,
      "Ġisn": 7693,
      "ĠLax": 7694,
      "ĠLib": 7695,
      "ĠIndies": 7696,
      "ĠFeder": 7697,
      "ĠChurch": 7698,
      "ĠEm": 7699,
      "ueen": 7700,
      "Ġunif": 7701,
      "Ġads": 7702,
      "Ġanimal": 7703,
      "Ġque": 7704,
      "Indo": 7705,
      "Ġwhistle": 7706,
      "Ġcontrib": 7707,
      "arma": 7708,
      "Ġhighways": 7709,
      "ĠYour": 7710,
      "Ġdoors": 7711,
      "Ġheroin": 7712,
      "atta": 7713,
      "ĠBhavan": 7714,
      "ancell": 7715,
      "Ġpermission": 7716,
      "umph": 7717,
      "Ġparade": 7718,
      "Ġitself": 7719,
      "Ġtransplant": 7720,
      "Ġbuilders": 7721,
      "Ġsharing": 7722,
      "Ġneta": 7723,
      "ĠRamdev": 7724,
      "ĠExpert": 7725,
      "Ġterrorism": 7726,
      "Ġconvicts": 7727,
      "Allahabad": 7728,
      "Ġ2009": 7729,
      "Ġcabb": 7730,
      "Ġirrigation": 7731,
      "Ġcancel": 7732,
      "Ġharassing": 7733,
      "Ġfactor": 7734,
      "Maruti": 7735,
      "Second": 7736,
      "Ġtouches": 7737,
      "Ġmemorial": 7738,
      "Ġcrops": 7739,
      "Ġfollowing": 7740,
      "ĠElection": 7741,
      "Ġencroachments": 7742,
      "Ġsanctions": 7743,
      "Ġresolution": 7744,
      "Ġunsafe": 7745,
      "ĠSunil": 7746,
      "Ġgranted": 7747,
      "ĠAmerican": 7748,
      "ĠPanchkula": 7749,
      "Ġgrips": 7750,
      "eniors": 7751,
      "Ġpoliticians": 7752,
      "ĠBandra": 7753,
      "Ġmantra": 7754,
      "Ġhelpline": 7755,
      "Ġimprisonment": 7756,
      "regularities": 7757,
      "Ġentrepreneurs": 7758,
      "Ġdharna": 7759,
      "29": 7760,
      "Bik": 7761,
      "Cha": 7762,
      "Coun": 7763,
      "East": 7764,
      "Far": 7765,
      "ICC": 7766,
      "Jag": 7767,
      "Mem": 7768,
      "OI": 7769,
      "Robb": 7770,
      "Thieves": 7771,
      "Use": 7772,
      "cement": 7773,
      "has": 7774,
      "paid": 7775,
      "party": 7776,
      "Ġtaste": 7777,
      "Ġsells": 7778,
      "oning": 7779,
      "Ġfault": 7780,
      "Ġferry": 7781,
      "Ġcable": 7782,
      "itis": 7783,
      "Ġbeds": 7784,
      "isa": 7785,
      "Ġrati": 7786,
      "Ġmock": 7787,
      "urg": 7788,
      "urappa": 7789,
      "Ġhall": 7790,
      "Ġluxury": 7791,
      "aded": 7792,
      "ademy": 7793,
      "amation": 7794,
      "ushi": 7795,
      "ĠSil": 7796,
      "ĠSiv": 7797,
      "ĠSim": 7798,
      "uture": 7799,
      "ĠMA": 7800,
      "ĠMe": 7801,
      "ĠMuzaff": 7802,
      "ĠBij": 7803,
      "ĠPe": 7804,
      "ĠPSU": 7805,
      "ĠDef": 7806,
      "ĠGood": 7807,
      "ĠGrand": 7808,
      "ript": 7809,
      "avati": 7810,
      "ĠHe": 7811,
      "ĠJohar": 7812,
      "antic": 7813,
      "Ġcho": 7814,
      "Ġchase": 7815,
      "porary": 7816,
      "qual": 7817,
      "ĠIndependence": 7818,
      "ache": 7819,
      "ĠChall": 7820,
      "ĠChild": 7821,
      "Ġleague": 7822,
      "Ġtrick": 7823,
      "ĠOK": 7824,
      "ĠOs": 7825,
      "Ġpred": 7826,
      "Ġprimary": 7827,
      "Str": 7828,
      "Ġscal": 7829,
      "ampur": 7830,
      "Ġblues": 7831,
      "ĠPrime": 7832,
      "rows": 7833,
      "ĠShinde": 7834,
      "Ġundergo": 7835,
      "Ġ72": 7836,
      "appan": 7837,
      "uki": 7838,
      "Ġtrials": 7839,
      "Ġretain": 7840,
      "Ġposes": 7841,
      "Ġcorner": 7842,
      "Ġinfection": 7843,
      "ariat": 7844,
      "Ġinterview": 7845,
      "Ġinjures": 7846,
      "Ġsmooth": 7847,
      "Ġstartup": 7848,
      "Ġbetting": 7849,
      "Ġtales": 7850,
      "ĠRamesh": 7851,
      "Ġinvestig": 7852,
      "Ġcheap": 7853,
      "ĠQu": 7854,
      "IAF": 7855,
      "itchen": 7856,
      "ĠSharad": 7857,
      "Ġthrong": 7858,
      "ĠWho": 7859,
      "Ġcrew": 7860,
      "Ġmoments": 7861,
      "Ġbench": 7862,
      "Conf": 7863,
      "Ġcitizenship": 7864,
      "Ġcolour": 7865,
      "Ġcrackdown": 7866,
      "andalwood": 7867,
      "Ġyoungsters": 7868,
      "Ġdirectors": 7869,
      "ĠNGOs": 7870,
      "iyar": 7871,
      "Super": 7872,
      "Ġexpressway": 7873,
      "ĠInfosys": 7874,
      "inarayi": 7875,
      "Ġwildlife": 7876,
      "Political": 7877,
      "Ġtourney": 7878,
      "Ġsuggests": 7879,
      "ĠIrani": 7880,
      "ography": 7881,
      "Ġintensify": 7882,
      "Ġmasks": 7883,
      "Ġdefaulters": 7884,
      "ĠThakur": 7885,
      "ritsar": 7886,
      "undreds": 7887,
      "37": 7888,
      "38": 7889,
      "800": 7890,
      "King": 7891,
      "Mor": 7892,
      "Nurs": 7893,
      "OM": 7894,
      "OU": 7895,
      "Off": 7896,
      "Vish": 7897,
      "gate": 7898,
      "hing": 7899,
      "lu": 7900,
      "sm": 7901,
      "wah": 7902,
      "Ġtension": 7903,
      "Ġsail": 7904,
      "Ġsaid": 7905,
      "Ġsaved": 7906,
      "arian": 7907,
      "Ġfaster": 7908,
      "Ġbrief": 7909,
      "isf": 7910,
      "Ġroyal": 7911,
      "Ġradio": 7912,
      "Ġload": 7913,
      "ayats": 7914,
      "Ġgym": 7915,
      "ĠSet": 7916,
      "ĠSant": 7917,
      "ĠSha": 7918,
      "idi": 7919,
      "ĠMain": 7920,
      "Ġthought": 7921,
      "ĠPGI": 7922,
      "ĠReal": 7923,
      "ĠRJD": 7924,
      "emma": 7925,
      "ovel": 7926,
      "agement": 7927,
      "ĠTDP": 7928,
      "Ġvalu": 7929,
      "ĠGir": 7930,
      "Ġbeating": 7931,
      "ocates": 7932,
      "ucture": 7933,
      "ĠFed": 7934,
      "ĠFern": 7935,
      "ĠFirst": 7936,
      "Ġcomment": 7937,
      "inees": 7938,
      "ighting": 7939,
      "ishra": 7940,
      "umbo": 7941,
      "Ġkillers": 7942,
      "Ġmanifest": 7943,
      "Ġhighlights": 7944,
      "Manipur": 7945,
      "Ġlakhs": 7946,
      "Ġcomments": 7947,
      "ehwag": 7948,
      "Ġprefer": 7949,
      "ĠPakistani": 7950,
      "ĠAng": 7951,
      "ĠInst": 7952,
      "Ġfacing": 7953,
      "Ġsweep": 7954,
      "Ġguv": 7955,
      "Ġfestivities": 7956,
      "Ġvacation": 7957,
      "Ġillegally": 7958,
      "ICI": 7959,
      "Ġserial": 7960,
      "Ġlabs": 7961,
      "Ġtreated": 7962,
      "Ġshuts": 7963,
      "ueless": 7964,
      "Ġbelt": 7965,
      "Play": 7966,
      "ĠSwachh": 7967,
      "ĠAirport": 7968,
      "Ġblackmail": 7969,
      "Ġlegacy": 7970,
      "ĠAbhi": 7971,
      "Ġinspector": 7972,
      "Ġmolested": 7973,
      "force": 7974,
      "Ġraided": 7975,
      "Ġtanker": 7976,
      "Ġsanction": 7977,
      "Lawyers": 7978,
      "echies": 7979,
      "Ġreadies": 7980,
      "Celebs": 7981,
      "Ġtoilet": 7982,
      "Ġadopt": 7983,
      "Ġgriev": 7984,
      "ĠGanguly": 7985,
      "Ġvolunt": 7986,
      "ĠBasu": 7987,
      "Mohali": 7988,
      "Ġpunish": 7989,
      "Chhattisgarh": 7990,
      "Ġtorture": 7991,
      "Ġsarpanch": 7992,
      "Parties": 7993,
      "Ġdinner": 7994,
      "Ġhotsp": 7995,
      "Ġabandoned": 7996,
      "ĠRahman": 7997,
      "Ġcombat": 7998,
      "Ġcousin": 7999
    },
    "merges": [
      [
        "i",
        "n"
      ],
      [
        "Ġ",
        "t"
      ],
      [
        "e",
        "r"
      ],
      [
        "a",
        "n"
      ],
      [
        "e",
        "s"
      ],
      [
        "Ġ",
        "s"
      ],
      [
        "o",
        "n"
      ],
      [
        "o",
        "r"
      ],
      [
        "a",
        "r"
      ],
      [
        "Ġ",
        "f"
      ],
      [
        "a",
        "t"
      ],
      [
        "Ġ",
        "c"
      ],
      [
        "e",
        "n"
      ],
      [
        "a",
        "l"
      ],
      [
        "Ġt",
        "o"
      ],
      [
        "Ġ",
        "in"
      ],
      [
        "Ġ",
        "p"
      ],
      [
        "i",
        "t"
      ],
      [
        "Ġ",
        "b"
      ],
      [
        "e",
        "d"
      ],
      [
        "Ġ",
        "a"
      ],
      [
        "Ġ",
        "d"
      ],
      [
        "i",
        "s"
      ],
      [
        "Ġ",
        "r"
      ],
      [
        "Ġ",
        "o"
      ],
      [
        "Ġ",
        "m"
      ],
      [
        "u",
        "r"
      ],
      [
        "Ġ",
        "w"
      ],
      [
        "in",
        "g"
      ],
      [
        "Ġ",
        "h"
      ],
      [
        "i",
        "l"
      ],
      [
        "e",
        "l"
      ],
      [
        "i",
        "c"
      ],
      [
        "a",
        "s"
      ],
      [
        "Ġf",
        "or"
      ],
      [
        "e",
        "t"
      ],
      [
        "o",
        "l"
      ],
      [
        "Ġ",
        "l"
      ],
      [
        "r",
        "o"
      ],
      [
        "a",
        "y"
      ],
      [
        "i",
        "on"
      ],
      [
        "Ġ",
        "g"
      ],
      [
        "a",
        "d"
      ],
      [
        "Ġo",
        "f"
      ],
      [
        "u",
        "n"
      ],
      [
        "a",
        "m"
      ],
      [
        "u",
        "s"
      ],
      [
        "en",
        "t"
      ],
      [
        "e",
        "c"
      ],
      [
        "Ġ",
        "S"
      ],
      [
        "a",
        "c"
      ],
      [
        "er",
        "s"
      ],
      [
        "i",
        "d"
      ],
      [
        "Ġ",
        "on"
      ],
      [
        "u",
        "t"
      ],
      [
        "Ġ",
        "C"
      ],
      [
        "i",
        "r"
      ],
      [
        "Ġ",
        "n"
      ],
      [
        "Ġ",
        "M"
      ],
      [
        "Ġs",
        "t"
      ],
      [
        "'",
        "s"
      ],
      [
        "an",
        "d"
      ],
      [
        "o",
        "m"
      ],
      [
        "o",
        "t"
      ],
      [
        "Ġt",
        "h"
      ],
      [
        "a",
        "k"
      ],
      [
        "l",
        "e"
      ],
      [
        "i",
        "v"
      ],
      [
        "i",
        "g"
      ],
      [
        "Ġ",
        "A"
      ],
      [
        "Ġ",
        "B"
      ],
      [
        "r",
        "e"
      ],
      [
        "Ġ",
        "P"
      ],
      [
        "Ġ",
        "R"
      ],
      [
        "r",
        "a"
      ],
      [
        "o",
        "s"
      ],
      [
        "es",
        "t"
      ],
      [
        "o",
        "w"
      ],
      [
        "e",
        "m"
      ],
      [
        "c",
        "h"
      ],
      [
        "o",
        "v"
      ],
      [
        "t",
        "s"
      ],
      [
        "u",
        "p"
      ],
      [
        "il",
        "l"
      ],
      [
        "Ġ",
        "K"
      ],
      [
        "t",
        "er"
      ],
      [
        "u",
        "l"
      ],
      [
        "a",
        "g"
      ],
      [
        "o",
        "p"
      ],
      [
        "Ġ",
        "at"
      ],
      [
        "Ġ",
        "I"
      ],
      [
        "i",
        "m"
      ],
      [
        "Ġ",
        "e"
      ],
      [
        "at",
        "ion"
      ],
      [
        "Ġ",
        "D"
      ],
      [
        "a",
        "b"
      ],
      [
        "o",
        "d"
      ],
      [
        "Ġ",
        "N"
      ],
      [
        "h",
        "i"
      ],
      [
        "u",
        "m"
      ],
      [
        "Ġ",
        "T"
      ],
      [
        "Ġth",
        "e"
      ],
      [
        "Ġ",
        "v"
      ],
      [
        "al",
        "l"
      ],
      [
        "a",
        "in"
      ],
      [
        "a",
        "p"
      ],
      [
        "Ġr",
        "e"
      ],
      [
        "t",
        "h"
      ],
      [
        "Ġ",
        "G"
      ],
      [
        "r",
        "i"
      ],
      [
        "it",
        "h"
      ],
      [
        "Ġ",
        "1"
      ],
      [
        "s",
        "t"
      ],
      [
        "Ġp",
        "ro"
      ],
      [
        "n",
        "d"
      ],
      [
        "Ġ",
        "2"
      ],
      [
        "o",
        "ur"
      ],
      [
        "e",
        "ar"
      ],
      [
        "u",
        "d"
      ],
      [
        "es",
        "s"
      ],
      [
        "Ġd",
        "e"
      ],
      [
        "Ġb",
        "e"
      ],
      [
        "it",
        "y"
      ],
      [
        "Ġ",
        "k"
      ],
      [
        "a",
        "v"
      ],
      [
        "Ġ",
        "H"
      ],
      [
        "h",
        "ar"
      ],
      [
        "ig",
        "h"
      ],
      [
        "at",
        "e"
      ],
      [
        "i",
        "a"
      ],
      [
        "k",
        "s"
      ],
      [
        "Ġw",
        "ith"
      ],
      [
        "ec",
        "t"
      ],
      [
        "Ġ",
        "'"
      ],
      [
        "Ġa",
        "s"
      ],
      [
        "e",
        "e"
      ],
      [
        "or",
        "e"
      ],
      [
        "o",
        "c"
      ],
      [
        "en",
        "d"
      ],
      [
        "i",
        "es"
      ],
      [
        "e",
        "w"
      ],
      [
        "v",
        "er"
      ],
      [
        "c",
        "e"
      ],
      [
        "ro",
        "m"
      ],
      [
        "i",
        "f"
      ],
      [
        "is",
        "t"
      ],
      [
        "un",
        "d"
      ],
      [
        "Ġ",
        "y"
      ],
      [
        "an",
        "g"
      ],
      [
        "Ġf",
        "rom"
      ],
      [
        "Ġc",
        "on"
      ],
      [
        "Ġ",
        "J"
      ],
      [
        "ay",
        "s"
      ],
      [
        "ic",
        "e"
      ],
      [
        "Ġs",
        "h"
      ],
      [
        "a",
        "i"
      ],
      [
        "Ġ",
        "ar"
      ],
      [
        "ac",
        "k"
      ],
      [
        "l",
        "y"
      ],
      [
        "0",
        "0"
      ],
      [
        "Ġ",
        "j"
      ],
      [
        "Ġp",
        "l"
      ],
      [
        "u",
        "g"
      ],
      [
        "an",
        "t"
      ],
      [
        "Ġc",
        "h"
      ],
      [
        "Ġe",
        "x"
      ],
      [
        "iv",
        "e"
      ],
      [
        "Ġ",
        "U"
      ],
      [
        "Ġ",
        "up"
      ],
      [
        "ent",
        "s"
      ],
      [
        "Ġa",
        "c"
      ],
      [
        "Ġ",
        "is"
      ],
      [
        "Ġp",
        "ol"
      ],
      [
        "Ġa",
        "g"
      ],
      [
        "p",
        "or"
      ],
      [
        "Ġ",
        "L"
      ],
      [
        "at",
        "h"
      ],
      [
        "a",
        "il"
      ],
      [
        "u",
        "c"
      ],
      [
        "q",
        "u"
      ],
      [
        "Ġc",
        "as"
      ],
      [
        "Ġg",
        "et"
      ],
      [
        "Ġh",
        "el"
      ],
      [
        "on",
        "g"
      ],
      [
        "Ġ",
        "and"
      ],
      [
        "Ġc",
        "r"
      ],
      [
        "ar",
        "t"
      ],
      [
        "ĠI",
        "nd"
      ],
      [
        "Ġ",
        "F"
      ],
      [
        "Ġc",
        "om"
      ],
      [
        "an",
        "s"
      ],
      [
        "f",
        "f"
      ],
      [
        "h",
        "a"
      ],
      [
        "i",
        "k"
      ],
      [
        "ar",
        "d"
      ],
      [
        "Ġb",
        "y"
      ],
      [
        "Ġof",
        "f"
      ],
      [
        "Ġo",
        "ver"
      ],
      [
        "a",
        "j"
      ],
      [
        "as",
        "h"
      ],
      [
        "ol",
        "d"
      ],
      [
        "us",
        "t"
      ],
      [
        "m",
        "ent"
      ],
      [
        "ak",
        "e"
      ],
      [
        "Ġw",
        "or"
      ],
      [
        "Ġ",
        "V"
      ],
      [
        "ac",
        "h"
      ],
      [
        "d",
        "er"
      ],
      [
        "o",
        "o"
      ],
      [
        "Ġs",
        "p"
      ],
      [
        "o",
        "ut"
      ],
      [
        "in",
        "e"
      ],
      [
        "ĠC",
        "h"
      ],
      [
        "el",
        "l"
      ],
      [
        "as",
        "t"
      ],
      [
        "u",
        "b"
      ],
      [
        "Ġl",
        "e"
      ],
      [
        "Ġn",
        "ot"
      ],
      [
        "igh",
        "t"
      ],
      [
        "Ġt",
        "r"
      ],
      [
        "Ġag",
        "ain"
      ],
      [
        "Ġ",
        "W"
      ],
      [
        "i",
        "al"
      ],
      [
        "Ġs",
        "e"
      ],
      [
        "f",
        "ter"
      ],
      [
        "i",
        "p"
      ],
      [
        "ĠR",
        "s"
      ],
      [
        "ov",
        "t"
      ],
      [
        "it",
        "s"
      ],
      [
        "is",
        "h"
      ],
      [
        "en",
        "s"
      ],
      [
        "Ġr",
        "es"
      ],
      [
        "Ġ",
        "3"
      ],
      [
        "h",
        "e"
      ],
      [
        "o",
        "b"
      ],
      [
        "ag",
        "e"
      ],
      [
        "Ġ",
        "E"
      ],
      [
        "p",
        "l"
      ],
      [
        "g",
        "e"
      ],
      [
        "Ġo",
        "ut"
      ],
      [
        "os",
        "t"
      ],
      [
        "Ġhel",
        "d"
      ],
      [
        "Ġc",
        "l"
      ],
      [
        "r",
        "ess"
      ],
      [
        "o",
        "od"
      ],
      [
        "t",
        "ion"
      ],
      [
        "Ġ",
        "O"
      ],
      [
        "Ġa",
        "fter"
      ],
      [
        "in",
        "d"
      ],
      [
        "por",
        "t"
      ],
      [
        "Ġagain",
        "st"
      ],
      [
        "e",
        "f"
      ],
      [
        "id",
        "e"
      ],
      [
        "um",
        "b"
      ],
      [
        "ov",
        "er"
      ],
      [
        "Ġs",
        "ays"
      ],
      [
        "as",
        "s"
      ],
      [
        "h",
        "an"
      ],
      [
        "p",
        "p"
      ],
      [
        "i",
        "an"
      ],
      [
        "u",
        "e"
      ],
      [
        "o",
        "us"
      ],
      [
        "Ġn",
        "ew"
      ],
      [
        "op",
        "s"
      ],
      [
        "Ġf",
        "ir"
      ],
      [
        "i",
        "z"
      ],
      [
        "or",
        "s"
      ],
      [
        "Ġ",
        "un"
      ],
      [
        "a",
        "w"
      ],
      [
        "al",
        "s"
      ],
      [
        "es",
        "h"
      ],
      [
        "en",
        "g"
      ],
      [
        "n",
        "s"
      ],
      [
        "Ġk",
        "ill"
      ],
      [
        "el",
        "hi"
      ],
      [
        "Ġp",
        "r"
      ],
      [
        "S",
        "t"
      ],
      [
        "Ġc",
        "o"
      ],
      [
        "ĠInd",
        "ia"
      ],
      [
        "ur",
        "e"
      ],
      [
        "Ġm",
        "e"
      ],
      [
        "is",
        "s"
      ],
      [
        "o",
        "g"
      ],
      [
        "J",
        "P"
      ],
      [
        "d",
        "ay"
      ],
      [
        "ar",
        "y"
      ],
      [
        "Ġ2",
        "0"
      ],
      [
        "Ġs",
        "c"
      ],
      [
        "Ġst",
        "ud"
      ],
      [
        "av",
        "e"
      ],
      [
        "Ġd",
        "r"
      ],
      [
        "Ġf",
        "l"
      ],
      [
        "o",
        "y"
      ],
      [
        "Ġt",
        "ra"
      ],
      [
        "re",
        "e"
      ],
      [
        "ar",
        "k"
      ],
      [
        "Ġcas",
        "e"
      ],
      [
        "e",
        "y"
      ],
      [
        "o",
        "ol"
      ],
      [
        "a",
        "h"
      ],
      [
        "Ġ",
        "5"
      ],
      [
        "am",
        "p"
      ],
      [
        "an",
        "k"
      ],
      [
        "ac",
        "e"
      ],
      [
        "Ġm",
        "an"
      ],
      [
        "r",
        "y"
      ],
      [
        "ol",
        "l"
      ],
      [
        "o",
        "ad"
      ],
      [
        "Ġs",
        "ch"
      ],
      [
        "w",
        "o"
      ],
      [
        "oo",
        "k"
      ],
      [
        "Ġin",
        "t"
      ],
      [
        "p",
        "er"
      ],
      [
        "Ġa",
        "d"
      ],
      [
        "Ġb",
        "l"
      ],
      [
        "Ġ",
        "an"
      ],
      [
        "Ġ",
        "4"
      ],
      [
        "ug",
        "h"
      ],
      [
        "Ġar",
        "r"
      ],
      [
        "et",
        "s"
      ],
      [
        "Ġm",
        "in"
      ],
      [
        "Ġm",
        "ay"
      ],
      [
        "l",
        "d"
      ],
      [
        "if",
        "e"
      ],
      [
        "at",
        "er"
      ],
      [
        "Ġd",
        "is"
      ],
      [
        "r",
        "ic"
      ],
      [
        "Ġ",
        "qu"
      ],
      [
        "e",
        "p"
      ],
      [
        "Ġc",
        "an"
      ],
      [
        "o",
        "und"
      ],
      [
        "an",
        "a"
      ],
      [
        "Ġh",
        "e"
      ],
      [
        "Ġt",
        "e"
      ],
      [
        "I",
        "nd"
      ],
      [
        "en",
        "ce"
      ],
      [
        "h",
        "er"
      ],
      [
        "Ġw",
        "om"
      ],
      [
        "at",
        "es"
      ],
      [
        "Ġ",
        "or"
      ],
      [
        "Ġr",
        "ec"
      ],
      [
        "om",
        "e"
      ],
      [
        "Ġs",
        "ee"
      ],
      [
        "our",
        "t"
      ],
      [
        "Ġg",
        "ovt"
      ],
      [
        "Ġn",
        "e"
      ],
      [
        "in",
        "s"
      ],
      [
        "ab",
        "ad"
      ],
      [
        "e",
        "b"
      ],
      [
        "is",
        "e"
      ],
      [
        "ak",
        "h"
      ],
      [
        "umb",
        "ai"
      ],
      [
        "an",
        "ce"
      ],
      [
        "ion",
        "s"
      ],
      [
        "p",
        "ur"
      ],
      [
        "il",
        "d"
      ],
      [
        "ow",
        "n"
      ],
      [
        "e",
        "v"
      ],
      [
        "o",
        "ot"
      ],
      [
        "Ġg",
        "o"
      ],
      [
        "Ġw",
        "ill"
      ],
      [
        "Ġy",
        "ear"
      ],
      [
        "ar",
        "s"
      ],
      [
        "Ġarr",
        "est"
      ],
      [
        "Ġa",
        "b"
      ],
      [
        "Ġw",
        "h"
      ],
      [
        "Ġpol",
        "l"
      ],
      [
        "Ġwor",
        "k"
      ],
      [
        "Ġac",
        "c"
      ],
      [
        "Ġget",
        "s"
      ],
      [
        "Ġm",
        "ore"
      ],
      [
        "Ġat",
        "t"
      ],
      [
        "'",
        "t"
      ],
      [
        "or",
        "m"
      ],
      [
        "ar",
        "e"
      ],
      [
        "M",
        "C"
      ],
      [
        "ow",
        "er"
      ],
      [
        "Ġ",
        "all"
      ],
      [
        "oc",
        "k"
      ],
      [
        "Ġcon",
        "t"
      ],
      [
        "ir",
        "l"
      ],
      [
        "ig",
        "n"
      ],
      [
        "ĠP",
        "r"
      ],
      [
        "o",
        "on"
      ],
      [
        "v",
        "e"
      ],
      [
        "C",
        "h"
      ],
      [
        "ar",
        "m"
      ],
      [
        "g",
        "es"
      ],
      [
        "on",
        "e"
      ],
      [
        "ic",
        "k"
      ],
      [
        "Ġh",
        "igh"
      ],
      [
        "y",
        "a"
      ],
      [
        "Ġr",
        "el"
      ],
      [
        "ul",
        "t"
      ],
      [
        "am",
        "il"
      ],
      [
        "Ġ",
        "al"
      ],
      [
        "a",
        "x"
      ],
      [
        "Ġm",
        "on"
      ],
      [
        "w",
        "ay"
      ],
      [
        "u",
        "j"
      ],
      [
        "ro",
        "w"
      ],
      [
        "o",
        "un"
      ],
      [
        "Ġint",
        "o"
      ],
      [
        "ur",
        "n"
      ],
      [
        "p",
        "s"
      ],
      [
        "M",
        "an"
      ],
      [
        "Ġde",
        "ath"
      ],
      [
        "Ġf",
        "il"
      ],
      [
        "ĠD",
        "elhi"
      ],
      [
        "em",
        "b"
      ],
      [
        "Ġc",
        "ity"
      ],
      [
        "f",
        "t"
      ],
      [
        "Ġoff",
        "ic"
      ],
      [
        "at",
        "a"
      ],
      [
        "b",
        "e"
      ],
      [
        "N",
        "o"
      ],
      [
        "im",
        "e"
      ],
      [
        "ing",
        "s"
      ],
      [
        "an",
        "ts"
      ],
      [
        "Ġs",
        "et"
      ],
      [
        "Ġr",
        "oad"
      ],
      [
        "ov",
        "id"
      ],
      [
        "ic",
        "al"
      ],
      [
        "Ġar",
        "e"
      ],
      [
        "on",
        "d"
      ],
      [
        "Ġstud",
        "ents"
      ],
      [
        "it",
        "e"
      ],
      [
        "Ġsch",
        "ool"
      ],
      [
        "re",
        "at"
      ],
      [
        "o",
        "in"
      ],
      [
        "m",
        "an"
      ],
      [
        "iv",
        "ers"
      ],
      [
        "it",
        "ion"
      ],
      [
        "Ġ",
        "Y"
      ],
      [
        "ac",
        "t"
      ],
      [
        "on",
        "s"
      ],
      [
        "as",
        "e"
      ],
      [
        "Ġb",
        "us"
      ],
      [
        "I",
        "n"
      ],
      [
        "ar",
        "n"
      ],
      [
        "Ġpol",
        "ice"
      ],
      [
        "ĠC",
        "M"
      ],
      [
        "id",
        "ent"
      ],
      [
        "und",
        "er"
      ],
      [
        "ĠB",
        "JP"
      ],
      [
        "i",
        "e"
      ],
      [
        "o",
        "k"
      ],
      [
        "al",
        "a"
      ],
      [
        "Ġo",
        "p"
      ],
      [
        "Ġb",
        "r"
      ],
      [
        "Ġ20",
        "1"
      ],
      [
        "Ġ",
        "el"
      ],
      [
        "over",
        "n"
      ],
      [
        "Ġle",
        "ad"
      ],
      [
        "Ġl",
        "akh"
      ],
      [
        "ong",
        "ress"
      ],
      [
        "is",
        "ter"
      ],
      [
        "ĠH",
        "C"
      ],
      [
        "Ġp",
        "art"
      ],
      [
        "Ġs",
        "ec"
      ],
      [
        "ak",
        "es"
      ],
      [
        "ation",
        "s"
      ],
      [
        "er",
        "v"
      ],
      [
        "Ġa",
        "m"
      ],
      [
        "out",
        "h"
      ],
      [
        "Ġd",
        "o"
      ],
      [
        "us",
        "h"
      ],
      [
        "00",
        "0"
      ],
      [
        "Ġs",
        "l"
      ],
      [
        "Ġarrest",
        "ed"
      ],
      [
        "t",
        "y"
      ],
      [
        "ur",
        "der"
      ],
      [
        "en",
        "c"
      ],
      [
        "n",
        "a"
      ],
      [
        "Ġ",
        "im"
      ],
      [
        "Ġh",
        "er"
      ],
      [
        "at",
        "i"
      ],
      [
        "ic",
        "t"
      ],
      [
        "at",
        "t"
      ],
      [
        "y",
        "ear"
      ],
      [
        "Ġ",
        "6"
      ],
      [
        "Ġpro",
        "t"
      ],
      [
        "Ġcas",
        "es"
      ],
      [
        "Ġcom",
        "m"
      ],
      [
        "ĠR",
        "aj"
      ],
      [
        "at",
        "ch"
      ],
      [
        "od",
        "y"
      ],
      [
        "Ġme",
        "et"
      ],
      [
        "Ġa",
        "pp"
      ],
      [
        "or",
        "y"
      ],
      [
        "ad",
        "e"
      ],
      [
        "Ġr",
        "ap"
      ],
      [
        "un",
        "e"
      ],
      [
        "end",
        "s"
      ],
      [
        "am",
        "s"
      ],
      [
        "ĠS",
        "h"
      ],
      [
        "Ġ",
        "under"
      ],
      [
        "Ġas",
        "s"
      ],
      [
        "an",
        "i"
      ],
      [
        "Ġ",
        "it"
      ],
      [
        "all",
        "y"
      ],
      [
        "Ġc",
        "ops"
      ],
      [
        "Ġkill",
        "ed"
      ],
      [
        "o",
        "or"
      ],
      [
        "u",
        "es"
      ],
      [
        "un",
        "ch"
      ],
      [
        "Ġ1",
        "0"
      ],
      [
        "Ġb",
        "u"
      ],
      [
        "e",
        "h"
      ],
      [
        "Ġw",
        "ater"
      ],
      [
        "s",
        "s"
      ],
      [
        "a",
        "ir"
      ],
      [
        "is",
        "ts"
      ],
      [
        "Ġm",
        "urder"
      ],
      [
        "l",
        "es"
      ],
      [
        "iv",
        "es"
      ],
      [
        "i",
        "b"
      ],
      [
        "Ġc",
        "ourt"
      ],
      [
        "it",
        "al"
      ],
      [
        "t",
        "ing"
      ],
      [
        "W",
        "h"
      ],
      [
        "ik",
        "e"
      ],
      [
        "Ġ",
        "7"
      ],
      [
        "ov",
        "e"
      ],
      [
        "Ġs",
        "ur"
      ],
      [
        "os",
        "e"
      ],
      [
        "uc",
        "k"
      ],
      [
        "Ġ",
        "&"
      ],
      [
        "Ġg",
        "irl"
      ],
      [
        "T",
        "h"
      ],
      [
        "ent",
        "re"
      ],
      [
        "Ġt",
        "ake"
      ],
      [
        "Ġn",
        "o"
      ],
      [
        "ar",
        "at"
      ],
      [
        "Ġto",
        "day"
      ],
      [
        "t",
        "ra"
      ],
      [
        "Ġh",
        "is"
      ],
      [
        "Ġl",
        "a"
      ],
      [
        "Ġd",
        "em"
      ],
      [
        "os",
        "p"
      ],
      [
        "ap",
        "p"
      ],
      [
        "Ġcr",
        "ore"
      ],
      [
        "l",
        "l"
      ],
      [
        "Ġb",
        "ack"
      ],
      [
        "ĠC",
        "ovid"
      ],
      [
        "ol",
        "le"
      ],
      [
        "r",
        "it"
      ],
      [
        "a",
        "z"
      ],
      [
        "B",
        "I"
      ],
      [
        "u",
        "k"
      ],
      [
        "id",
        "s"
      ],
      [
        "Ġst",
        "ate"
      ],
      [
        "ec",
        "ts"
      ],
      [
        "od",
        "i"
      ],
      [
        "at",
        "s"
      ],
      [
        "Ġb",
        "o"
      ],
      [
        "Ġh",
        "ave"
      ],
      [
        "ul",
        "d"
      ],
      [
        "o",
        "u"
      ],
      [
        "Ġf",
        "ound"
      ],
      [
        "ul",
        "l"
      ],
      [
        "v",
        "el"
      ],
      [
        "Ġb",
        "ut"
      ],
      [
        "or",
        "t"
      ],
      [
        "eng",
        "al"
      ],
      [
        "a",
        "f"
      ],
      [
        "or",
        "d"
      ],
      [
        "us",
        "e"
      ],
      [
        "ĠS",
        "t"
      ],
      [
        "Ġl",
        "and"
      ],
      [
        "us",
        "ed"
      ],
      [
        "at",
        "ed"
      ],
      [
        "il",
        "e"
      ],
      [
        "Ġs",
        "up"
      ],
      [
        "a",
        "har"
      ],
      [
        "ect",
        "ion"
      ],
      [
        "Ġr",
        "em"
      ],
      [
        "T",
        "he"
      ],
      [
        "t",
        "ed"
      ],
      [
        "er",
        "y"
      ],
      [
        "am",
        "e"
      ],
      [
        "Ġst",
        "r"
      ],
      [
        "ee",
        "p"
      ],
      [
        "Ind",
        "ia"
      ],
      [
        "Ġde",
        "p"
      ],
      [
        "G",
        "ovt"
      ],
      [
        "ĠS",
        "ing"
      ],
      [
        "ĠB",
        "h"
      ],
      [
        "Ġre",
        "v"
      ],
      [
        "an",
        "c"
      ],
      [
        "Ġp",
        "e"
      ],
      [
        "i",
        "x"
      ],
      [
        "Ġt",
        "ri"
      ],
      [
        "Ġl",
        "ife"
      ],
      [
        "im",
        "s"
      ],
      [
        "Ġd",
        "ec"
      ],
      [
        "ĠM",
        "umbai"
      ],
      [
        "Ġc",
        "all"
      ],
      [
        "e",
        "al"
      ],
      [
        "Ġd",
        "own"
      ],
      [
        "ab",
        "le"
      ],
      [
        "em",
        "p"
      ],
      [
        "Ġp",
        "re"
      ],
      [
        "Ġp",
        "ower"
      ],
      [
        "A",
        "n"
      ],
      [
        "an",
        "n"
      ],
      [
        "Ġh",
        "as"
      ],
      [
        "overn",
        "ment"
      ],
      [
        "m",
        "s"
      ],
      [
        "ad",
        "esh"
      ],
      [
        "our",
        "s"
      ],
      [
        "g",
        "et"
      ],
      [
        "Ġde",
        "ad"
      ],
      [
        "Ġp",
        "an"
      ],
      [
        "Ġpro",
        "j"
      ],
      [
        "Ġt",
        "wo"
      ],
      [
        "Ġprot",
        "est"
      ],
      [
        "hi",
        "ef"
      ],
      [
        "Ġac",
        "t"
      ],
      [
        "Ġth",
        "is"
      ],
      [
        "Ġt",
        "est"
      ],
      [
        "en",
        "n"
      ],
      [
        "c",
        "t"
      ],
      [
        "ff",
        "ic"
      ],
      [
        "el",
        "y"
      ],
      [
        "Ġr",
        "et"
      ],
      [
        "ic",
        "s"
      ],
      [
        "ĠU",
        "n"
      ],
      [
        "d",
        "uc"
      ],
      [
        "Ġfir",
        "st"
      ],
      [
        "uj",
        "arat"
      ],
      [
        "a",
        "ff"
      ],
      [
        "Ġsee",
        "ks"
      ],
      [
        "ation",
        "al"
      ],
      [
        "it",
        "ies"
      ],
      [
        "Ġm",
        "ed"
      ],
      [
        "Ġc",
        "har"
      ],
      [
        "is",
        "es"
      ],
      [
        "Ġf",
        "in"
      ],
      [
        "Ġp",
        "er"
      ],
      [
        "Ġwom",
        "an"
      ],
      [
        "Ġv",
        "is"
      ],
      [
        "Ġhel",
        "p"
      ],
      [
        "Ġyear",
        "s"
      ],
      [
        "Ġb",
        "ook"
      ],
      [
        "Ġla",
        "unch"
      ],
      [
        "Ġcom",
        "p"
      ],
      [
        "Ġd",
        "ist"
      ],
      [
        "Ġsh",
        "ow"
      ],
      [
        "Ġe",
        "v"
      ],
      [
        "Ġ",
        "8"
      ],
      [
        "B",
        "JP"
      ],
      [
        "ĠSing",
        "h"
      ],
      [
        "Ġa",
        "ir"
      ],
      [
        "ec",
        "h"
      ],
      [
        "S",
        "h"
      ],
      [
        "ash",
        "tra"
      ],
      [
        "Ġm",
        "ake"
      ],
      [
        "Ġd",
        "ay"
      ],
      [
        "k",
        "ar"
      ],
      [
        "Ġwom",
        "en"
      ],
      [
        "T",
        "wo"
      ],
      [
        "g",
        "al"
      ],
      [
        "Ġs",
        "u"
      ],
      [
        "Ġis",
        "s"
      ],
      [
        "x",
        "t"
      ],
      [
        "in",
        "a"
      ],
      [
        "us",
        "p"
      ],
      [
        "Ġc",
        "ar"
      ],
      [
        "Ġpl",
        "ay"
      ],
      [
        "ic",
        "es"
      ],
      [
        "ect",
        "or"
      ],
      [
        "er",
        "r"
      ],
      [
        "r",
        "am"
      ],
      [
        "in",
        "k"
      ],
      [
        "ous",
        "e"
      ],
      [
        "ĠA",
        "m"
      ],
      [
        "o",
        "a"
      ],
      [
        "Ġm",
        "ar"
      ],
      [
        "D",
        "elhi"
      ],
      [
        "iv",
        "er"
      ],
      [
        "Ġp",
        "os"
      ],
      [
        "Ġh",
        "osp"
      ],
      [
        "Ġpro",
        "be"
      ],
      [
        "l",
        "ine"
      ],
      [
        "Ġd",
        "oc"
      ],
      [
        "Ġc",
        "or"
      ],
      [
        "ĠPr",
        "adesh"
      ],
      [
        "ahar",
        "ashtra"
      ],
      [
        "o",
        "h"
      ],
      [
        "p",
        "r"
      ],
      [
        "Ġc",
        "hief"
      ],
      [
        "el",
        "s"
      ],
      [
        "m",
        "a"
      ],
      [
        "ĠP",
        "ak"
      ],
      [
        "ard",
        "s"
      ],
      [
        "al",
        "i"
      ],
      [
        "ĠM",
        "odi"
      ],
      [
        "i",
        "har"
      ],
      [
        "Ġin",
        "f"
      ],
      [
        "H",
        "C"
      ],
      [
        "y",
        "s"
      ],
      [
        "Ġd",
        "ies"
      ],
      [
        "ĠU",
        "S"
      ],
      [
        "Ġpoll",
        "s"
      ],
      [
        "ol",
        "ice"
      ],
      [
        "ot",
        "her"
      ],
      [
        "ri",
        "k"
      ],
      [
        "Ġin",
        "v"
      ],
      [
        "g",
        "l"
[...]
