{
  "version": "1.0",
  "truncation": null,
  "padding": null,
  "added_tokens": [
    {
      "id": 0,
      "content": "[UNK]",
      "single_word": false,
      "lstrip": false,
      "rstrip": false,
      "normalized": false,
      "special": true
    },
    {
      "id": 1,
      "content": "[PAD]",
      "single_word": false,
      "lstrip": false,
      "rstrip": false,
      "normalized": false,
      "special": true
    },
    {
      "id": 2,
      "content": "[BOS]",
      "single_word": false,
      "lstrip": false,
      "rstrip": false,
      "normalized": false,
      "special": true
    },
    {
      "id": 3,
      "content": "[EOS]",
      "single_word": false,
      "lstrip": false,
      "rstrip": false,
      "normalized": false,
      "special": true
    }
  ],
  "normalizer": {
    "type": "Lowercase"
  },
  "pre_tokenizer": {
    "type": "ByteLevel",
    "add_prefix_space": false,
    "trim_offsets": true,
    "use_regex": true
  },
  "post_processor": null,
  "decoder": {
    "type": "ByteLevel",
    "add_prefix_space": true,
    "trim_offsets": true,
    "use_regex": true
  },
  "model": {
    "type": "BPE",
    "dropout": null,
    "unk_token": "[UNK]",
    "continuing_subword_prefix": null,
    "end_of_word_suffix": null,
    "fuse_unk": false,
    "byte_fallback": false,
    "ignore_merges": false,
    "vocab": {
      "[UNK]": 0,
      "[PAD]": 1,
      "[BOS]": 2,
      "[EOS]": 3,
      "!": 4,
      "#": 5,
      "$": 6,
      "%": 7,
      "&": 8,
      "'": 9,
      "(": 10,
      ")": 11,
      "*": 12,
      "+": 13,
      "-": 14,
      ".": 15,
      "/": 16,
      "0": 17,
      "1": 18,
      "2": 19,
      "3": 20,
      "4": 21,
      "5": 22,
      "6": 23,
      "7": 24,
      "8": 25,
      "9": 26,
      ":": 27,
      ";": 28,
      "<": 29,
      "=": 30,
      ">": 31,
      "?": 32,
      "@": 33,
      "[": 34,
      "\\": 35,
      "]": 36,
      "^": 37,
      "_": 38,
      "a": 39,
      "b": 40,
      "c": 41,
      "d": 42,
      "e": 43,
      "f": 44,
      "g": 45,
      "h": 46,
      "i": 47,
      "j": 48,
      "k": 49,
      "l": 50,
      "m": 51,
      "n": 52,
      "o": 53,
      "p": 54,
      "q": 55,
      "r": 56,
      "s": 57,
      "t": 58,
      "u": 59,
      "v": 60,
      "w": 61,
      "x": 62,
      "y": 63,
      "z": 64,
      "{": 65,
      "}": 66,
      "~": 67,
      "Ċ": 68,
      "Ġ": 69,
      "ġ": 70,
      "in": 71,
      "Ġt": 72,
      "Ġs": 73,
      "er": 74,
      "an": 75,
      "Ġc": 76,
      "es": 77,
      "on": 78,
      "Ġa": 79,
      "or": 80,
      "Ġf": 81,
      "ar": 82,
      "Ġp": 83,
      "Ġb": 84,
      "en": 85,
      "at": 86,
      "Ġm": 87,
      "Ġin": 88,
      "al": 89,
      "Ġr": 90,
      "Ġto": 91,
      "Ġd": 92,
      "it": 93,
      "ed": 94,
      "Ġo": 95,
      "Ġh": 96,
      "is": 97,
      "Ġw": 98,
      "ur": 99,
      "ing": 100,
      "Ġg": 101,
      "il": 102,
      "el": 103,
      "ic": 104,
      "as": 105,
      "Ġl": 106,
      "Ġfor": 107,
      "et": 108,
      "ro": 109,
      "Ġn": 110,
      "ol": 111,
      "ay": 112,
      "un": 113,
      "ion": 114,
      "ad": 115,
      "Ġof": 116,
      "us": 117,
      "am": 118,
      "ent": 119,
      "ec": 120,
      "ac": 121,
      "id": 122,
      "Ġst": 123,
      "ir": 124,
      "ut": 125,
      "Ġon": 126,
      "ers": 127,
      "Ġk": 128,
      "'s": 129,
      "and": 130,
      "re": 131,
      "Ġth": 132,
      "om": 133,
      "ot": 134,
      "ak": 135,
      "le": 136,
      "iv": 137,
      "st": 138,
      "ra": 139,
      "ch": 140,
      "ig": 141,
      "Ġv": 142,
      "est": 143,
      "Ġe": 144,
      "ov": 145,
      "up": 146,
      "ow": 147,
      "Ġch": 148,
      "im": 149,
      "em": 150,
      "ts": 151,
      "th": 152,
      "ag": 153,
      "Ġj": 154,
      "op": 155,
      "ill": 156,
      "Ġat": 157,
      "ul": 158,
      "ter": 159,
      "ab": 160,
      "ation": 161,
      "od": 162,
      "Ġsh": 163,
      "Ġre": 164,
      "os": 165,
      "ap": 166,
      "um": 167,
      "Ġthe": 168,
      "Ġde": 169,
      "ri": 170,
      "ain": 171,
      "Ġpro": 172,
      "ith": 173,
      "Ġ1": 174,
      "Ġbe": 175,
      "ud": 176,
      "Ġas": 177,
      "ess": 178,
      "our": 179,
      "ity": 180,
      "Ġ2": 181,
      "ear": 182,
      "ia": 183,
      "Ġy": 184,
      "av": 185,
      "ate": 186,
      "ks": 187,
      "all": 188,
      "Ġcon": 189,
      "Ġwith": 190,
      "hi": 191,
      "Ġ'": 192,
      "if": 193,
      "ect": 194,
      "oc": 195,
      "igh": 196,
      "ies": 197,
      "end": 198,
      "Ġse": 199,
      "ore": 200,
      "ce": 201,
      "rom": 202,
      "ew": 203,
      "ist": 204,
      "ang": 205,
      "und": 206,
      "ver": 207,
      "Ġup": 208,
      "Ġfrom": 209,
      "ai": 210,
      "Ġac": 211,
      "ice": 212,
      "Ġex": 213,
      "ays": 214,
      "Ġpl": 215,
      "ug": 216,
      "ack": 217,
      "ant": 218,
      "Ġpol": 219,
      "ind": 220,
      "Ġag": 221,
      "har": 222,
      "ly": 223,
      "00": 224,
      "Ġis": 225,
      "Ġind": 226,
      "qu": 227,
      "Ġpr": 228,
      "por": 229,
      "ents": 230,
      "Ġand": 231,
      "ive": 232,
      "Ġcom": 233,
      "Ġcr": 234,
      "uc": 235,
      "Ġhel": 236,
      "ath": 237,
      "ash": 238,
      "Ġget": 239,
      "ail": 240,
      "Ġal": 241,
      "ard": 242,
      "Ġoff": 243,
      "Ġsp": 244,
      "ik": 245,
      "Ġwor": 246,
      "ip": 247,
      "Ġar": 248,
      "oo": 249,
      "ans": 250,
      "Ġby": 251,
      "Ġtr": 252,
      "ee": 253,
      "art": 254,
      "Ġcas": 255,
      "Ġover": 256,
      "old": 257,
      "Ġle": 258,
      "ment": 259,
      "ff": 260,
      "Ġro": 261,
      "ust": 262,
      "ake": 263,
      "ach": 264,
      "Ġun": 265,
      "ine": 266,
      "ish": 267,
      "ub": 268,
      "ial": 269,
      "Ġrs": 270,
      "ell": 271,
      "Ġagain": 272,
      "Ġco": 273,
      "ie": 274,
      "Ġnot": 275,
      "der": 276,
      "ast": 277,
      "pl": 278,
      "Ġcl": 279,
      "out": 280,
      "Ġgov": 281,
      "ah": 282,
      "aj": 283,
      "its": 284,
      "fter": 285,
      "eng": 286,
      "ens": 287,
      "Ġres": 288,
      "Ġsc": 289,
      "Ġ3": 290,
      "man": 291,
      "age": 292,
      "Ġman": 293,
      "Ġgo": 294,
      "Ġan": 295,
      "Ġfir": 296,
      "ong": 297,
      "Ġheld": 298,
      "ight": 299,
      "Ġnew": 300,
      "ass": 301,
      "Ġout": 302,
      "aw": 303,
      "port": 304,
      "ide": 305,
      "wo": 306,
      "Ġagainst": 307,
      "esh": 308,
      "Ġme": 309,
      "tion": 310,
      "Ġafter": 311,
      "Ġad": 312,
      "umb": 313,
      "ops": 314,
      "Ġop": 315,
      "ge": 316,
      "Ġsays": 317,
      "Ġdr": 318,
      "ue": 319,
      "Ġdel": 320,
      "ors": 321,
      "ian": 322,
      "ost": 323,
      "Ġstud": 324,
      "Ġkill": 325,
      "Ġmar": 326,
      "iz": 327,
      "day": 328,
      "ous": 329,
      "to": 330,
      "Ġtra": 331,
      "ress": 332,
      "iss": 333,
      "Ġmay": 334,
      "Ġne": 335,
      "Ġfl": 336,
      "one": 337,
      "ure": 338,
      "jp": 339,
      "ps": 340,
      "Ġbl": 341,
      "ree": 342,
      "als": 343,
      "Ġindia": 344,
      "Ġam": 345,
      "urn": 346,
      "Ġsch": 347,
      "ace": 348,
      "Ġmin": 349,
      "Ġap": 350,
      "Ġfo": 351,
      "Ġ20": 352,
      "ool": 353,
      "han": 354,
      "Ġcase": 355,
      "ave": 356,
      "ve": 357,
      "Ġbo": 358,
      "Ġte": 359,
      "Ġwh": 360,
      "Ġcan": 361,
      "Ġab": 362,
      "Ġhe": 363,
      "ary": 364,
      "Ġ5": 365,
      "ern": 366,
      "ank": 367,
      "Ġcol": 368,
      "are": 369,
      "ook": 370,
      "Ġgovt": 371,
      "Ġwom": 372,
      "Ġor": 373,
      "arm": 374,
      "ry": 375,
      "og": 376,
      "ets": 377,
      "ob": 378,
      "sh": 379,
      "Ġus": 380,
      "rest": 381,
      "ugh": 382,
      "Ġqu": 383,
      "amp": 384,
      "Ġpar": 385,
      "Ġcour": 386,
      "Ġ4": 387,
      "Ġdis": 388,
      "ife": 389,
      "ict": 390,
      "akh": 391,
      "ater": 392,
      "ins": 393,
      "ign": 394,
      "Ġyear": 395,
      "no": 396,
      "ence": 397,
      "Ġrec": 398,
      "ome": 399,
      "ates": 400,
      "ana": 401,
      "ha": 402,
      "Ġsee": 403,
      "ild": 404,
      "ms": 405,
      "Ġall": 406,
      "umbai": 407,
      "Ġacc": 408,
      "Ġcity": 409,
      "ld": 410,
      "be": 411,
      "Ġroad": 412,
      "Ġwill": 413,
      "Ġarrest": 414,
      "Ġwork": 415,
      "ions": 416,
      "abad": 417,
      "pur": 418,
      "own": 419,
      "Ġno": 420,
      "ele": 421,
      "Ġatt": 422,
      "'t": 423,
      "Ġmore": 424,
      "her": 425,
      "Ġgets": 426,
      "ick": 427,
      "Ġbr": 428,
      "ise": 429,
      "ls": 430,
      "se": 431,
      "Ġcont": 432,
      "Ġso": 433,
      "per": 434,
      "Ġit": 435,
      "ance": 436,
      "ock": 437,
      "Ġpolice": 438,
      "Ġfil": 439,
      "Ġhigh": 440,
      "mc": 441,
      "Ġoffic": 442,
      "ber": 443,
      "ya": 444,
      "row": 445,
      "ief": 446,
      "Ġschool": 447,
      "Ġdelhi": 448,
      "bi": 449,
      "for": 450,
      "br": 451,
      "arn": 452,
      "act": 453,
      "sp": 454,
      "ower": 455,
      "amil": 456,
      "ax": 457,
      "Ġcov": 458,
      "Ġsec": 459,
      "way": 460,
      "ult": 461,
      "leg": 462,
      "ars": 463,
      "ata": 464,
      "uj": 465,
      "Ġdeath": 466,
      "tra": 467,
      "Ġsur": 468,
      "Ġass": 469,
      "Ġcourt": 470,
      "Ġset": 471,
      "Ġcomm": 472,
      "under": 473,
      "Ġi": 474,
      "Ġinto": 475,
      "Ġim": 476,
      "Ġcent": 477,
      "ond": 478,
      "ical": 479,
      "Ġbus": 480,
      "uk": 481,
      "Ġstudents": 482,
      "pt": 483,
      "air": 484,
      "ime": 485,
      "pos": 486,
      "Ġcops": 487,
      "pit": 488,
      "reat": 489,
      "ants": 490,
      "outh": 491,
      "ings": 492,
      "Ġare": 493,
      "ivers": 494,
      "Ġday": 495,
      "gov": 496,
      "ase": 497,
      "ident": 498,
      "Ġpart": 499,
      "enc": 500,
      "Ġher": 501,
      "Ġlakh": 502,
      "Ġmon": 503,
      "na": 504,
      "ex": 505,
      "Ġmur": 506,
      "Ġdo": 507,
      "Ġlead": 508,
      "Ġbu": 509,
      "Ġel": 510,
      "Ġsl": 511,
      "Ġpan": 512,
      "oin": 513,
      "Ġact": 514,
      "ft": 515,
      "Ġcm": 516,
      "akes": 517,
      "ations": 518,
      "erv": 519,
      "ma": 520,
      "Ġgir": 521,
      "Ġcor": 522,
      "Ġdec": 523,
      "cr": 524,
      "app": 525,
      "Ġsup": 526,
      "ition": 527,
      "Ġbjp": 528,
      "arg": 529,
      "ala": 530,
      "Ġarrested": 531,
      "Ġhc": 532,
      "vel": 533,
      "ister": 534,
      "year": 535,
      "ody": 536,
      "ush": 537,
      "Ġprot": 538,
      "000": 539,
      "Ġapp": 540,
      "cl": 541,
      "Ġair": 542,
      "att": 543,
      "Ġsing": 544,
      "Ġcong": 545,
      "Ġ201": 546,
      "over": 547,
      "pr": 548,
      "Ġstate": 549,
      "ade": 550,
      "Ġ6": 551,
      "now": 552,
      "Ġra": 553,
      "Ġmod": 554,
      "unt": 555,
      "ati": 556,
      "oot": 557,
      "Ġraj": 558,
      "Ġcases": 559,
      "ives": 560,
      "ey": 561,
      "ims": 562,
      "Ġunder": 563,
      "Ġmeet": 564,
      "atch": 565,
      "ok": 566,
      "une": 567,
      "Ġcovid": 568,
      "ues": 569,
      "ends": 570,
      "Ġrev": 571,
      "Ġwater": 572,
      "he": 573,
      "Ġkilled": 574,
      "ally": 575,
      "les": 576,
      "ists": 577,
      "Ġrap": 578,
      "Ġdem": 579,
      "hy": 580,
      "ons": 581,
      "Ġtest": 582,
      "Ġmurder": 583,
      "Ġtwo": 584,
      "pol": 585,
      "Ġtri": 586,
      "Ġ&": 587,
      "ats": 588,
      "Ġtake": 589,
      "Ġpre": 590,
      "ams": 591,
      "Ġland": 592,
      "mer": 593,
      "Ġ10": 594,
      "ike": 595,
      "Ġla": 596,
      "Ġbh": 597,
      "Ġtoday": 598,
      "Ġfr": 599,
      "Ġback": 600,
      "ty": 601,
      "Ġcrore": 602,
      "ove": 603,
      "Ġhos": 604,
      "sc": 605,
      "Ġ7": 606,
      "ids": 607,
      "uck": 608,
      "oor": 609,
      "unch": 610,
      "ani": 611,
      "af": 612,
      "ated": 613,
      "ory": 614,
      "Ġfin": 615,
      "Ġhave": 616,
      "la": 617,
      "Ġpe": 618,
      "Ġrem": 619,
      "Ġplan": 620,
      "oy": 621,
      "Ġbut": 622,
      "Ġvi": 623,
      "Ġmed": 624,
      "ood": 625,
      "tr": 626,
      "ted": 627,
      "kar": 628,
      "Ġstr": 629,
      "ite": 630,
      "ou": 631,
      "Ġwoman": 632,
      "istr": 633,
      "Ġhous": 634,
      "ects": 635,
      "engal": 636,
      "Ġsu": 637,
      "Ġmumbai": 638,
      "Ġhis": 639,
      "arat": 640,
      "Ġvis": 641,
      "uld": 642,
      "we": 643,
      "Ġcall": 644,
      "Ġlife": 645,
      "Ġdown": 646,
      "india": 647,
      "Ġret": 648,
      "Ġbook": 649,
      "govt": 650,
      "Ġgovern": 651,
      "Ġfirst": 652,
      "ile": 653,
      "ord": 654,
      "anc": 655,
      "Ġpower": 656,
      "Ġz": 657,
      "adesh": 658,
      "ection": 659,
      "Ġhospit": 660,
      "Ġfound": 661,
      "Ġturn": 662,
      "Ġrel": 663,
      "Ġprotest": 664,
      "able": 665,
      "Ġshow": 666,
      "ali": 667,
      "ram": 668,
      "Ġsal": 669,
      "Ġwomen": 670,
      "ities": 671,
      "Ġhas": 672,
      "Ġthis": 673,
      "Ġfe": 674,
      "del": 675,
      "co": 676,
      "Ġproj": 677,
      "Ġhelp": 678,
      "ics": 679,
      "Ġchief": 680,
      "aff": 681,
      "Ġiss": 682,
      "ame": 683,
      "te": 684,
      "med": 685,
      "iver": 686,
      "enn": 687,
      "min": 688,
      "Ġseeks": 689,
      "Ġdead": 690,
      "Ġcomp": 691,
      "Ġban": 692,
      "ix": 693,
      "Ġper": 694,
      "Ġaw": 695,
      "used": 696,
      "ep": 697,
      "Ġyears": 698,
      "ujarat": 699,
      "ices": 700,
      "king": 701,
      "Ġgirl": 702,
      "ational": 703,
      "ely": 704,
      "Ġprobe": 705,
      "ting": 706,
      "bs": 707,
      "Ġopen": 708,
      "Ġev": 709,
      "ashtra": 710,
      "Ġma": 711,
      "Ġcar": 712,
      "pro": 713,
      "two": 714,
      "line": 715,
      "Ġdies": 716,
      "Ġwe": 717,
      "Ġdoc": 718,
      "unc": 719,
      "Ġinter": 720,
      "ose": 721,
      "eep": 722,
      "alth": 723,
      "Ġ8": 724,
      "Ġpoll": 725,
      "Ġmake": 726,
      "ffic": 727,
      "ises": 728,
      "Ġsm": 729,
      "wn": 730,
      "ort": 731,
      "Ġpost": 732,
      "urg": 733,
      "Ġlaunch": 734,
      "Ġhome": 735,
      "Ġreg": 736,
      "Ġter": 737,
      "usp": 738,
      "Ġofficial": 739,
      "Ġsingh": 740,
      "bjp": 741,
      "ector": 742,
      "ech": 743,
      "the": 744,
      "Ġinv": 745,
      "Ġplay": 746,
      "ards": 747,
      "az": 748,
      "hc": 749,
      "Ġgu": 750,
      "ina": 751,
      "Ġcle": 752,
      "harashtra": 753,
      "Ġpradesh": 754,
      "raj": 755,
      "Ġed": 756,
      "ung": 757,
      "Ġexp": 758,
      "Ġdef": 759,
      "other": 760,
      "ib": 761,
      "delhi": 762,
      "Ġreport": 763,
      "Ġsw": 764,
      "Ġinf": 765,
      "duc": 766,
      "Ġgr": 767,
      "ement": 768,
      "iversity": 769,
      "Ġmiss": 770,
      "Ġminister": 771,
      "cong": 772,
      "utt": 773,
      "rs": 774,
      "Ġbody": 775,
      "wom": 776,
      "de": 777,
      "get": 778,
      "ke": 779,
      "Ġph": 780,
      "Ġcentre": 781,
      "Ġmy": 782,
      "Ġson": 783,
      "uru": 784,
      "Ġdemand": 785,
      "ari": 786,
      "Ġbeg": 787,
      "Ġfac": 788,
      "Ġmet": 789,
      "Ġrun": 790,
      "Ġtal": 791,
      "Ġwas": 792,
      "Ġgro": 793,
      "Ġfarm": 794,
      "Ġmark": 795,
      "Ġpm": 796,
      "ute": 797,
      "Ġhit": 798,
      "olk": 799,
      "com": 800,
      "Ġwin": 801,
      "miss": 802,
      "Ġpak": 803,
      "elf": 804,
      "par": 805,
      "Ġyour": 806,
      "els": 807,
      "Ġpay": 808,
      "ple": 809,
      "Ġworld": 810,
      "Ġsusp": 811,
      "ines": 812,
      "Ġca": 813,
      "ery": 814,
      "Ġtrans": 815,
      "ump": 816,
      "Ġnow": 817,
      "jur": 818,
      "Ġmodi": 819,
      "Ġpolls": 820,
      "new": 821,
      "Ġdays": 822,
      "Ġwho": 823,
      "Ġits": 824,
      "xt": 825,
      "Ġyou": 826,
      "Ġtime": 827,
      "Ġbre": 828,
      "oss": 829,
      "use": 830,
      "Ġcongress": 831,
      "Ġent": 832,
      "Ġen": 833,
      "Ġone": 834,
      "Ġcoll": 835,
      "ople": 836,
      "Ġsoon": 837,
      "go": 838,
      "fer": 839,
      "ral": 840,
      "Ġem": 841,
      "mumbai": 842,
      "Ġcamp": 843,
      "agar": 844,
      "Ġattack": 845,
      "wh": 846,
      "Ġstri": 847,
      "ull": 848,
      "Ġserv": 849,
      "ught": 850,
      "ric": 851,
      "Ġindian": 852,
      "reen": 853,
      "Ġ9": 854,
      "Ġuniversity": 855,
      "aka": 856,
      "Ġgovernment": 857,
      "Ġfilm": 858,
      "Ġbig": 859,
      "idents": 860,
      "Ġabout": 861,
      "acks": 862,
      "olkata": 863,
      "vi": 864,
      "Ġmonth": 865,
      "Ġpass": 866,
      "bh": 867,
      "oll": 868,
      "Ġinjur": 869,
      "Ġfamil": 870,
      "Ġhouse": 871,
      "ating": 872,
      "Ġbi": 873,
      "Ġbengal": 874,
      "ights": 875,
      "Ġboy": 876,
      "Ġtrain": 877,
      "eek": 878,
      "Ġpat": 879,
      "Ġtax": 880,
      "Ġhospital": 881,
      "ert": 882,
      "ennai": 883,
      "Ġcele": 884,
      "Ġnear": 885,
      "Ġvill": 886,
      "Ġkhan": 887,
      "ph": 888,
      "Ġbooked": 889,
      "bed": 890,
      "Ġrain": 891,
      "ots": 892,
      "Ġtop": 893,
      "ells": 894,
      "me": 895,
      "ution": 896,
      "ected": 897,
      "Ġred": 898,
      "itt": 899,
      "anj": 900,
      "Ġlaw": 901,
      "Ġchild": 902,
      "ady": 903,
      "res": 904,
      "angana": 905,
      "Ġdi": 906,
      "ros": 907,
      "Ġaccused": 908,
      "Ġbet": 909,
      "Ġpanel": 910,
      "fir": 911,
      "ould": 912,
      "Ġneed": 913,
      "ember": 914,
      "Ġstaff": 915,
      "Ġeng": 916,
      "adu": 917,
      "rol": 918,
      "than": 919,
      "kh": 920,
      "Ġrail": 921,
      "emb": 922,
      "unj": 923,
      "Ġhold": 924,
      "Ġthan": 925,
      "ikely": 926,
      "Ġbank": 927,
      "lege": 928,
      "Ġplans": 929,
      "Ġteach": 930,
      "ubl": 931,
      "Ġcorpor": 932,
      "Ġste": 933,
      "Ġple": 934,
      "urity": 935,
      "Ġnor": 936,
      "Ġcut": 937,
      "derabad": 938,
      "Ġvot": 939,
      "Ġaut": 940,
      "Ġgang": 941,
      "ink": 942,
      "Ġmus": 943,
      "Ġparty": 944,
      "Ġfund": 945,
      "Ġfire": 946,
      "Ġschools": 947,
      "pm": 948,
      "Ġthreat": 949,
      "ther": 950,
      "Ġfall": 951,
      "Ġwr": 952,
      "Ġteam": 953,
      "Ġnext": 954,
      "Ġdra": 955,
      "Ġdep": 956,
      "Ġmen": 957,
      "Ġ15": 958,
      "Ġface": 959,
      "illeg": 960,
      "Ġtheir": 961,
      "Ġkids": 962,
      "ara": 963,
      "arnat": 964,
      "Ġtakes": 965,
      "19": 966,
      "Ġjail": 967,
      "ror": 968,
      "Ġhealth": 969,
      "elangana": 970,
      "Ġbuild": 971,
      "da": 972,
      "Ġsy": 973,
      "ual": 974,
      "Ġdistr": 975,
      "ours": 976,
      "Ġpeople": 977,
      "arnataka": 978,
      "Ġve": 979,
      "Ġgl": 980,
      "Ġsub": 981,
      "Ġtem": 982,
      "Ġown": 983,
      "Ġinc": 984,
      "uss": 985,
      "Ġir": 986,
      "Ġfest": 987,
      "aking": 988,
      "ports": 989,
      "my": 990,
      "Ġstart": 991,
      "unjab": 992,
      "Ġcelebr": 993,
      "ann": 994,
      "Ġhear": 995,
      "Ġdes": 996,
      "Ġfail": 997,
      "oh": 998,
      "iness": 999,
      "ures": 1000,
      "Ġmov": 1001,
      "Ġdir": 1002,
      "Ġvict": 1003,
      "ites": 1004,
      "oon": 1005,
      "Ġdon": 1006,
      "Ġcop": 1007,
      "uring": 1008,
      "Ġstill": 1009,
      "Ġlikely": 1010,
      "velop": 1011,
      "Ġcla": 1012,
      "wor": 1013,
      "Ġbill": 1014,
      "Ġsaf": 1015,
      "ecial": 1016,
      "Ġcompl": 1017,
      "Ġsay": 1018,
      "hip": 1019,
      "Ġproject": 1020,
      "fore": 1021,
      "20": 1022,
      "Ġstar": 1023,
      "woman": 1024,
      "istan": 1025,
      "ism": 1026,
      "li": 1027,
      "ning": 1028,
      "cess": 1029,
      "Ġnet": 1030,
      "erala": 1031,
      "illegal": 1032,
      "Ġprom": 1033,
      "adi": 1034,
      "ather": 1035,
      "Ġjob": 1036,
      "Ġhits": 1037,
      "eck": 1038,
      "ames": 1039,
      "ized": 1040,
      "Ġfamily": 1041,
      "Ġwife": 1042,
      "ope": 1043,
      "icide": 1044,
      "Ġrele": 1045,
      "Ġbail": 1046,
      "Ġdoct": 1047,
      "Ġhand": 1048,
      "Ġthat": 1049,
      "ark": 1050,
      "Ġpres": 1051,
      "ena": 1052,
      "Ġreturn": 1053,
      "Ġyouth": 1054,
      "Ġrob": 1055,
      "led": 1056,
      "Ġweek": 1057,
      "hra": 1058,
      "ada": 1059,
      "ips": 1060,
      "Ġthree": 1061,
      "Ġvisit": 1062,
      "asthan": 1063,
      "con": 1064,
      "pe": 1065,
      "Ġelect": 1066,
      "adh": 1067,
      "ages": 1068,
      "Ġofficials": 1069,
      "Ġcur": 1070,
      "Ġrecord": 1071,
      "ety": 1072,
      "ait": 1073,
      "Ġext": 1074,
      "ivic": 1075,
      "Ġwants": 1076,
      "Ġhy": 1077,
      "Ġhar": 1078,
      "cops": 1079,
      "Ġtraffic": 1080,
      "Ġdrive": 1081,
      "Ġorder": 1082,
      "Ġlo": 1083,
      "Ġstrike": 1084,
      "Ġdet": 1085,
      "Ġbir": 1086,
      "ange": 1087,
      "Ġrape": 1088,
      "Ġviol": 1089,
      "Ġcap": 1090,
      "Ġey": 1091,
      "ross": 1092,
      "ta": 1093,
      "Ġtour": 1094,
      "leges": 1095,
      "Ġasks": 1096,
      "police": 1097,
      "Ġinjured": 1098,
      "wood": 1099,
      "ublic": 1100,
      "Ġnadu": 1101,
      "Ġgold": 1102,
      "icket": 1103,
      "ne": 1104,
      "Ġcons": 1105,
      "Ġput": 1106,
      "arh": 1107,
      "Ġaction": 1108,
      "ds": 1109,
      "Ġend": 1110,
      "ole": 1111,
      "anti": 1112,
      "aut": 1113,
      "ling": 1114,
      "Ġsk": 1115,
      "Ġsex": 1116,
      "ama": 1117,
      "str": 1118,
      "Ġche": 1119,
      "state": 1120,
      "Ġwant": 1121,
      "Ġcollege": 1122,
      "Ġhot": 1123,
      "ied": 1124,
      "Ġmal": 1125,
      "rop": 1126,
      "ven": 1127,
      "Ġsecurity": 1128,
      "icip": 1129,
      "Ġgujarat": 1130,
      "Ġsoc": 1131,
      "Ġdevelop": 1132,
      "Ġhead": 1133,
      "Ġbro": 1134,
      "umar": 1135,
      "ift": 1136,
      "Ġboard": 1137,
      "Ġpos": 1138,
      "Ġhur": 1139,
      "Ġclass": 1140,
      "Ġ12": 1141,
      "ival": 1142,
      "Ġloc": 1143,
      "Ġfight": 1144,
      "Ġchar": 1145,
      "Ġgoes": 1146,
      "Ġscam": 1147,
      "Ġref": 1148,
      "Ġbar": 1149,
      "Ġvac": 1150,
      "jay": 1151,
      "idn": 1152,
      "Ġboo": 1153,
      "Ġplea": 1154,
      "Ġcontin": 1155,
      "Ġairport": 1156,
      "Ġmust": 1157,
      "ased": 1158,
      "Ġgoa": 1159,
      "yr": 1160,
      "Ġworth": 1161,
      "ply": 1162,
      "oney": 1163,
      "ious": 1164,
      "ows": 1165,
      "Ġyet": 1166,
      "Ġpolit": 1167,
      "Ġcanc": 1168,
      "ren": 1169,
      "Ġdeal": 1170,
      "Ġbefore": 1171,
      "Ġjust": 1172,
      "Ġshould": 1173,
      "Ġcorporation": 1174,
      "Ġsn": 1175,
      "Ġsuicide": 1176,
      "Ġpolic": 1177,
      "cm": 1178,
      "ploy": 1179,
      "Ġworkers": 1180,
      "hic": 1181,
      "cent": 1182,
      "rup": 1183,
      "red": 1184,
      "ders": 1185,
      "ains": 1186,
      "ault": 1187,
      "ene": 1188,
      "Ġec": 1189,
      "cc": 1190,
      "Ġinvest": 1191,
      "Ġadv": 1192,
      "uch": 1193,
      "uses": 1194,
      "Ġstudent": 1195,
      "city": 1196,
      "Ġway": 1197,
      "Ġcup": 1198,
      "Ġbab": 1199,
      "ida": 1200,
      "Ġduring": 1201,
      "gr": 1202,
      "ying": 1203,
      "ugg": 1204,
      "Ġram": 1205,
      "land": 1206,
      "Ġtells": 1207,
      "Ġexam": 1208,
      "pak": 1209,
      "ision": 1210,
      "fl": 1211,
      "Ġkap": 1212,
      "Ġmah": 1213,
      "Ġspe": 1214,
      "wal": 1215,
      "Ġseek": 1216,
      "anch": 1217,
      "Ġaway": 1218,
      "Ġfarmers": 1219,
      "Ġrise": 1220,
      "Ġfour": 1221,
      "Ġmetro": 1222,
      "amb": 1223,
      "ere": 1224,
      "Ġkills": 1225,
      "congress": 1226,
      "Ġaff": 1227,
      "Ġinst": 1228,
      "di": 1229,
      "ga": 1230,
      "ians": 1231,
      "Ġlook": 1232,
      "uttar": 1233,
      "arb": 1234,
      "Ġready": 1235,
      "Ġfind": 1236,
      "Ġcharg": 1237,
      "ended": 1238,
      "Ġ$": 1239,
      "three": 1240,
      "Ġbag": 1241,
      "Ġroads": 1242,
      "Ġgrow": 1243,
      "Ġsign": 1244,
      "ency": 1245,
      "medabad": 1246,
      "ves": 1247,
      "Ġjoin": 1248,
      "Ġint": 1249,
      "Ġpati": 1250,
      "Ġgood": 1251,
      "head": 1252,
      "ised": 1253,
      "Ġcome": 1254,
      "Ġexper": 1255,
      "aint": 1256,
      "aste": 1257,
      "Ġamong": 1258,
      "ret": 1259,
      "ness": 1260,
      "Ġbud": 1261,
      "ti": 1262,
      "Ġ50": 1263,
      "Ġchennai": 1264,
      "Ġrul": 1265,
      "Ġbusiness": 1266,
      "maharashtra": 1267,
      "ural": 1268,
      "dr": 1269,
      "ll": 1270,
      "ns": 1271,
      "Ġdeb": 1272,
      "Ġsol": 1273,
      "ka": 1274,
      "Ġhost": 1275,
      "oth": 1276,
      "ivate": 1277,
      "angal": 1278,
      "Ġwar": 1279,
      "ped": 1280,
      "war": 1281,
      "Ġbegins": 1282,
      "Ġterror": 1283,
      "Ġgive": 1284,
      "Ġissue": 1285,
      "Ġpune": 1286,
      "omb": 1287,
      "Ġshoot": 1288,
      "Ġrest": 1289,
      "Ġ-": 1290,
      "Ġbid": 1291,
      "Ġresc": 1292,
      "ific": 1293,
      "olly": 1294,
      "Ġtoo": 1295,
      "ale": 1296,
      "Ġtech": 1297,
      "Ġonline": 1298,
      "after": 1299,
      "Ġillegal": 1300,
      "Ġfree": 1301,
      "uction": 1302,
      "Ġmonths": 1303,
      "Ġ11": 1304,
      "Ġindust": 1305,
      "Ġfood": 1306,
      "Ġjud": 1307,
      "Ġvehic": 1308,
      "Ġreal": 1309,
      "olog": 1310,
      "Ġkeep": 1311,
      "Ġsum": 1312,
      "Ġmun": 1313,
      "Ġonly": 1314,
      "Ġli": 1315,
      "ful": 1316,
      "Ġke": 1317,
      "Ġself": 1318,
      "Ġnotice": 1319,
      "Ġlist": 1320,
      "Ġdistrict": 1321,
      "Ġspecial": 1322,
      "Ġschem": 1323,
      "ucation": 1324,
      "ones": 1325,
      "Ġturns": 1326,
      "Ġoper": 1327,
      "Ġcheck": 1328,
      "Ġstation": 1329,
      "Ġbec": 1330,
      "Ġda": 1331,
      "iving": 1332,
      "Ġnational": 1333,
      "aves": 1334,
      "Ġhim": 1335,
      "Ġbihar": 1336,
      "ital": 1337,
      "Ġoffice": 1338,
      "bl": 1339,
      "ban": 1340,
      "Ġaccident": 1341,
      "Ġgand": 1342,
      "endra": 1343,
      "Ġgroup": 1344,
      "Ġstat": 1345,
      "Ġrow": 1346,
      "Ġins": 1347,
      "Ġart": 1348,
      "Ġnod": 1349,
      "Ġ25": 1350,
      "Ġoppos": 1351,
      "Ġcust": 1352,
      "ashi": 1353,
      "ility": 1354,
      "ees": 1355,
      "Ġcand": 1356,
      "stud": 1357,
      "Ġdrug": 1358,
      "ys": 1359,
      "edd": 1360,
      "Ġif": 1361,
      "itiz": 1362,
      "riend": 1363,
      "Ġmaharashtra": 1364,
      "Ġnab": 1365,
      "Ġgives": 1366,
      "Ġbreak": 1367,
      "Ġcalls": 1368,
      "Ġmakes": 1369,
      "icipal": 1370,
      "Ġadd": 1371,
      "Ġleader": 1372,
      "mp": 1373,
      "form": 1374,
      "Ġsupport": 1375,
      "indian": 1376,
      "gujarat": 1377,
      "Ġseized": 1378,
      "Ġmove": 1379,
      "Ġpublic": 1380,
      "Ġleg": 1381,
      "down": 1382,
      "aps": 1383,
      "Ġkolkata": 1384,
      "Ġpil": 1385,
      "Ġmarket": 1386,
      "Ġkumar": 1387,
      "ollywood": 1388,
      "ucknow": 1389,
      "uble": 1390,
      "Ġshar": 1391,
      "Ġdiv": 1392,
      "Ġkh": 1393,
      "Ġresidents": 1394,
      "Ġcre": 1395,
      "ott": 1396,
      "Ġ30": 1397,
      "Ġteachers": 1398,
      "Ġhike": 1399,
      "Ġcbi": 1400,
      "very": 1401,
      "Ġrelief": 1402,
      "Ġnar": 1403,
      "Ġlast": 1404,
      "oes": 1405,
      "Ġchand": 1406,
      "aign": 1407,
      "Ġcivic": 1408,
      "Ġcount": 1409,
      "Ġrej": 1410,
      "not": 1411,
      "Ġprof": 1412,
      "ner": 1413,
      "Ġproper": 1414,
      "Ġden": 1415,
      "Ġdh": 1416,
      "pune": 1417,
      "Ġfly": 1418,
      "urs": 1419,
      "Ġlove": 1420,
      "Ġhyderabad": 1421,
      "ries": 1422,
      "aya": 1423,
      "Ġmedical": 1424,
      "rain": 1425,
      "Ġleaders": 1426,
      "Ġmil": 1427,
      "ults": 1428,
      "ued": 1429,
      "Ġser": 1430,
      "Ġpunjab": 1431,
      "Ġminor": 1432,
      "Ġjan": 1433,
      "Ġends": 1434,
      "Ġmp": 1435,
      "agpur": 1436,
      "Ġorders": 1437,
      "Ġtrad": 1438,
      "apur": 1439,
      "Ġshah": 1440,
      "Ġdev": 1441,
      "how": 1442,
      "Ġdist": 1443,
      "Ġissues": 1444,
      "gan": 1445,
      "Ġactiv": 1446,
      "Ġsa": 1447,
      "Ġkin": 1448,
      "Ġgreen": 1449,
      "Ġ100": 1450,
      "Ġcandid": 1451,
      "ior": 1452,
      "ipl": 1453,
      "Ġstay": 1454,
      "Ġtamil": 1455,
      "mar": 1456,
      "national": 1457,
      "Ġrailway": 1458,
      "Ġchall": 1459,
      "ocks": 1460,
      "Ġsecond": 1461,
      "Ġpark": 1462,
      "Ġcost": 1463,
      "raud": 1464,
      "Ġkapoor": 1465,
      "Ġpet": 1466,
      "Ġmissing": 1467,
      "imes": 1468,
      "Ġmunicipal": 1469,
      "Ġwins": 1470,
      "men": 1471,
      "ides": 1472,
      "mal": 1473,
      "mit": 1474,
      "ota": 1475,
      "Ġmoney": 1476,
      "Ġstand": 1477,
      "10": 1478,
      "Ġgandhi": 1479,
      "hor": 1480,
      "ways": 1481,
      "Ġsouth": 1482,
      "Ġclean": 1483,
      "Ġpap": 1484,
      "Ġpa": 1485,
      "ved": 1486,
      "aipur": 1487,
      "Ġbest": 1488,
      "Ġeducation": 1489,
      "iew": 1490,
      "ule": 1491,
      "ative": 1492,
      "avi": 1493,
      "ering": 1494,
      "ments": 1495,
      "Ġreview": 1496,
      "Ġdam": 1497,
      "Ġdepart": 1498,
      "Ġwarn": 1499,
      "Ġshot": 1500,
      "Ġbeat": 1501,
      "Ġ14": 1502,
      "ball": 1503,
      "Ġlab": 1504,
      "Ġpri": 1505,
      "ughter": 1506,
      "Ġcampaign": 1507,
      "ators": 1508,
      "ension": 1509,
      "Ġcy": 1510,
      "Ġdelay": 1511,
      "Ġcash": 1512,
      "Ġtemple": 1513,
      "ika": 1514,
      "earch": 1515,
      "uct": 1516,
      "Ġuse": 1517,
      "Ġold": 1518,
      "Ġstre": 1519,
      "Ġtill": 1520,
      "hind": 1521,
      "oint": 1522,
      "Ġrules": 1523,
      "ason": 1524,
      "Ġstudy": 1525,
      "iel": 1526,
      "ged": 1527,
      "itive": 1528,
      "Ġtreat": 1529,
      "ular": 1530,
      "stem": 1531,
      "Ġsupply": 1532,
      "thers": 1533,
      "Ġofficer": 1534,
      "Ġdoctors": 1535,
      "Ġtrib": 1536,
      "oses": 1537,
      "Ġahead": 1538,
      "attle": 1539,
      "Ġemploy": 1540,
      "Ġvir": 1541,
      "Ġmla": 1542,
      "Ġenc": 1543,
      "Ġthr": 1544,
      "Ġbeing": 1545,
      "band": 1546,
      "Ġstop": 1547,
      "Ġprojects": 1548,
      "Ġfoot": 1549,
      "Ġplant": 1550,
      "Ġrecover": 1551,
      "bo": 1552,
      "Ġear": 1553,
      "anka": 1554,
      "Ġconv": 1555,
      "Ġbel": 1556,
      "ger": 1557,
      "iff": 1558,
      "rah": 1559,
      "sec": 1560,
      "Ġdie": 1561,
      "iger": 1562,
      "Ġdue": 1563,
      "Ġboost": 1564,
      "Ġgen": 1565,
      "uty": 1566,
      "rap": 1567,
      "itch": 1568,
      "ases": 1569,
      "ges": 1570,
      "Ġpolicy": 1571,
      "Ġclear": 1572,
      "Ġx": 1573,
      "Ġmarch": 1574,
      "Ġsets": 1575,
      "Ġclaims": 1576,
      "Ġdisc": 1577,
      "sch": 1578,
      "cor": 1579,
      "Ġ13": 1580,
      "Ġtold": 1581,
      "ison": 1582,
      "Ġtalks": 1583,
      "ba": 1584,
      "Ġpakistan": 1585,
      "Ġmad": 1586,
      "Ġcompan": 1587,
      "uly": 1588,
      "Ġcolleges": 1589,
      "ces": 1590,
      "Ġchalleng": 1591,
      "Ġfunds": 1592,
      "Ġfake": 1593,
      "Ġfinal": 1594,
      "hr": 1595,
      "ned": 1596,
      "Ġfraud": 1597,
      "rees": 1598,
      "ited": 1599,
      "Ġaward": 1600,
      "Ġris": 1601,
      "ury": 1602,
      "Ġpresident": 1603,
      "four": 1604,
      "Ġaf": 1605,
      "elling": 1606,
      "gy": 1607,
      "ears": 1608,
      "Ġtarg": 1609,
      "embly": 1610,
      "rib": 1611,
      "Ġlet": 1612,
      "Ġfirm": 1613,
      "ct": 1614,
      "Ġbirth": 1615,
      "aster": 1616,
      "uary": 1617,
      "Ġfive": 1618,
      "obal": 1619,
      "Ġob": 1620,
      "anth": 1621,
      "Ġsab": 1622,
      "Ġprices": 1623,
      "Ġmost": 1624,
      "hit": 1625,
      "govern": 1626,
      "Ġwon": 1627,
      "Ġwest": 1628,
      "Ġchina": 1629,
      "Ġsystem": 1630,
      "ination": 1631,
      "mon": 1632,
      "Ġpo": 1633,
      "will": 1634,
      "Ġband": 1635,
      "50": 1636,
      "Ġmob": 1637,
      "Ġmer": 1638,
      "Ġ19": 1639,
      "son": 1640,
      "ession": 1641,
      "Ġkarnataka": 1642,
      "Ġdriver": 1643,
      "goa": 1644,
      "kolkata": 1645,
      "Ġprivate": 1646,
      "Ġvillage": 1647,
      "vey": 1648,
      "icts": 1649,
      "Ġbad": 1650,
      "Ġmarri": 1651,
      "Ġav": 1652,
      "mi": 1653,
      "Ġquest": 1654,
      "Ġdevelopment": 1655,
      "Ġpers": 1656,
      "cle": 1657,
      "Ġresp": 1658,
      "avy": 1659,
      "Ġtelangana": 1660,
      "Ġval": 1661,
      "Ġengine": 1662,
      "pat": 1663,
      "Ġ18": 1664,
      "aur": 1665,
      "roach": 1666,
      "Ġpatients": 1667,
      "cp": 1668,
      "Ġq": 1669,
      "Ġkar": 1670,
      "Ġscheme": 1671,
      "angalore": 1672,
      "Ġsent": 1673,
      "ience": 1674,
      "ator": 1675,
      "Ġtw": 1676,
      "Ġah": 1677,
      "cb": 1678,
      "Ġseats": 1679,
      "Ġchildren": 1680,
      "law": 1681,
      "Ġthro": 1682,
      "ashes": 1683,
      "Ġcab": 1684,
      "cour": 1685,
      "less": 1686,
      "cov": 1687,
      "ails": 1688,
      "Ġsuc": 1689,
      "Ġchange": 1690,
      "Ġdepartment": 1691,
      "Ġkerala": 1692,
      "alk": 1693,
      "sm": 1694,
      "Ġpush": 1695,
      "power": 1696,
      "Ġfalls": 1697,
      "Ġbor": 1698,
      "bengal": 1699,
      "Ġservice": 1700,
      "telangana": 1701,
      "Ġanother": 1702,
      "ender": 1703,
      "Ġ16": 1704,
      "ca": 1705,
      "dy": 1706,
      "oung": 1707,
      "Ġpoor": 1708,
      "Ġ200": 1709,
      "Ġhours": 1710,
      "Ġlow": 1711,
      "Ġservices": 1712,
      "opal": 1713,
      "Ġshort": 1714,
      "Ġ24": 1715,
      "uv": 1716,
      "Ġflood": 1717,
      "Ġbetter": 1718,
      "itish": 1719,
      "ills": 1720,
      "Ġassault": 1721,
      "Ġbudget": 1722,
      "Ġfar": 1723,
      "Ġsin": 1724,
      "Ġgirls": 1725,
      "Ġsat": 1726,
      "Ġmanag": 1727,
      "high": 1728,
      "ire": 1729,
      "uel": 1730,
      "Ġlaunches": 1731,
      "pite": 1732,
      "Ġsafety": 1733,
      "urga": 1734,
      "Ġsen": 1735,
      "utes": 1736,
      "Ġreach": 1737,
      "tions": 1738,
      "iti": 1739,
      "mission": 1740,
      "gir": 1741,
      "Ġkilling": 1742,
      "nd": 1743,
      "pal": 1744,
      "Ġgra": 1745,
      "ging": 1746,
      "Ġdept": 1747,
      "Ġhurt": 1748,
      "ission": 1749,
      "Ġinsp": 1750,
      "mir": 1751,
      "Ġri": 1752,
      "Ġminist": 1753,
      "Ġlike": 1754,
      "Ġareas": 1755,
      "Ġanti": 1756,
      "Ġvacc": 1757,
      "Ġprice": 1758,
      "ane": 1759,
      "uple": 1760,
      "icks": 1761,
      "Ġloss": 1762,
      "why": 1763,
      "Ġproduc": 1764,
      "Ġcitiz": 1765,
      "Ġassembly": 1766,
      "ze": 1767,
      "Ġdeaths": 1768,
      "int": 1769,
      "karnataka": 1770,
      "Ġmusic": 1771,
      "Ġu": 1772,
      "Ġpropos": 1773,
      "cap": 1774,
      "Ġrally": 1775,
      "quor": 1776,
      "Ġlong": 1777,
      "Ġmade": 1778,
      "Ġcommission": 1779,
      "read": 1780,
      "Ġnight": 1781,
      "Ġshe": 1782,
      "Ġwaste": 1783,
      "khand": 1784,
      "ird": 1785,
      "Ġresults": 1786,
      "ukh": 1787,
      "Ġrah": 1788,
      "Ġcricket": 1789,
      "Ġcare": 1790,
      "Ġtv": 1791,
      "more": 1792,
      "Ġother": 1793,
      "ich": 1794,
      "Ġbuy": 1795,
      "Ġ202": 1796,
      "Ġsix": 1797,
      "ient": 1798,
      "ustral": 1799,
      "Ġcounc": 1800,
      "ble": 1801,
      "Ġhow": 1802,
      "water": 1803,
      "Ġfresh": 1804,
      "Ġbuilding": 1805,
      "Ġbust": 1806,
      "covid": 1807,
      "Ġcould": 1808,
      "Ġml": 1809,
      "isis": 1810,
      "Ġimp": 1811,
      "Ġsam": 1812,
      "era": 1813,
      "idge": 1814,
      "ony": 1815,
      "Ġtrade": 1816,
      "idd": 1817,
      "Ġdig": 1818,
      "ature": 1819,
      "Ġwatch": 1820,
      "ked": 1821,
      "Ġrajasthan": 1822,
      "Ġhal": 1823,
      "Ġfore": 1824,
      "school": 1825,
      "Ġsecret": 1826,
      "..": 1827,
      "let": 1828,
      "youth": 1829,
      "onom": 1830,
      "acy": 1831,
      "fin": 1832,
      "tamil": 1833,
      "ril": 1834,
      "Ġclos": 1835,
      "Ġmot": 1836,
      "Ġacqu": 1837,
      "Ġgh": 1838,
      "Ġstir": 1839,
      "court": 1840,
      "Ġmish": 1841,
      "centre": 1842,
      "imin": 1843,
      "Ġ17": 1844,
      "Ġdemands": 1845,
      "appy": 1846,
      "Ġrep": 1847,
      "Ġdaughter": 1848,
      "Ġtrack": 1849,
      "Ġrelease": 1850,
      "Ġkal": 1851,
      "arbage": 1852,
      "embers": 1853,
      "uns": 1854,
      "by": 1855,
      "ron": 1856,
      "';": 1857,
      "Ġdup": 1858,
      "tc": 1859,
      "Ġes": 1860,
      "off": 1861,
      "Ġbegin": 1862,
      "Ġcross": 1863,
      "isha": 1864,
      "'m": 1865,
      "round": 1866,
      "back": 1867,
      "Ġthrough": 1868,
      "bu": 1869,
      "ract": 1870,
      "Ġshut": 1871,
      "mod": 1872,
      "Ġelections": 1873,
      "Ġshop": 1874,
      "Ġthem": 1875,
      "Ġtrains": 1876,
      "Ġurg": 1877,
      "ality": 1878,
      "Ġnumb": 1879,
      "Ġbengaluru": 1880,
      "soon": 1881,
      "ewell": 1882,
      "Ġtoll": 1883,
      "Ġforest": 1884,
      "Ġsector": 1885,
      "Ġur": 1886,
      "oun": 1887,
      "ese": 1888,
      "Ġkey": 1889,
      "ode": 1890,
      "ley": 1891,
      "Ġhad": 1892,
      "Ġmom": 1893,
      "Ġrole": 1894,
      "mor": 1895,
      "Ġwithout": 1896,
      "hyderabad": 1897,
      "Ġdoes": 1898,
      "Ġbuses": 1899,
      "Ġcustody": 1900,
      "Ġsocial": 1901,
      "reg": 1902,
      "Ġoffer": 1903,
      "met": 1904,
      "bihar": 1905,
      "Ġsuspended": 1906,
      "Ġkidn": 1907,
      "udd": 1908,
      "Ġvs": 1909,
      "oints": 1910,
      "rajasthan": 1911,
      "Ġblast": 1912,
      "kerala": 1913,
      "Ġproperty": 1914,
      "gl": 1915,
      "Ġtro": 1916,
      "ajor": 1917,
      "vers": 1918,
      "so": 1919,
      "Ġanno": 1920,
      "mk": 1921,
      "Ġcentral": 1922,
      "Ġnov": 1923,
      "wali": 1924,
      "Ġcrisis": 1925,
      "what": 1926,
      "unk": 1927,
      "Ġver": 1928,
      "Ġhol": 1929,
      "hu": 1930,
      "ini": 1931,
      "Ġsit": 1932,
      "Ġmis": 1933,
      "Ġstor": 1934,
      "Ġhospitals": 1935,
      "Ġglobal": 1936,
      "igarh": 1937,
      "Ġlock": 1938,
      "Ġhang": 1939,
      "Ġbri": 1940,
      "Ġmany": 1941,
      "11": 1942,
      "edding": 1943,
      "Ġcaught": 1944,
      "inc": 1945,
      "Ġeyes": 1946,
      "do": 1947,
      "Ġless": 1948,
      "Ġgrowth": 1949,
      "Ġrate": 1950,
      "ii": 1951,
      "Ġleaves": 1952,
      "Ġdre": 1953,
      "ils": 1954,
      "Ġelection": 1955,
      "Ġstarts": 1956,
      "Ġdal": 1957,
      "ocus": 1958,
      "Ġcharges": 1959,
      "road": 1960,
      "Ġvide": 1961,
      "olen": 1962,
      "Ġpanch": 1963,
      "big": 1964,
      "Ġarmy": 1965,
      "Ġeye": 1966,
      "vir": 1967,
      "ras": 1968,
      "Ġcontinue": 1969,
      "Ġnoida": 1970,
      "Ġaud": 1971,
      "book": 1972,
      "Ġhom": 1973,
      "Ġparking": 1974,
      "Ġbhar": 1975,
      "chennai": 1976,
      "Ġfestival": 1977,
      "Ġsar": 1978,
      "cbi": 1979,
      "Ġparents": 1980,
      "Ġuk": 1981,
      "Ġblack": 1982,
      "Ġbal": 1983,
      "itness": 1984,
      "Ġevery": 1985,
      "Ġform": 1986,
      "Ġvehicles": 1987,
      "Ġcharge": 1988,
      "uit": 1989,
      "Ġothers": 1990,
      "Ġhary": 1991,
      "imb": 1992,
      "ending": 1993,
      "Ġfaces": 1994,
      "Ġdraw": 1995,
      "Ġ40": 1996,
      "Ġblock": 1997,
      "orn": 1998,
      "io": 1999,
      "Ġpositive": 2000,
      "Ġbring": 2001,
      "ible": 2002,
      "Ġprog": 2003,
      "aces": 2004,
      "Ġnorms": 2005,
      "Ġeff": 2006,
      "ify": 2007,
      "sl": 2008,
      "Ġbehind": 2009,
      "dra": 2010,
      "don": 2011,
      "Ġright": 2012,
      "Ġorgan": 2013,
      "Ġamb": 2014,
      "aker": 2015,
      "Ġexperts": 2016,
      "Ġharyana": 2017,
      "arma": 2018,
      "Ġsurvey": 2019,
      "Ġsave": 2020,
      "ensex": 2021,
      "Ġjune": 2022,
      "Ġheart": 2023,
      "rish": 2024,
      "Ġmedia": 2025,
      "olest": 2026,
      "Ġofficers": 2027,
      "students": 2028,
      "Ġcrack": 2029,
      "pan": 2030,
      "Ġcover": 2031,
      "Ġlink": 2032,
      "Ġcomes": 2033,
      "Ġshiv": 2034,
      "chi": 2035,
      "empt": 2036,
      "Ġhon": 2037,
      "Ġincre": 2038,
      "ening": 2039,
      "acket": 2040,
      "Ġworks": 2041,
      "Ġtak": 2042,
      "Ġexpress": 2043,
      "Ġsil": 2044,
      "Ġclash": 2045,
      "oms": 2046,
      "government": 2047,
      "Ġaug": 2048,
      "Ġann": 2049,
      "Ġpromot": 2050,
      "poll": 2051,
      "Ġpand": 2052,
      "Ġcoach": 2053,
      "Ġlok": 2054,
      "Ġunit": 2055,
      "abh": 2056,
      "pa": 2057,
      "Ġbomb": 2058,
      "Ġcond": 2059,
      "Ġslams": 2060,
      "Ġmembers": 2061,
      "ping": 2062,
      "Ġmess": 2063,
      "Ġspot": 2064,
      "Ġhind": 2065,
      "Ġmeets": 2066,
      "ooks": 2067,
      "itor": 2068,
      "Ġstolen": 2069,
      "Ġseason": 2070,
      "sur": 2071,
      "test": 2072,
      "gh": 2073,
      "Ġfather": 2074,
      "Ġboss": 2075,
      "Ġinstit": 2076,
      "wa": 2077,
      "vent": 2078,
      "Ġfish": 2079,
      "Ġharass": 2080,
      "Ġdecl": 2081,
      "Ġexpl": 2082,
      "ween": 2083,
      "du": 2084,
      "ield": 2085,
      "Ġliquor": 2086,
      "ize": 2087,
      "Ġlucknow": 2088,
      "Ġer": 2089,
      "Ġburn": 2090,
      "alls": 2091,
      "itation": 2092,
      "Ġchamp": 2093,
      "Ġexams": 2094,
      "aks": 2095,
      "odies": 2096,
      "Ġconc": 2097,
      "ier": 2098,
      "inet": 2099,
      "Ġcontest": 2100,
      "Ġbas": 2101,
      "Ġmor": 2102,
      "umps": 2103,
      "Ġleave": 2104,
      "Ġground": 2105,
      "Ġhope": 2106,
      "jee": 2107,
      "Ġdirector": 2108,
      "rat": 2109,
      "asts": 2110,
      "Ġlim": 2111,
      "Ġash": 2112,
      "ashmir": 2113,
      "ami": 2114,
      "Ġsr": 2115,
      "when": 2116,
      "Ġwait": 2117,
      "Ġforeign": 2118,
      "aram": 2119,
      "agers": 2120,
      "achal": 2121,
      "Ġpal": 2122,
      "Ġmother": 2123,
      "Ġshare": 2124,
      "Ġbetween": 2125,
      "Ġcard": 2126,
      "adhya": 2127,
      "Ġ2018": 2128,
      "ulls": 2129,
      "work": 2130,
      "Ġic": 2131,
      "eet": 2132,
      "ude": 2133,
      "ashik": 2134,
      "Ġvictim": 2135,
      "fire": 2136,
      "ague": 2137,
      "Ġacross": 2138,
      "Ġmoves": 2139,
      "Ġmill": 2140,
      "Ġjo": 2141,
      "iance": 2142,
      "sr": 2143,
      "rel": 2144,
      "Ġrescued": 2145,
      "ita": 2146,
      "Ġfails": 2147,
      "Ġsees": 2148,
      "Ġce": 2149,
      "Ġcam": 2150,
      "Ġfiles": 2151,
      "Ġhub": 2152,
      "Ġvictims": 2153,
      "Ġcancer": 2154,
      "Ġracket": 2155,
      "Ġuttar": 2156,
      "Ġmand": 2157,
      "can": 2158,
      "Ġhum": 2159,
      "itter": 2160,
      "ount": 2161,
      "Ġtimes": 2162,
      "Ġpur": 2163,
      "Ġspace": 2164,
      "struction": 2165,
      "Ġupd": 2166,
      "Ġclaim": 2167,
      "Ġjobs": 2168,
      "Ġloses": 2169,
      "Ġfast": 2170,
      "doc": 2171,
      "Ġsome": 2172,
      "gp": 2173,
      "Ġviolence": 2174,
      "Ġai": 2175,
      "Ġcrit": 2176,
      "Ġahmedabad": 2177,
      "Ġtarget": 2178,
      "cy": 2179,
      "Ġfle": 2180,
      "Ġconst": 2181,
      "Ġfact": 2182,
      "Ġdro": 2183,
      "urgaon": 2184,
      "ahmedabad": 2185,
      "Ġdog": 2186,
      "five": 2187,
      "punjab": 2188,
      "Ġpeace": 2189,
      "Ġouts": 2190,
      "mad": 2191,
      "sa": 2192,
      "Ġleft": 2193,
      "':": 2194,
      "sw": 2195,
      "farm": 2196,
      "ired": 2197,
      "ology": 2198,
      "free": 2199,
      "Ġvars": 2200,
      "Ġid": 2201,
      "Ġmc": 2202,
      "que": 2203,
      "Ġapril": 2204,
      "Ġjuly": 2205,
      "Ġsept": 2206,
      "Ġrahul": 2207,
      "Ġchang": 2208,
      "Ġprov": 2209,
      "Ġfee": 2210,
      "Ġpad": 2211,
      "Ġyoung": 2212,
      "Ġaid": 2213,
      "Ġconf": 2214,
      "Ġauthor": 2215,
      "iffer": 2216,
      "Ġprocess": 2217,
      "istration": 2218,
      "sal": 2219,
      "Ġdrop": 2220,
      "Ġpra": 2221,
      "Ġmem": 2222,
      "Ġoil": 2223,
      "rail": 2224,
      "ete": 2225,
      "Ġarr": 2226,
      "Ġgre": 2227,
      "Ġdiscuss": 2228,
      "Ġsuccess": 2229,
      "Ġsabha": 2230,
      "Ġsale": 2231,
      "ris": 2232,
      "Ġattacks": 2233,
      "Ġcitizens": 2234,
      "adav": 2235,
      "Ġtit": 2236,
      "Ġcommun": 2237,
      "this": 2238,
      "ikh": 2239,
      "aksh": 2240,
      "Ġoffers": 2241,
      "Ġgod": 2242,
      "Ġdoctor": 2243,
      "Ġfocus": 2244,
      "Ġwedding": 2245,
      "Ġcandidates": 2246,
      "engue": 2247,
      "Ġany": 2248,
      "Ġtests": 2249,
      "top": 2250,
      "Ġrecords": 2251,
      "Ġchop": 2252,
      "women": 2253,
      "Ġindustry": 2254,
      "Ġcontinues": 2255,
      "Ġmlas": 2256,
      "aji": 2257,
      "Ġconduc": 2258,
      "Ġgener": 2259,
      "of": 2260,
      "alu": 2261,
      "Ġwhat": 2262,
      "Ġcouple": 2263,
      "Ġlic": 2264,
      "Ġcontrol": 2265,
      "inter": 2266,
      "bengaluru": 2267,
      "Ġtruck": 2268,
      "bir": 2269,
      "Ġstates": 2270,
      "haz": 2271,
      "Ġtaking": 2272,
      "usband": 2273,
      "Ġbanks": 2274,
      "Ġbridge": 2275,
      "Ġsmart": 2276,
      "Ġnagar": 2277,
      "Ġvideo": 2278,
      "pass": 2279,
      "Ġ26": 2280,
      "here": 2281,
      "bar": 2282,
      "Ġline": 2283,
      "Ġnabbed": 2284,
      "'d": 2285,
      "mus": 2286,
      "Ġkn": 2287,
      "Ġka": 2288,
      "rial": 2289,
      "Ġreturns": 2290,
      "Ġtechn": 2291,
      "igr": 2292,
      "amed": 2293,
      "chand": 2294,
      "va": 2295,
      "opes": 2296,
      "Ġfear": 2297,
      "ollow": 2298,
      "Ġannounc": 2299,
      "Ġour": 2300,
      "Ġknow": 2301,
      "harkhand": 2302,
      "Ġbattle": 2303,
      "Ġauto": 2304,
      "unn": 2305,
      "mah": 2306,
      "Ġclub": 2307,
      "akhand": 2308,
      "Ġrights": 2309,
      "Ġconn": 2310,
      "Ġmeeting": 2311,
      "Ġ22": 2312,
      "gu": 2313,
      "Ġopens": 2314,
      "dis": 2315,
      "Ġpolitical": 2316,
      "ustralia": 2317,
      "Ġlear": 2318,
      "Ġvote": 2319,
      "Ġmolest": 2320,
      "Ġjam": 2321,
      "ences": 2322,
      "po": 2323,
      "Ġfile": 2324,
      "Ġfut": 2325,
      "Ġcards": 2326,
      "Ġandhra": 2327,
      "pay": 2328,
      "Ġyog": 2329,
      "Ġnorth": 2330,
      "lo": 2331,
      "gang": 2332,
      "mo": 2333,
      "Ġdrow": 2334,
      "ran": 2335,
      "Ġhere": 2336,
      "Ġsurv": 2337,
      "ament": 2338,
      "Ġputs": 2339,
      "sensex": 2340,
      "Ġstage": 2341,
      "Ġcouncil": 2342,
      "Ġpress": 2343,
      "Ġforce": 2344,
      "Ġha": 2345,
      "Ġleads": 2346,
      "Ġlocal": 2347,
      "mons": 2348,
      "iven": 2349,
      "lim": 2350,
      "rid": 2351,
      "foot": 2352,
      "ster": 2353,
      "Ġcrime": 2354,
      "andhra": 2355,
      "friend": 2356,
      "Ġsales": 2357,
      "Ġtown": 2358,
      "Ġ21": 2359,
      "Ġfre": 2360,
      "Ġsqu": 2361,
      "Ġalert": 2362,
      "Ġinternational": 2363,
      "Ġmatch": 2364,
      "Ġbang": 2365,
      "ourn": 2366,
      "ela": 2367,
      "Ġcentres": 2368,
      "bus": 2369,
      "Ġwell": 2370,
      "Ġang": 2371,
      "Ġnagpur": 2372,
      "Ġmarriage": 2373,
      "Ġquota": 2374,
      "Ġlevel": 2375,
      "Ġbags": 2376,
      "Ġfix": 2377,
      "Ġbodies": 2378,
      "Ġgur": 2379,
      "ler": 2380,
      "Ġpasseng": 2381,
      "Ġsong": 2382,
      "Ġcell": 2383,
      "ench": 2384,
      "Ġna": 2385,
      "with": 2386,
      "Ġstab": 2387,
      "Ġtow": 2388,
      "Ġtransfer": 2389,
      "west": 2390,
      "Ġcontract": 2391,
      "tech": 2392,
      "ider": 2393,
      "Ġearly": 2394,
      "Ġdiwali": 2395,
      "Ġhard": 2396,
      "Ġpollution": 2397,
      "ja": 2398,
      "Ġsell": 2399,
      "aug": 2400,
      "ores": 2401,
      "Ġsharma": 2402,
      "Ġpoints": 2403,
      "Ġsoci": 2404,
      "garh": 2405,
      "Ġloan": 2406,
      "Ġident": 2407,
      "Ġwoes": 2408,
      "ified": 2409,
      "nam": 2410,
      "ayat": 2411,
      "eth": 2412,
      "gi": 2413,
      "Ġlives": 2414,
      "Ġmajor": 2415,
      "Ġ(": 2416,
      "Ġcuts": 2417,
      "Ġraise": 2418,
      "Ġbirthday": 2419,
      "enue": 2420,
      "Ġkan": 2421,
      "Ġnon": 2422,
      "Ġbusted": 2423,
      "Ġbene": 2424,
      "riends": 2425,
      "Ġstep": 2426,
      "Ġmilit": 2427,
      "arks": 2428,
      "Ġfriend": 2429,
      "Ġloot": 2430,
      "Ġflu": 2431,
      "hous": 2432,
      "Ġhist": 2433,
      "Ġperson": 2434,
      "eds": 2435,
      "Ġkashmir": 2436,
      "Ġimpro": 2437,
      "12": 2438,
      "Ġpaper": 2439,
      "Ġvijay": 2440,
      "Ġprotests": 2441,
      "Ġdata": 2442,
      "Ġevent": 2443,
      "Ġmobile": 2444,
      "Ġsena": 2445,
      "Ġthird": 2446,
      "Ġneeds": 2447,
      "Ġflight": 2448,
      "Ġfinds": 2449,
      "Ġlawy": 2450,
      "pet": 2451,
      "hary": 2452,
      "mu": 2453,
      "Ġsuff": 2454,
      "Ġlive": 2455,
      "enders": 2456,
      "ward": 2457,
      "Ġguard": 2458,
      "Ġeconom": 2459,
      "Ġupdate": 2460,
      "eal": 2461,
      "Ġsim": 2462,
      "Ġreve": 2463,
      "Ġmag": 2464,
      "Ġshows": 2465,
      "Ġteen": 2466,
      "ained": 2467,
      "Ġdistricts": 2468,
      "ced": 2469,
      "Ġmining": 2470,
      "Ġtransport": 2471,
      "iday": 2472,
      "Ġparties": 2473,
      "Ġproble": 2474,
      "yan": 2475,
      "Ġbecome": 2476,
      "Ġgames": 2477,
      "ipur": 2478,
      "Ġbaby": 2479,
      "Ġlif": 2480,
      "atter": 2481,
      "Ġdump": 2482,
      "Ġrule": 2483,
      "Ġadmin": 2484,
      "Ġname": 2485,
      "Ġallow": 2486,
      "pre": 2487,
      "Ġtheft": 2488,
      "kal": 2489,
      "former": 2490,
      "Ġemployees": 2491,
      "china": 2492,
      "Ġriver": 2493,
      "Ġlake": 2494,
      "Ġvoters": 2495,
      "Ġstatus": 2496,
      "Ġrural": 2497,
      "inder": 2498,
      "jd": 2499,
      "ula": 2500,
      "ugram": 2501,
      "Ġheat": 2502,
      "Ġattend": 2503,
      "des": 2504,
      "Ġtiger": 2505,
      "Ġsafe": 2506,
      "15": 2507,
      "itten": 2508,
      "Ġbik": 2509,
      "Ġposts": 2510,
      "Ġsand": 2511,
      "world": 2512,
      "Ġport": 2513,
      "Ġwalk": 2514,
      "awan": 2515,
      "Ġgarbage": 2516,
      "Ġthey": 2517,
      "Ġbrings": 2518,
      "Ġsan": 2519,
      "Ġamid": 2520,
      "Ġscreen": 2521,
      "pri": 2522,
      "asi": 2523,
      "Ġreserv": 2524,
      "morrow": 2525,
      "Ġexc": 2526,
      "gn": 2527,
      "Ġtomorrow": 2528,
      "urai": 2529,
      "Ġfirms": 2530,
      "Ġappro": 2531,
      "amata": 2532,
      "Ġbenef": 2533,
      "teach": 2534,
      "Ġsteps": 2535,
      "Ġgovernor": 2536,
      "come": 2537,
      "car": 2538,
      "Ġwel": 2539,
      "Ġformer": 2540,
      "Ġtough": 2541,
      "uja": 2542,
      "Ġbollywood": 2543,
      "apan": 2544,
      "tor": 2545,
      "set": 2546,
      "Ġbangalore": 2547,
      "Ġtouch": 2548,
      "Ġpatna": 2549,
      "ji": 2550,
      "Ġtn": 2551,
      "eeps": 2552,
      "ared": 2553,
      "jun": 2554,
      "time": 2555,
      "Ġdouble": 2556,
      "reme": 2557,
      "Ġduty": 2558,
      "Ġhusband": 2559,
      "Ġunits": 2560,
      "put": 2561,
      "eric": 2562,
      "Ġlabour": 2563,
      "Ġraises": 2564,
      "Ġtel": 2565,
      "Ġlose": 2566,
      "Ġgun": 2567,
      "Ġraped": 2568,
      "Ġpop": 2569,
      "Ġshops": 2570,
      "Ġrates": 2571,
      "Ġlight": 2572,
      "astic": 2573,
      "emic": 2574,
      "anded": 2575,
      "rist": 2576,
      "roc": 2577,
      "col": 2578,
      "Ġtravel": 2579,
      "pir": 2580,
      "Ġaap": 2581,
      "Ġbike": 2582,
      "Ġrece": 2583,
      "Ġconcern": 2584,
      "Ġdirect": 2585,
      "Ġborder": 2586,
      "ulture": 2587,
      "Ġnarendra": 2588,
      "Ġcal": 2589,
      "awar": 2590,
      "Ġescap": 2591,
      "Ġwhile": 2592,
      "Ġdiffer": 2593,
      "Ġrepl": 2594,
      "Ġmanagement": 2595,
      "ples": 2596,
      "Ġphot": 2597,
      "Ġbur": 2598,
      "fall": 2599,
      "odh": 2600,
      "Ġsports": 2601,
      "erc": 2602,
      "atra": 2603,
      "Ġowners": 2604,
      "Ġplace": 2605,
      "Ġjewell": 2606,
      "Ġpasses": 2607,
      "ef": 2608,
      "iction": 2609,
      "erve": 2610,
      "Ġjaipur": 2611,
      "dp": 2612,
      "yanka": 2613,
      "Ġfollow": 2614,
      "Ġrejects": 2615,
      "Ġurges": 2616,
      "ances": 2617,
      "net": 2618,
      "Ġfilms": 2619,
      "Ġsteal": 2620,
      "Ġgot": 2621,
      "Ġcho": 2622,
      "Ġhelps": 2623,
      "Ġcert": 2624,
      "Ġforces": 2625,
      "Ġill": 2626,
      "Ġshif": 2627,
      "Ġarea": 2628,
      "Ġawards": 2629,
      "Ġhands": 2630,
      "aily": 2631,
      "Ġrush": 2632,
      "hold": 2633,
      "Ġgas": 2634,
      "ira": 2635,
      "Ġties": 2636,
      "gen": 2637,
      "aran": 2638,
      "aries": 2639,
      "Ġwhy": 2640,
      "Ġdecision": 2641,
      "Ġfair": 2642,
      "Ġcapt": 2643,
      "avan": 2644,
      "ners": 2645,
      "Ġut": 2646,
      "cs": 2647,
      "fi": 2648,
      "ume": 2649,
      "Ġrisk": 2650,
      "Ġran": 2651,
      "Ġsem": 2652,
      "cop": 2653,
      "unction": 2654,
      "Ġrises": 2655,
      "Ġteacher": 2656,
      "Ġbigg": 2657,
      "Ġbrother": 2658,
      "avour": 2659,
      "Ġlost": 2660,
      "Ġalleges": 2661,
      "Ġsession": 2662,
      "Ġreports": 2663,
      "ton": 2664,
      "six": 2665,
      "Ġyadav": 2666,
      "Ġnumber": 2667,
      "ittee": 2668,
      "Ġhotel": 2669,
      "Ġbra": 2670,
      "pers": 2671,
      "apped": 2672,
      "Ġwithdra": 2673,
      "Ġwarns": 2674,
      "Ġmishap": 2675,
      "bab": 2676,
      "itage": 2677,
      "Ġremain": 2678,
      "Ġstreet": 2679,
      "Ġcatch": 2680,
      "Ġremov": 2681,
      "Ġcompanies": 2682,
      "Ġcrimin": 2683,
      "Ġspeed": 2684,
      "another": 2685,
      "Ġactivists": 2686,
      "bery": 2687,
      "Ġspl": 2688,
      "urance": 2689,
      "Ġho": 2690,
      "Ġgrand": 2691,
      "Ġcause": 2692,
      "aged": 2693,
      "Ġvarsity": 2694,
      "Ġunion": 2695,
      "Ġroy": 2696,
      "pres": 2697,
      "ections": 2698,
      "achin": 2699,
      "Ġmurdered": 2700,
      "Ġpromises": 2701,
      "Ġ23": 2702,
      "Ġused": 2703,
      "Ġsuper": 2704,
      "idence": 2705,
      "Ġcountry": 2706,
      "Ġabduc": 2707,
      "Ġvillages": 2708,
      "Ġest": 2709,
      "Ġtreatment": 2710,
      "part": 2711,
      "ensure": 2712,
      "Ġholds": 2713,
      "Ġfron": 2714,
      "Ġdream": 2715,
      "Ġfine": 2716,
      "Ġthrow": 2717,
      "rec": 2718,
      "Ġlooks": 2719,
      "Ġod": 2720,
      "girl": 2721,
      "ses": 2722,
      "Ġspread": 2723,
      "Ġsel": 2724,
      "Ġko": 2725,
      "Ġinfl": 2726,
      "iter": 2727,
      "sup": 2728,
      "Ġemer": 2729,
      "Ġtrial": 2730,
      "Ġgame": 2731,
      "Ġquar": 2732,
      "inese": 2733,
      "isation": 2734,
      "ni": 2735,
      "Ġconstruction": 2736,
      "hib": 2737,
      "Ġlaunched": 2738,
      "Ġoc": 2739,
      "modi": 2740,
      "inf": 2741,
      "Ġraping": 2742,
      "may": 2743,
      "acked": 2744,
      "oles": 2745,
      "Ġterm": 2746,
      "atory": 2747,
      "Ġindians": 2748,
      "Ġeas": 2749,
      "cept": 2750,
      "uz": 2751,
      "Ġipl": 2752,
      "Ġstations": 2753,
      "mits": 2754,
      "ivil": 2755,
      "Ġseat": 2756,
      "Ġcrow": 2757,
      "Ġstory": 2758,
      "Ġstays": 2759,
      "Ġ60": 2760,
      "ising": 2761,
      "special": 2762,
      "Ġtourism": 2763,
      "Ġplayers": 2764,
      "Ġpolitics": 2765,
      "Ġshares": 2766,
      "Ġpast": 2767,
      "Ġlegal": 2768,
      "Ġchampions": 2769,
      "Ġmo": 2770,
      "Ġhor": 2771,
      "Ġdebut": 2772,
      "39": 2773,
      "eness": 2774,
      "Ġbiz": 2775,
      "Ġnom": 2776,
      "au": 2777,
      "Ġip": 2778,
      "Ġresign": 2779,
      "Ġphone": 2780,
      "oog": 2781,
      "Ġowner": 2782,
      "Ġbribe": 2783,
      "Ġcourse": 2784,
      "Ġequ": 2785,
      "Ġcampus": 2786,
      "Ġsite": 2787,
      "ided": 2788,
      "athi": 2789,
      "Ġmas": 2790,
      "Ġasked": 2791,
      "life": 2792,
      "Ġwritten": 2793,
      "ev": 2794,
      "Ġchallenge": 2795,
      "first": 2796,
      "vt": 2797,
      "Ġpics": 2798,
      "Ġjay": 2799,
      "bre": 2800,
      "Ġdisp": 2801,
      "elled": 2802,
      "Ġdate": 2803,
      "Ġhopes": 2804,
      "wan": 2805,
      "urch": 2806,
      "Ġmaking": 2807,
      "Ġzone": 2808,
      "Ġvid": 2809,
      "Ġinterest": 2810,
      "gether": 2811,
      "ification": 2812,
      "Ġjoins": 2813,
      "Ġrao": 2814,
      "Ġmoh": 2815,
      "Ġchh": 2816,
      "shah": 2817,
      "ek": 2818,
      "Ġappl": 2819,
      "dev": 2820,
      "rd": 2821,
      "Ġdecember": 2822,
      "Ġdrugs": 2823,
      "Ġregion": 2824,
      "ense": 2825,
      "ruption": 2826,
      "overs": 2827,
      "Ġactor": 2828,
      "lish": 2829,
      "Ġtree": 2830,
      "Ġdenies": 2831,
      "Ġvehicle": 2832,
      "Ġdeep": 2833,
      "Ġdest": 2834,
      "Ġministry": 2835,
      "Ġsund": 2836,
      "gold": 2837,
      "Ġay": 2838,
      "dh": 2839,
      "Ġdad": 2840,
      "civic": 2841,
      "Ġclose": 2842,
      "izz": 2843,
      "iation": 2844,
      "Ġsnatch": 2845,
      "Ġwall": 2846,
      "akers": 2847,
      "Ġfriends": 2848,
      "Ġdrivers": 2849,
      "ila": 2850,
      "Ġcrash": 2851,
      "500": 2852,
      "Ġdu": 2853,
      "Ġround": 2854,
      "Ġfull": 2855,
      "14": 2856,
      "Ġyrs": 2857,
      "Ġsince": 2858,
      "Ġroll": 2859,
      "Ġreb": 2860,
      "jri": 2861,
      "Ġlocals": 2862,
      "Ġali": 2863,
      "rishna": 2864,
      "inks": 2865,
      "Ġcos": 2866,
      "Ġnav": 2867,
      "arun": 2868,
      "Ġreleased": 2869,
      "Ġmodel": 2870,
      "Ġdespite": 2871,
      "Ġalleg": 2872,
      "Ġjanuary": 2873,
      "Ġsle": 2874,
      "Ġwind": 2875,
      "Ġruns": 2876,
      "traffic": 2877,
      "Ġmao": 2878,
      "yle": 2879,
      "rip": 2880,
      "Ġwhen": 2881,
      "Ġsold": 2882,
      "Ġdengue": 2883,
      "Ġtrees": 2884,
      "Ġgiven": 2885,
      "Ġinaug": 2886,
      "oni": 2887,
      "Ġtitle": 2888,
      "Ġmonsoon": 2889,
      "Ġdhar": 2890,
      "Ġtur": 2891,
      "Ġdom": 2892,
      "Ġsecretary": 2893,
      "pn": 2894,
      "Ġprogram": 2895,
      "ades": 2896,
      "mr": 2897,
      "Ġyouths": 2898,
      "Ġsenior": 2899,
      "Ġjudge": 2900,
      "Ġaugust": 2901,
      "Ġpict": 2902,
      "aints": 2903,
      "Ġ27": 2904,
      "oned": 2905,
      "Ġdeg": 2906,
      "eline": 2907,
      "bing": 2908,
      "oogle": 2909,
      "Ġbach": 2910,
      "ements": 2911,
      "Ġrobbed": 2912,
      "ichy": 2913,
      "anda": 2914,
      "Ġgurgaon": 2915,
      "haryana": 2916,
      "cci": 2917,
      "nagpur": 2918,
      "Ġrock": 2919,
      "Ġdismiss": 2920,
      "Ġimm": 2921,
      "Ġhouses": 2922,
      "Ġtogether": 2923,
      "Ġfuture": 2924,
      "Ġchair": 2925,
      "gery": 2926,
      "anger": 2927,
      "Ġcommittee": 2928,
      "Ġrefuses": 2929,
      "Ġbond": 2930,
      "Ġmayor": 2931,
      "Ġtraining": 2932,
      "Ġfeel": 2933,
      "hazi": 2934,
      "30": 2935,
      "path": 2936,
      "ashion": 2937,
      "Ġwa": 2938,
      "anjay": 2939,
      "Ġresearch": 2940,
      "mas": 2941,
      "ilities": 2942,
      "Ġ28": 2943,
      "ishes": 2944,
      "Ġiit": 2945,
      "Ġhighway": 2946,
      "missions": 2947,
      "Ġcelebrate": 2948,
      "17": 2949,
      "ksh": 2950,
      "Ġcompany": 2951,
      "Ġdecide": 2952,
      "ium": 2953,
      "Ġkeeps": 2954,
      "health": 2955,
      "Ġshr": 2956,
      "Ġrescue": 2957,
      "fr": 2958,
      "ng": 2959,
      "mark": 2960,
      "Ġrevenue": 2961,
      "cal": 2962,
      "lucknow": 2963,
      "Ġjustice": 2964,
      "25": 2965,
      "Ġquestion": 2966,
      "oid": 2967,
      "Ġwitness": 2968,
      "Ġbox": 2969,
      "Ġcapital": 2970,
      "kan": 2971,
      "Ġadmission": 2972,
      "Ġhigher": 2973,
      "aving": 2974,
      "Ġtalk": 2975,
      "jriwal": 2976,
      "Ġhappy": 2977,
      "pakistan": 2978,
      "ucture": 2979,
      "haziabad": 2980,
      "Ġfront": 2981,
      "eat": 2982,
      "Ġride": 2983,
      "Ġage": 2984,
      "pc": 2985,
      "Ġbmc": 2986,
      "Ġcomplaint": 2987,
      "Ġdaily": 2988,
      "nath": 2989,
      "onse": 2990,
      "Ġge": 2991,
      "tober": 2992,
      "Ġsearch": 2993,
      "Ġdeadline": 2994,
      "ergy": 2995,
      "su": 2996,
      "most": 2997,
      "Ġtraders": 2998,
      "ials": 2999,
      "Ġtaken": 3000,
      "Ġinaugur": 3001,
      "Ġpip": 3002,
      "enal": 3003,
      "Ġexec": 3004,
      "forms": 3005,
      "Ġoutside": 3006,
      "Ġ2017": 3007,
      "Ġhearing": 3008,
      "Ġceo": 3009,
      "inking": 3010,
      "play": 3011,
      "Ġquestions": 3012,
      "action": 3013,
      "clus": 3014,
      "ention": 3015,
      "Ġleak": 3016,
      "Ġblasts": 3017,
      "Ġmass": 3018,
      "Ġeven": 3019,
      "Ġregister": 3020,
      "idu": 3021,
      "boy": 3022,
      "Ġsociety": 3023,
      "Ġcabinet": 3024,
      "Ġrepair": 3025,
      "igil": 3026,
      "Ġsmall": 3027,
      "dict": 3028,
      "ieves": 3029,
      "Ġaround": 3030,
      "Ġcheating": 3031,
      "acc": 3032,
      "itions": 3033,
      "osh": 3034,
      "hot": 3035,
      "Ġassam": 3036,
      "bank": 3037,
      "Ġsummer": 3038,
      "Ġhistory": 3039,
      "Ġsalman": 3040,
      "Ġsmugg": 3041,
      "etch": 3042,
      "Ġfuel": 3043,
      "uted": 3044,
      "Ġwere": 3045,
      "Ġant": 3046,
      "acker": 3047,
      "post": 3048,
      "lex": 3049,
      "Ġdid": 3050,
      "ough": 3051,
      "lers": 3052,
      "16": 3053,
      "Ġcred": 3054,
      "Ġrace": 3055,
      "open": 3056,
      "Ġvisits": 3057,
      "bal": 3058,
      "Ġbandh": 3059,
      "Ġaj": 3060,
      "bad": 3061,
      "opard": 3062,
      "Ġ2019": 3063,
      "oke": 3064,
      "Ġenter": 3065,
      "kg": 3066,
      "sy": 3067,
      "atr": 3068,
      "Ġren": 3069,
      "Ġresponse": 3070,
      "Ġdip": 3071,
      "Ġtrouble": 3072,
      "kot": 3073,
      "Ġfun": 3074,
      "child": 3075,
      "Ġquality": 3076,
      "Ġcars": 3077,
      "Ġtag": 3078,
      "Ġjourn": 3079,
      "Ġentry": 3080,
      "Ġincrease": 3081,
      "Ġjun": 3082,
      "Ġcourses": 3083,
      "Ġide": 3084,
      "Ġsri": 3085,
      "polit": 3086,
      "abled": 3087,
      "Ġflat": 3088,
      "ko": 3089,
      "Ġspir": 3090,
      "farmers": 3091,
      "onment": 3092,
      "agh": 3093,
      "Ġappoint": 3094,
      "Ġdesign": 3095,
      "Ġnever": 3096,
      "Ġmillion": 3097,
      "Ġsun": 3098,
      "nor": 3099,
      "aled": 3100,
      "Ġfiled": 3101,
      "based": 3102,
      "chan": 3103,
      "amal": 3104,
      "Ġresol": 3105,
      "only": 3106,
      "Ġgoing": 3107,
      "army": 3108,
      "month": 3109,
      "Ġeast": 3110,
      "Ġencroach": 3111,
      "sid": 3112,
      "ests": 3113,
      "eed": 3114,
      "ollar": 3115,
      "ares": 3116,
      "Ġvaccine": 3117,
      "Ġcir": 3118,
      "Ġoctober": 3119,
      "Ġtrying": 3120,
      "Ġsigns": 3121,
      "dem": 3122,
      "Ġjag": 3123,
      "Ġbecom": 3124,
      "Ġannounces": 3125,
      "Ġflights": 3126,
      "vijay": 3127,
      "Ġign": 3128,
      "ulf": 3129,
      "ashed": 3130,
      "Ġbhopal": 3131,
      "Ġheritage": 3132,
      "Ġstake": 3133,
      "from": 3134,
      "football": 3135,
      "Ġfort": 3136,
      "urgl": 3137,
      "hel": 3138,
      "Ġdeliver": 3139,
      "Ġ2015": 3140,
      "arge": 3141,
      "Ġoly": 3142,
      "icit": 3143,
      "Ġnote": 3144,
      "Ġ2014": 3145,
      "want": 3146,
      "iit": 3147,
      "Ġsanc": 3148,
      "ivity": 3149,
      "adha": 3150,
      "Ġhousing": 3151,
      "Ġhonour": 3152,
      "nagar": 3153,
      "Ġcoal": 3154,
      "ried": 3155,
      "Ġlockdown": 3156,
      "Ġtank": 3157,
      "Ġstrong": 3158,
      "Ġpassengers": 3159,
      "Ġarms": 3160,
      "Ġawar": 3161,
      "Ġassoc": 3162,
      "liament": 3163,
      "ema": 3164,
      "trad": 3165,
      "Ġdemol": 3166,
      "Ġdefence": 3167,
      "Ġawareness": 3168,
      "Ġ31": 3169,
      "Ġanim": 3170,
      "Ġwid": 3171,
      "many": 3172,
      "Ġaustralia": 3173,
      "Ġwithin": 3174,
      "rahul": 3175,
      "hal": 3176,
      "Ġworking": 3177,
      "oli": 3178,
      "Ġchopra": 3179,
      "rav": 3180,
      "bomb": 3181,
      "shar": 3182,
      "Ġflag": 3183,
      "Ġflyover": 3184,
      "key": 3185,
      "Ġquit": 3186,
      "Ġtrail": 3187,
      "Ġolymp": 3188,
      "uters": 3189,
      "Ġcompens": 3190,
      "tors": 3191,
      "Ġstocks": 3192,
      "incip": 3193,
      "Ġpapers": 3194,
      "using": 3195,
      "Ġstars": 3196,
      "quir": 3197,
      "Ġcollection": 3198,
      "sn": 3199,
      "uce": 3200,
      "Ġthreaten": 3201,
      "Ġrecr": 3202,
      "itional": 3203,
      "Ġopposition": 3204,
      "Ġpath": 3205,
      "Ġroute": 3206,
      "Ġhaz": 3207,
      "ero": 3208,
      "Ġhangs": 3209,
      "Ġread": 3210,
      "hs": 3211,
      "Ġaspir": 3212,
      "pf": 3213,
      "aap": 3214,
      "Ġseries": 3215,
      "Ġpick": 3216,
      "Ġcurb": 3217,
      "18": 3218,
      "Ġprison": 3219,
      "Ġearn": 3220,
      "Ġsexual": 3221,
      "aced": 3222,
      "Ġki": 3223,
      "Ġplot": 3224,
      "Ġnovember": 3225,
      "Ġvan": 3226,
      "Ġdriving": 3227,
      "Ġmuk": 3228,
      "ands": 3229,
      "Ġfinanc": 3230,
      "echi": 3231,
      "Ġmind": 3232,
      "Ġattempt": 3233,
      "oper": 3234,
      "Ġans": 3235,
      "pura": 3236,
      "Ġprofit": 3237,
      "Ġhuman": 3238,
      "km": 3239,
      "Ġalong": 3240,
      "Ġward": 3241,
      "Ġnames": 3242,
      "rem": 3243,
      "ickets": 3244,
      "Ġtrig": 3245,
      "Ġcreate": 3246,
      "Ġcold": 3247,
      "Ġgan": 3248,
      "Ġtar": 3249,
      "Ġusing": 3250,
      "Ġvillagers": 3251,
      "Ġticket": 3252,
      "Ġfavour": 3253,
      "Ġrains": 3254,
      "emp": 3255,
      "Ġharassment": 3256,
      "13": 3257,
      "dec": 3258,
      "Ġdance": 3259,
      "ighb": 3260,
      "Ġafric": 3261,
      "Ġnashik": 3262,
      "ky": 3263,
      "ounter": 3264,
      "Ġcandidate": 3265,
      "run": 3266,
      "Ġphase": 3267,
      "rab": 3268,
      "ound": 3269,
      "ona": 3270,
      "Ġscience": 3271,
      "Ġpc": 3272,
      "Ġgad": 3273,
      "meet": 3274,
      "Ġfans": 3275,
      "Ġvol": 3276,
      "Ġmid": 3277,
      "Ġak": 3278,
      "andal": 3279,
      "rape": 3280,
      "odara": 3281,
      "Ġmall": 3282,
      "Ġconsum": 3283,
      "Ġsonia": 3284,
      "Ġmission": 3285,
      "view": 3286,
      "Ġhomes": 3287,
      "Ġsuspect": 3288,
      "Ġcivil": 3289,
      "Ġfamilies": 3290,
      "Ġdetained": 3291,
      "uri": 3292,
      "Ġprepar": 3293,
      "Ġhighest": 3294,
      "Ġmedic": 3295,
      "Ġcelebrations": 3296,
      "Ġfew": 3297,
      "tv": 3298,
      "uation": 3299,
      "yam": 3300,
      "Ġleague": 3301,
      "Ġprevent": 3302,
      "Ġmarks": 3303,
      "Ġgreat": 3304,
      "iah": 3305,
      "ables": 3306,
      "Ġpuja": 3307,
      "just": 3308,
      "patna": 3309,
      "Ġreddy": 3310,
      "Ġmigr": 3311,
      "adodara": 3312,
      "Ġacad": 3313,
      "Ġgetting": 3314,
      "star": 3315,
      "Ġwould": 3316,
      "Ġwave": 3317,
      "Ġkore": 3318,
      "Ġmemor": 3319,
      "Ġfat": 3320,
      "Ġinstitute": 3321,
      "nar": 3322,
      "Ġele": 3323,
      "Ġrid": 3324,
      "ifies": 3325,
      "Ġblood": 3326,
      "Ġsunday": 3327,
      "Ġlal": 3328,
      "aga": 3329,
      "watch": 3330,
      "Ġlanka": 3331,
      "Ġwrong": 3332,
      "nu": 3333,
      "Ġwild": 3334,
      "Ġmult": 3335,
      "Ġbeen": 3336,
      "Ġcode": 3337,
      "vest": 3338,
      "udi": 3339,
      "light": 3340,
      "Ġkejriwal": 3341,
      "Ġaz": 3342,
      "Ġking": 3343,
      "Ġview": 3344,
      "minister": 3345,
      "Ġdelayed": 3346,
      "Ġmovie": 3347,
      "Ġdise": 3348,
      "Ġ500": 3349,
      "Ġrecovered": 3350,
      "estic": 3351,
      "Ġlod": 3352,
      "Ġcelebrates": 3353,
      "Ġstock": 3354,
      "Ġlot": 3355,
      "Ġbreaks": 3356,
      "isl": 3357,
      "Ġplays": 3358,
      "imate": 3359,
      "Ġbeaut": 3360,
      "corpor": 3361,
      "Ġtrust": 3362,
      "...": 3363,
      "Ġapplic": 3364,
      "Ġlog": 3365,
      "Ġinn": 3366,
      "Ġramp": 3367,
      "Ġensure": 3368,
      "Ġamit": 3369,
      "Ġjewellery": 3370,
      "vid": 3371,
      "Ġsew": 3372,
      "ockey": 3373,
      "Ġcertific": 3374,
      "panch": 3375,
      "ortion": 3376,
      "Ġgear": 3377,
      "uge": 3378,
      "joy": 3379,
      "Ġverdict": 3380,
      "Ġministers": 3381,
      "Ġtack": 3382,
      "Ġmys": 3383,
      "Ġaccidents": 3384,
      "Ġseptember": 3385,
      "Ġcities": 3386,
      "south": 3387,
      "Ġtie": 3388,
      "gaon": 3389,
      "gs": 3390,
      "Ġengineering": 3391,
      "Ġpred": 3392,
      "Ġcoast": 3393,
      "Ġcomplet": 3394,
      "Ġruss": 3395,
      "Ġrank": 3396,
      "Ġsingle": 3397,
      "Ġthreatens": 3398,
      "ghan": 3399,
      "Ġobs": 3400,
      "Ġbuildings": 3401,
      "Ġbull": 3402,
      "ived": 3403,
      "Ġmonday": 3404,
      "Ġboys": 3405,
      "Ġelectric": 3406,
      "ring": 3407,
      "Ġshel": 3408,
      "ayam": 3409,
      "Ġmarkets": 3410,
      "Ġaffair": 3411,
      "rit": 3412,
      "orts": 3413,
      "Ġauthority": 3414,
      "ually": 3415,
      "ola": 3416,
      "apping": 3417,
      "mic": 3418,
      "Ġpanchayat": 3419,
      "fake": 3420,
      "mur": 3421,
      "Ġsepar": 3422,
      "ires": 3423,
      "avir": 3424,
      "ties": 3425,
      "iles": 3426,
      "Ġjumps": 3427,
      "Ġunve": 3428,
      "Ġsends": 3429,
      "ittle": 3430,
      "nav": 3431,
      "igation": 3432,
      "Ġpack": 3433,
      "derly": 3434,
      "Ġslow": 3435,
      "Ġinfo": 3436,
      "Ġoppose": 3437,
      "Ġscare": 3438,
      "clud": 3439,
      "minor": 3440,
      "house": 3441,
      "Ġfashion": 3442,
      "za": 3443,
      "pg": 3444,
      "vis": 3445,
      "unter": 3446,
      "Ġblames": 3447,
      "Ġdocs": 3448,
      "Ġdetails": 3449,
      "Ġtops": 3450,
      "few": 3451,
      "Ġ35": 3452,
      "Ġimport": 3453,
      "Ġok": 3454,
      "Ġchain": 3455,
      "Ġdoesn": 3456,
      "Ġauction": 3457,
      "Ġdrops": 3458,
      "Ġbachchan": 3459,
      "bers": 3460,
      "onda": 3461,
      "apse": 3462,
      "kes": 3463,
      "Ġ70": 3464,
      "Ġenergy": 3465,
      "Ġjudic": 3466,
      "Ġcha": 3467,
      "Ġencounter": 3468,
      "Ġud": 3469,
      "Ġattacked": 3470,
      "icted": 3471,
      "Ġworker": 3472,
      "Ġlicence": 3473,
      "turn": 3474,
      "plement": 3475,
      "Ġassets": 3476,
      "Ġraids": 3477,
      "cab": 3478,
      "cur": 3479,
      "Ġbed": 3480,
      "Ġvc": 3481,
      "hp": 3482,
      "una": 3483,
      "nes": 3484,
      "Ġnat": 3485,
      "add": 3486,
      "Ġyatra": 3487,
      "class": 3488,
      "Ġnitish": 3489,
      "Ġfiring": 3490,
      "Ġpot": 3491,
      "Ġplastic": 3492,
      "Ġclasses": 3493,
      "iers": 3494,
      "ols": 3495,
      "Ġsurat": 3496,
      "Ġshortage": 3497,
      "Ġremains": 3498,
      "Ġeur": 3499,
      "Ġadmissions": 3500,
      "Ġheavy": 3501,
      "rovers": 3502,
      "Ġblame": 3503,
      "Ġque": 3504,
      "Ġstrugg": 3505,
      "noida": 3506,
      "Ġadop": 3507,
      "happy": 3508,
      "inagar": 3509,
      "ental": 3510,
      "Ġindustrial": 3511,
      "Ġdub": 3512,
      "isters": 3513,
      "bigg": 3514,
      "Ġjharkhand": 3515,
      "Ġtries": 3516,
      "ask": 3517,
      "atore": 3518,
      "tle": 3519,
      "Ġalive": 3520,
      "Ġpatient": 3521,
      "gur": 3522,
      "Ġnation": 3523,
      "ored": 3524,
      "imbatore": 3525,
      "rast": 3526,
      "people": 3527,
      "Ġmonitor": 3528,
      "Ġmain": 3529,
      "anna": 3530,
      "ancy": 3531,
      "Ġcommits": 3532,
      "tal": 3533,
      "raft": 3534,
      "ju": 3535,
      "Ġprogramme": 3536,
      "Ġlate": 3537,
      "val": 3538,
      "Ġpressure": 3539,
      "Ġgrant": 3540,
      "Ġ29": 3541,
      "Ġvend": 3542,
      "izes": 3543,
      "Ġaccuses": 3544,
      "Ġcb": 3545,
      "Ġtrump": 3546,
      "Ġcyber": 3547,
      "vill": 3548,
      "Ġrukh": 3549,
      "Ġabuse": 3550,
      "araj": 3551,
      "cott": 3552,
      "sters": 3553,
      "protest": 3554,
      "tel": 3555,
      "Ġinsurance": 3556,
      "ladesh": 3557,
      "residents": 3558,
      "wad": 3559,
      "Ġmart": 3560,
      "anner": 3561,
      "Ġselling": 3562,
      "Ġprotect": 3563,
      "Ġ80": 3564,
      "Ġakh": 3565,
      "Ġcommit": 3566,
      "osc": 3567,
      "udhi": 3568,
      "Ġdil": 3569,
      "sex": 3570,
      "emen": 3571,
      "ulation": 3572,
      "Ġshoots": 3573,
      "Ġsav": 3574,
      "Ġfined": 3575,
      "comm": 3576,
      "Ġtourists": 3577,
      "Ġgard": 3578,
      "amy": 3579,
      "security": 3580,
      "itha": 3581,
      "eeks": 3582,
      "mao": 3583,
      "Ġgut": 3584,
      "bmc": 3585,
      "iversary": 3586,
      "Ġgst": 3587,
      "salman": 3588,
      "Ġwanted": 3589,
      "Ġsurgery": 3590,
      "Ġmadurai": 3591,
      "Ġball": 3592,
      "Ġrecruit": 3593,
      "angu": 3594,
      "Ġbooks": 3595,
      "gers": 3596,
      "Ġconduct": 3597,
      "Ġdispute": 3598,
      "Ġfreed": 3599,
      "sen": 3600,
      "Ġoct": 3601,
      "Ġkann": 3602,
      "Ġchandigarh": 3603,
      "Ġsurpr": 3604,
      "Ġwithdraw": 3605,
      "ength": 3606,
      "40": 3607,
      "Ġbow": 3608,
      "Ġmadhya": 3609,
      "Ġsid": 3610,
      "Ġsoft": 3611,
      "Ġfill": 3612,
      "ondon": 3613,
      "Ġpetition": 3614,
      "Ġcompensation": 3615,
      "tn": 3616,
      "Ġswe": 3617,
      "Ġnh": 3618,
      "Ġgains": 3619,
      "Ġtry": 3620,
      "Ġways": 3621,
      "Ġseven": 3622,
      "long": 3623,
      "Ġanniversary": 3624,
      "iran": 3625,
      "encies": 3626,
      "Ġhunt": 3627,
      "Ġstress": 3628,
      "ocation": 3629,
      "Ġaddress": 3630,
      "uti": 3631,
      "Ġmir": 3632,
      "Ġinvestors": 3633,
      "oil": 3634,
      "Ġbeats": 3635,
      "epend": 3636,
      "okes": 3637,
      "anchi": 3638,
      "ured": 3639,
      "Ġbhag": 3640,
      "ugar": 3641,
      "actor": 3642,
      "Ġmps": 3643,
      "Ġrams": 3644,
      "Ġparliament": 3645,
      "Ġbhatt": 3646,
      "Ġrobbery": 3647,
      "Ġwelcome": 3648,
      "Ġchrist": 3649,
      "Ġextended": 3650,
      "Ġder": 3651,
      "Ġdollar": 3652,
      "attis": 3653,
      "Ġbharat": 3654,
      "Ġcorruption": 3655,
      "Ġdidn": 3656,
      "Ġsour": 3657,
      "Ġoperations": 3658,
      "Ġdues": 3659,
      "oshi": 3660,
      "uments": 3661,
      "ups": 3662,
      "Ġtrop": 3663,
      "Ġpvt": 3664,
      "Ġteams": 3665,
      "appa": 3666,
      "hood": 3667,
      "avirus": 3668,
      "Ġlack": 3669,
      "Ġgroups": 3670,
      "unal": 3671,
      "ware": 3672,
      "Ġbeach": 3673,
      "Ġgraft": 3674,
      "wari": 3675,
      "acts": 3676,
      "Ġpatel": 3677,
      "inch": 3678,
      "Ġfinally": 3679,
      "was": 3680,
      "shiv": 3681,
      "trans": 3682,
      "fil": 3683,
      "Ġsans": 3684,
      "bsp": 3685,
      "oud": 3686,
      "Ġeasy": 3687,
      "tar": 3688,
      "Ġzoo": 3689,
      "Ġmulls": 3690,
      "Ġappear": 3691,
      "Ġfacilities": 3692,
      "udhiana": 3693,
      "green": 3694,
      "haw": 3695,
      "jaipur": 3696,
      "Ġdistrib": 3697,
      "Ġbiggest": 3698,
      "Ġask": 3699,
      "panel": 3700,
      "aik": 3701,
      "Ġdry": 3702,
      "onavirus": 3703,
      "Ġthese": 3704,
      "Ġintro": 3705,
      "Ġbuil": 3706,
      "Ġcollector": 3707,
      "Ġchanges": 3708,
      "amir": 3709,
      "Ġton": 3710,
      "Ġlat": 3711,
      "Ġdeputy": 3712,
      "quiry": 3713,
      "ructure": 3714,
      "Ġrom": 3715,
      "Ġnegl": 3716,
      "nmc": 3717,
      "etty": 3718,
      "Ġdoub": 3719,
      "Ġadity": 3720,
      "Ġtoil": 3721,
      "Ġcrush": 3722,
      "Ġmotor": 3723,
      "teen": 3724,
      "ao": 3725,
      "ters": 3726,
      "chandigarh": 3727,
      "atre": 3728,
      "Ġshooting": 3729,
      "Ġimpact": 3730,
      "win": 3731,
      "Ġshift": 3732,
      "Ġextra": 3733,
      "Ġseparate": 3734,
      "igence": 3735,
      "Ġfunction": 3736,
      "Ġbacks": 3737,
      "Ġsurr": 3738,
      "Ġlands": 3739,
      "Ġsang": 3740,
      "Ġach": 3741,
      "Ġaccount": 3742,
      "Ġclears": 3743,
      "100": 3744,
      "Ġeach": 3745,
      "Ġroom": 3746,
      "Ġuttarakhand": 3747,
      "Ġrti": 3748,
      "Ġsolar": 3749,
      "Ġhik": 3750,
      "Ġwal": 3751,
      "Ġcommon": 3752,
      "200": 3753,
      "Ġ2022": 3754,
      "Ġlearn": 3755,
      "Ġug": 3756,
      "iy": 3757,
      "charg": 3758,
      "mohan": 3759,
      "Ġpull": 3760,
      "Ġmaint": 3761,
      "attisgarh": 3762,
      "Ġju": 3763,
      "Ġever": 3764,
      "Ġweeks": 3765,
      "esheet": 3766,
      "Ġmeas": 3767,
      "Ġchinese": 3768,
      "ectors": 3769,
      "Ġweather": 3770,
      "Ġja": 3771,
      "loc": 3772,
      "Ġnews": 3773,
      "Ġnepal": 3774,
      "inar": 3775,
      "Ġdraws": 3776,
      "Ġbills": 3777,
      "eel": 3778,
      "Ġarrests": 3779,
      "Ġsupreme": 3780,
      "Ġdrain": 3781,
      "Ġshock": 3782,
      "Ġsought": 3783,
      "Ġtackle": 3784,
      "vind": 3785,
      "Ġescape": 3786,
      "Ġcct": 3787,
      "Ġengland": 3788,
      "Ġfinancial": 3789,
      "Ġraid": 3790,
      "Ġfactory": 3791,
      "ads": 3792,
      "Ġcctv": 3793,
      "hapur": 3794,
      "tern": 3795,
      "Ġtap": 3796,
      "Ġprem": 3797,
      "Ġthane": 3798,
      "bruary": 3799,
      "Ġ2016": 3800,
      "Ġtrophy": 3801,
      "offic": 3802,
      "Ġpenal": 3803,
      "ker": 3804,
      "Ġpain": 3805,
      "sing": 3806,
      "uma": 3807,
      "metro": 3808,
      "madhya": 3809,
      "Ġfur": 3810,
      "athy": 3811,
      "Ġ45": 3812,
      "lims": 3813,
      "missing": 3814,
      "Ġreaches": 3815,
      "rastructure": 3816,
      "Ġreveals": 3817,
      "sub": 3818,
      "Ġtribal": 3819,
      "ima": 3820,
      "ext": 3821,
      "iting": 3822,
      "Ġurban": 3823,
      "bhar": 3824,
      "tri": 3825,
      "si": 3826,
      "Ġmuch": 3827,
      "uff": 3828,
      "lock": 3829,
      "Ġclosed": 3830,
      "Ġvigil": 3831,
      "Ġcurr": 3832,
      "eless": 3833,
      "ankar": 3834,
      "26": 3835,
      "vironment": 3836,
      "Ġled": 3837,
      "cha": 3838,
      "Ġexpos": 3839,
      "Ġmach": 3840,
      "ohn": 3841,
      "cont": 3842,
      "Ġsurge": 3843,
      "Ġbecomes": 3844,
      "Ġcreat": 3845,
      "ayan": 3846,
      "Ġcommunity": 3847,
      "Ġgeneral": 3848,
      "Ġspirit": 3849,
      "Ġavoid": 3850,
      "Ġforms": 3851,
      "Ġneighb": 3852,
      "Ġpregn": 3853,
      "angabad": 3854,
      "Ġnotices": 3855,
      "Ġstorm": 3856,
      "Ġgears": 3857,
      "owers": 3858,
      "utions": 3859,
      "amit": 3860,
      "Ġtrichy": 3861,
      "Ġaide": 3862,
      "dal": 3863,
      "Ġfield": 3864,
      "exper": 3865,
      "Ġscanner": 3866,
      "Ġeffect": 3867,
      "Ġsever": 3868,
      "Ġpray": 3869,
      "Ġganesh": 3870,
      "Ġperform": 3871,
      "Ġjapan": 3872,
      "Ġfacility": 3873,
      "Ġsparks": 3874,
      "Ġdifferent": 3875,
      "who": 3876,
      "imm": 3877,
      "Ġcollapse": 3878,
      "Ġfed": 3879,
      "Ġcredit": 3880,
      "terror": 3881,
      "Ġprincip": 3882,
      "den": 3883,
      "Ġtwe": 3884,
      "Ġsaw": 3885,
      "ki": 3886,
      "Ġseeking": 3887,
      "ointed": 3888,
      "Ġvia": 3889,
      "Ġtrip": 3890,
      "real": 3891,
      "ertain": 3892,
      "Ġvictory": 3893,
      "mob": 3894,
      "Ġgri": 3895,
      "Ġpolitic": 3896,
      "Ġtariff": 3897,
      "Ġfebruary": 3898,
      "ackeray": 3899,
      "Ġresume": 3900,
      "cele": 3901,
      "phone": 3902,
      "Ġnotes": 3903,
      "ahe": 3904,
      "Ġthere": 3905,
      "Ġfa": 3906,
      "lead": 3907,
      "Ġiniti": 3908,
      "uda": 3909,
      "Ġcarry": 3910,
      "Ġtir": 3911,
      "Ġreply": 3912,
      "Ġease": 3913,
      "Ġcommissioner": 3914,
      "Ġproposal": 3915,
      "Ġtight": 3916,
      "unny": 3917,
      "ulkar": 3918,
      "Ġfarmer": 3919,
      "Ġrelig": 3920,
      "Ġposs": 3921,
      "Ġimprove": 3922,
      "clusive": 3923,
      "Ġdoor": 3924,
      "ished": 3925,
      "Ġmamata": 3926,
      "earing": 3927,
      "Ġfeb": 3928,
      "Ġpilgr": 3929,
      "hab": 3930,
      "Ġmic": 3931,
      "Ġfriday": 3932,
      "Ġgain": 3933,
      "Ġslum": 3934,
      "Ġpitch": 3935,
      "Ġquits": 3936,
      "24": 3937,
      "sar": 3938,
      "Ġinm": 3939,
      "cons": 3940,
      "Ġscient": 3941,
      "Ġapproach": 3942,
      "face": 3943,
      "Ġperfor": 3944,
      "Ġcycl": 3945,
      "pil": 3946,
      "khar": 3947,
      "ability": 3948,
      "rupee": 3949,
      "anath": 3950,
      "Ġrat": 3951,
      "eter": 3952,
      "Ġstreets": 3953,
      "fact": 3954,
      "Ġfootball": 3955,
      "Ġcouns": 3956,
      "fc": 3957,
      "Ġmarath": 3958,
      "Ġhai": 3959,
      "lines": 3960,
      "Ġsubmit": 3961,
      "Ġkol": 3962,
      "student": 3963,
      "Ġalso": 3964,
      "Ġwinter": 3965,
      "Ġmember": 3966,
      "Ġlower": 3967,
      "Ġnag": 3968,
      "Ġmuslim": 3969,
      "Ġfears": 3970,
      "jit": 3971,
      "outs": 3972,
      "Ġhero": 3973,
      "Ġpaid": 3974,
      "oom": 3975,
      "Ġsea": 3976,
      "Ġsurviv": 3977,
      "Ġlay": 3978,
      "anta": 3979,
      "Ġanand": 3980,
      "Ġcontrovers": 3981,
      "ibility": 3982,
      "amond": 3983,
      "endulkar": 3984,
      "Ġcry": 3985,
      "awati": 3986,
      "private": 3987,
      "Ġsame": 3988,
      "Ġmant": 3989,
      "wd": 3990,
      "Ġpawar": 3991,
      "Ġplanning": 3992,
      "gm": 3993,
      "keep": 3994,
      "Ġghaziabad": 3995,
      "Ġschemes": 3996,
      "Ġyogi": 3997,
      "Ġvo": 3998,
      "Ġasian": 3999,
      "Ġnamed": 4000,
      "Ġpract": 4001,
      "Ġinvol": 4002,
      "Ġtext": 4003,
      "Ġactress": 4004,
      "ux": 4005,
      "aly": 4006,
      "jan": 4007,
      "Ġsites": 4008,
      "Ġadvani": 4009,
      "Ġstrikes": 4010,
      "Ġty": 4011,
      "adv": 4012,
      "Ġmilk": 4013,
      "Ġba": 4014,
      "Ġnax": 4015,
      "aming": 4016,
      "Ġdepos": 4017,
      "ounts": 4018,
      "emy": 4019,
      "Ġtargets": 4020,
      "room": 4021,
      "olf": 4022,
      "Ġchairman": 4023,
      "Ġtermin": 4024,
      "Ġbeaten": 4025,
      "Ġlawyer": 4026,
      "Ġprior": 4027,
      "upta": 4028,
      "Ġring": 4029,
      "ahabad": 4030,
      "Ġalliance": 4031,
      "Ġsteel": 4032,
      "Ġcancelled": 4033,
      "Ġbusinessman": 4034,
      "Ġsister": 4035,
      "ilesh": 4036,
      "raf": 4037,
      "Ġcrop": 4038,
      "Ġinside": 4039,
      "Ġthose": 4040,
      "Ġassociation": 4041,
      "Ġansw": 4042,
      "Ġfees": 4043,
      "Ġtechnology": 4044,
      "Ġtips": 4045,
      "rob": 4046,
      "Ġplants": 4047,
      "ellers": 4048,
      "Ġinstall": 4049,
      "Ġprovide": 4050,
      "Ġwrites": 4051,
      "Ġweekend": 4052,
      "Ġbash": 4053,
      "Ġng": 4054,
      "Ġkg": 4055,
      "asan": 4056,
      "Ġallot": 4057,
      "good": 4058,
      "Ġtim": 4059,
      "Ġsched": 4060,
      "Ġstrength": 4061,
      "Ġproblems": 4062,
      "mil": 4063,
      "Ġpays": 4064,
      "Ġias": 4065,
      "Ġdigital": 4066,
      "Ġscrap": 4067,
      "Ġig": 4068,
      "Ġgurugram": 4069,
      "care": 4070,
      "Ġstrate": 4071,
      "schools": 4072,
      "lal": 4073,
      "ference": 4074,
      "Ġshifted": 4075,
      "asad": 4076,
      "osys": 4077,
      "Ġcomplex": 4078,
      "Ġinfrastructure": 4079,
      "Ġcriminal": 4080,
      "Ġsend": 4081,
      "Ġdark": 4082,
      "Ġstal": 4083,
      "Ġbatt": 4084,
      "Ġdalit": 4085,
      "ho": 4086,
      "Ġrad": 4087,
      "orm": 4088,
      "Ġdutt": 4089,
      "zz": 4090,
      "poor": 4091,
      "Ġfacebook": 4092,
      "monsoon": 4093,
      "Ġenjoy": 4094,
      "Ġstealing": 4095,
      "home": 4096,
      "Ġrbi": 4097,
      "Ġarun": 4098,
      "Ġcurbs": 4099,
      "Ġinvestment": 4100,
      "Ġbombay": 4101,
      "lear": 4102,
      "22": 4103,
      "Ġbranch": 4104,
      "odhya": 4105,
      "Ġlift": 4106,
      "Ġsad": 4107,
      "Ġhockey": 4108,
      "Ġloans": 4109,
      "Ġmang": 4110,
      "Ġafrica": 4111,
      "Ġstyle": 4112,
      "Ġatm": 4113,
      "jud": 4114,
      "Ġtrap": 4115,
      "Ġboycott": 4116,
      "Ġlad": 4117,
      "Ġbelow": 4118,
      "echie": 4119,
      "unts": 4120,
      "Ġaccept": 4121,
      "Ġflo": 4122,
      "Ġdips": 4123,
      "Ġjump": 4124,
      "Ġadministration": 4125,
      "Ġtickets": 4126,
      "Ġrunning": 4127,
      "change": 4128,
      "Ġameric": 4129,
      "Ġkeen": 4130,
      "Ġjoint": 4131,
      "auto": 4132,
      "Ġtab": 4133,
      "Ġvotes": 4134,
      "unds": 4135,
      "Ġanna": 4136,
      "Ġbillion": 4137,
      "Ġengineer": 4138,
      "Ġlangu": 4139,
      "Ġvisa": 4140,
      "Ġhalf": 4141,
      "Ġ90": 4142,
      "Ġenters": 4143,
      "Ġnaidu": 4144,
      "wadi": 4145,
      "Ġdisrup": 4146,
      "Ġresident": 4147,
      "atic": 4148,
      "iri": 4149,
      "asing": 4150,
      "duce": 4151,
      "teachers": 4152,
      "Ġpact": 4153,
      "Ġduped": 4154,
      "Ġhung": 4155,
      "Ġfisher": 4156,
      "roy": 4157,
      "Ġexpert": 4158,
      "Ġtesting": 4159,
      "Ġkorea": 4160,
      "nashik": 4161,
      "Ġcoming": 4162,
      "Ġawa": 4163,
      "probe": 4164,
      "ecting": 4165,
      "Ġdebate": 4166,
      "hl": 4167,
      "Ġkrishna": 4168,
      "case": 4169,
      "saf": 4170,
      "Ġneeded": 4171,
      "rbi": 4172,
      "Ġcad": 4173,
      "aza": 4174,
      "Ġconstit": 4175,
      "60": 4176,
      "Ġawait": 4177,
      "Ġjudicial": 4178,
      "Ġletter": 4179,
      "Ġwhere": 4180,
      "Ġgift": 4181,
      "Ġcool": 4182,
      "Ġtemper": 4183,
      "lok": 4184,
      "ork": 4185,
      "Ġindore": 4186,
      "Ġsuffer": 4187,
      "admk": 4188,
      "Ġhapp": 4189,
      "Ġcpm": 4190,
      "deep": 4191,
      "ultural": 4192,
      "Ġreported": 4193,
      "23": 4194,
      "Ġchurch": 4195,
      "Ġallows": 4196,
      "Ġappeal": 4197,
      "parents": 4198,
      "Ġdogs": 4199,
      "oscope": 4200,
      "famil": 4201,
      "sat": 4202,
      "Ġriots": 4203,
      "Ġlines": 4204,
      "Ġvas": 4205,
      "Ġ300": 4206,
      "iaf": 4207,
      "Ġdrunk": 4208,
      "ambaram": 4209,
      "Ġhi": 4210,
      "akash": 4211,
      "Ġreleases": 4212,
      "Ġcritical": 4213,
      "xy": 4214,
      "ched": 4215,
      "Ġchit": 4216,
      "Ġdgp": 4217,
      "Ġlittle": 4218,
      "ager": 4219,
      "Ġdin": 4220,
      "Ġlover": 4221,
      "'ll": 4222,
      "Ġmos": 4223,
      "Ġthackeray": 4224,
      "Ġcirc": 4225,
      "Ġlondon": 4226,
      "ential": 4227,
      "ote": 4228,
      "Ġcorrid": 4229,
      "Ġlawyers": 4230,
      "Ġtracks": 4231,
      "Ġsikh": 4232,
      "oda": 4233,
      "aria": 4234,
      "70": 4235,
      "Ġcommuters": 4236,
      "pi": 4237,
      "Ġmath": 4238,
      "Ġenough": 4239,
      "Ġrising": 4240,
      "heavy": 4241,
      "indra": 4242,
      "Ġextends": 4243,
      "Ġactivist": 4244,
      "ora": 4245,
      "Ġbans": 4246,
      "Ġpicture": 4247,
      "Ġretail": 4248,
      "Ġawaits": 4249,
      "Ġdas": 4250,
      "rant": 4251,
      "Ġsanjay": 4252,
      "atives": 4253,
      "Ġtwitter": 4254,
      "Ġplaying": 4255,
      "ulayam": 4256,
      "hips": 4257,
      "uclear": 4258,
      "Ġcritic": 4259,
      "Ġconfir": 4260,
      "formation": 4261,
      "Ġdelays": 4262,
      "Ġkochi": 4263,
      "Ġrecovery": 4264,
      "Ġpromote": 4265,
      "stery": 4266,
      "wg": 4267,
      "Ġtell": 4268,
      "Ġncp": 4269,
      "osing": 4270,
      "Ġamar": 4271,
      "cury": 4272,
      "elines": 4273,
      "ersion": 4274,
      "abet": 4275,
      "Ġsachin": 4276,
      "Ġganga": 4277,
      "ye": 4278,
      "Ġhurd": 4279,
      "Ġhaw": 4280,
      "kari": 4281,
      "Ġrelations": 4282,
      "Ġproblem": 4283,
      "Ġaspirants": 4284,
      "Ġmenace": 4285,
      "Ġcalled": 4286,
      "Ġkick": 4287,
      "forest": 4288,
      "Ġlaws": 4289,
      "uddin": 4290,
      "apses": 4291,
      "inal": 4292,
      "hav": 4293,
      "Ġsummons": 4294,
      "gedy": 4295,
      "fit": 4296,
      "ined": 4297,
      "Ġschol": 4298,
      "Ġcareer": 4299,
      "oj": 4300,
      "Ġger": 4301,
      "def": 4302,
      "uttarakhand": 4303,
      "cpm": 4304,
      "ici": 4305,
      "Ġraz": 4306,
      "ukta": 4307,
      "Ġhimachal": 4308,
      "Ġdone": 4309,
      "ohli": 4310,
      "Ġjab": 4311,
      "pati": 4312,
      "Ġemployee": 4313,
      "Ġnumbers": 4314,
      "Ġregul": 4315,
      "hibition": 4316,
      "Ġaur": 4317,
      "Ġkiller": 4318,
      "sun": 4319,
      "ems": 4320,
      "ucks": 4321,
      "Ġpostp": 4322,
      "Ġstabbed": 4323,
      "Ġextortion": 4324,
      "central": 4325,
      "ica": 4326,
      "kers": 4327,
      "aper": 4328,
      "Ġriot": 4329,
      "Ġodisha": 4330,
      "ifa": 4331,
      "Ġpulls": 4332,
      "Ġindo": 4333,
      "Ġtrader": 4334,
      "Ġswine": 4335,
      "hara": 4336,
      "Ġgrants": 4337,
      "Ġven": 4338,
      "Ġvish": 4339,
      "Ġwhite": 4340,
      "Ġpremi": 4341,
      "Ġfel": 4342,
      "Ġreduce": 4343,
      "Ġproduction": 4344,
      "Ġdenied": 4345,
      "Ġworry": 4346,
      "Ġimplement": 4347,
      "doctors": 4348,
      "Ġmaster": 4349,
      "Ġvaccination": 4350,
      "usion": 4351,
      "Ġdebt": 4352,
      "Ġhostel": 4353,
      "Ġindepend": 4354,
      "Ġber": 4355,
      "apat": 4356,
      "Ġsituation": 4357,
      "bro": 4358,
      "Ġcounter": 4359,
      "best": 4360,
      "Ġfinance": 4361,
      "week": 4362,
      "Ġforced": 4363,
      "Ġpetrol": 4364,
      "gency": 4365,
      "murder": 4366,
      "fish": 4367,
      "Ġath": 4368,
      "ansion": 4369,
      "Ġsuspected": 4370,
      "utive": 4371,
      "Ġobj": 4372,
      "san": 4373,
      "Ġsugg": 4374,
      "build": 4375,
      "bor": 4376,
      "isc": 4377,
      "Ġissued": 4378,
      "aq": 4379,
      "Ġlov": 4380,
      "Ġnomin": 4381,
      "veer": 4382,
      "Ġkannada": 4383,
      "Ġpoint": 4384,
      "useum": 4385,
      "umes": 4386,
      "Ġfailed": 4387,
      "bhopal": 4388,
      "vert": 4389,
      "Ġcompet": 4390,
      "google": 4391,
      "look": 4392,
      "Ġti": 4393,
      "Ġresult": 4394,
      "Ġdhoni": 4395,
      "imum": 4396,
      "Ġeconomy": 4397,
      "Ġintens": 4398,
      "Ġmat": 4399,
      "Ġcaste": 4400,
      "Ġwebs": 4401,
      "Ġregistration": 4402,
      "Ġnurs": 4403,
      "Ġinfra": 4404,
      "Ġduo": 4405,
      "bollywood": 4406,
      "Ġside": 4407,
      "Ġls": 4408,
      "Ġbaner": 4409,
      "Ġlens": 4410,
      "Ġplaces": 4411,
      "activ": 4412,
      "Ġ75": 4413,
      "union": 4414,
      "president": 4415,
      "gurugram": 4416,
      "jharkhand": 4417,
      "Ġdrown": 4418,
      "Ġkanpur": 4419,
      "Ġlatest": 4420,
      "iya": 4421,
      "Ġsugar": 4422,
      "eral": 4423,
      "Ġrly": 4424,
      "Ġpanic": 4425,
      "Ġrequ": 4426,
      "Ġweak": 4427,
      "Ġholi": 4428,
      "lights": 4429,
      "uth": 4430,
      "iddle": 4431,
      "imself": 4432,
      "fect": 4433,
      "Ġsalary": 4434,
      "make": 4435,
      "seven": 4436,
      "need": 4437,
      "Ġoffices": 4438,
      "Ġcomplaints": 4439,
      "lam": 4440,
      "body": 4441,
      "food": 4442,
      "ily": 4443,
      "uls": 4444,
      "Ġasia": 4445,
      "Ġtribute": 4446,
      "Ġobama": 4447,
      "Ġhimself": 4448,
      "Ġenvironment": 4449,
      "Ġspeech": 4450,
      "Ġmaid": 4451,
      "Ġinquiry": 4452,
      "ray": 4453,
      "trib": 4454,
      "hik": 4455,
      "Ġdivision": 4456,
      "Ġadds": 4457,
      "Ġodi": 4458,
      "Ġconnect": 4459,
      "Ġbangladesh": 4460,
      "Ġhav": 4461,
      "Ġplat": 4462,
      "count": 4463,
      "iling": 4464,
      "Ġthings": 4465,
      "Ġparts": 4466,
      "Ġpension": 4467,
      "Ġten": 4468,
      "ogn": 4469,
      "Ġdamage": 4470,
      "Ġdomestic": 4471,
      "Ġlinks": 4472,
      "Ġcommand": 4473,
      "kill": 4474,
      "iring": 4475,
      "Ġconstable": 4476,
      "Ġxi": 4477,
      "young": 4478,
      "mn": 4479,
      "Ġrare": 4480,
      "black": 4481,
      "plant": 4482,
      "aranasi": 4483,
      "udh": 4484,
      "Ġguid": 4485,
      "Ġskip": 4486,
      "Ġafghan": 4487,
      "kids": 4488,
      "night": 4489,
      "rael": 4490,
      "Ġchow": 4491,
      "atrina": 4492,
      "Ġrum": 4493,
      "Ġguj": 4494,
      "ensus": 4495,
      "dig": 4496,
      "Ġcant": 4497,
      "ization": 4498,
      "Ġarm": 4499,
      "Ġabs": 4500,
      "Ġfloods": 4501,
      "Ġadityanath": 4502,
      "Ġrevamp": 4503,
      "ground": 4504,
      "anes": 4505,
      "Ġbrand": 4506,
      "zil": 4507,
      "Ġtragedy": 4508,
      "Ġelderly": 4509,
      "Ġcrowd": 4510,
      "anand": 4511,
      "Ġ2013": 4512,
      "essor": 4513,
      "Ġstretch": 4514,
      "elfare": 4515,
      "priyanka": 4516,
      "Ġbanned": 4517,
      "oof": 4518,
      "anab": 4519,
      "Ġcat": 4520,
      "Ġcourts": 4521,
      "railways": 4522,
      "Ġlit": 4523,
      "Ġeight": 4524,
      "Ġdrama": 4525,
      "election": 4526,
      "Ġtask": 4527,
      "Ġreality": 4528,
      "Ġsquad": 4529,
      "idambaram": 4530,
      "ias": 4531,
      "Ġmadh": 4532,
      "Ġearth": 4533,
      "orge": 4534,
      "Ġtourn": 4535,
      "Ġpriyanka": 4536,
      "ened": 4537,
      "Ġnormal": 4538,
      "21": 4539,
      "garbage": 4540,
      "Ġsky": 4541,
      "Ġchargesheet": 4542,
      "gg": 4543,
      "Ġther": 4544,
      "Ġeve": 4545,
      "Ġcreates": 4546,
      "ken": 4547,
      "Ġbars": 4548,
      "Ġsubsid": 4549,
      "Ġcomplete": 4550,
      "hol": 4551,
      "Ġtheatre": 4552,
      "Ġmessage": 4553,
      "Ġprasad": 4554,
      "Ġfever": 4555,
      "Ġsym": 4556,
      "ields": 4557,
      "Ġwarm": 4558,
      "Ġimpos": 4559,
      "Ġfailure": 4560,
      "Ġyoga": 4561,
      "soc": 4562,
      "Ġpun": 4563,
      "Ġvery": 4564,
      "Ġrespons": 4565,
      "bombay": 4566,
      "compl": 4567,
      "iled": 4568,
      "Ġcrunch": 4569,
      "Ġdisabled": 4570,
      "Ġtourist": 4571,
      "Ġsom": 4572,
      "Ġextension": 4573,
      "Ġduping": 4574,
      "Ġdanger": 4575,
      "arters": 4576,
      "arya": 4577,
      "Ġacquis": 4578,
      "medical": 4579,
      "Ġenglish": 4580,
      "Ġcanal": 4581,
      "truck": 4582,
      "Ġperforman": 4583,
      "utch": 4584,
      "Ġjudges": 4585,
      "asa": 4586,
      "Ġ2020": 4587,
      "Ġped": 4588,
      "hum": 4589,
      "Ġchampionship": 4590,
      "ncp": 4591,
      "Ġkohli": 4592,
      "Ġgm": 4593,
      "Ġmaoists": 4594,
      "rang": 4595,
      "Ġpg": 4596,
      "train": 4597,
      "Ġcattle": 4598,
      "Ġsush": 4599,
      "Ġclar": 4600,
      "Ġdismisses": 4601,
      "fresh": 4602,
      "Ġopening": 4603,
      "erry": 4604,
      "ecom": 4605,
      "Ġmeasures": 4606,
      "Ġadmits": 4607,
      "Ġcin": 4608,
      "80": 4609,
      "yn": 4610,
      "Ġgiving": 4611,
      "Ġphar": 4612,
      "ss": 4613,
      "Ġkid": 4614,
      "Ġganj": 4615,
      "Ġflee": 4616,
      "Ġmeh": 4617,
      "bac": 4618,
      "log": 4619,
      "ico": 4620,
      "Ġexport": 4621,
      "dc": 4622,
      "Ġrich": 4623,
      "Ġhindu": 4624,
      "Ġprotection": 4625,
      "Ġalleged": 4626,
      "pu": 4627,
      "apore": 4628,
      "Ġupgr": 4629,
      "Ġmovement": 4630,
      "Ġhour": 4631,
      "sam": 4632,
      "ervation": 4633,
      "aco": 4634,
      "otees": 4635,
      "acing": 4636,
      "Ġstall": 4637,
      "Ġhall": 4638,
      "Ġstops": 4639,
      "ester": 4640,
      "Ġarch": 4641,
      "Ġmix": 4642,
      "like": 4643,
      "Ġunited": 4644,
      "Ġrss": 4645,
      "Ġbanerjee": 4646,
      "bud": 4647,
      "Ġ+": 4648,
      "Ġstore": 4649,
      "Ġstuck": 4650,
      "cash": 4651,
      "ham": 4652,
      "ino": 4653,
      "Ġproducts": 4654,
      "Ġclosure": 4655,
      "Ġcloud": 4656,
      "Ġqual": 4657,
      "ints": 4658,
      "Ġcast": 4659,
      "Ġtre": 4660,
      "Ġmanager": 4661,
      "cabinet": 4662,
      "Ġculture": 4663,
      "Ġkhar": 4664,
      "Ġdegree": 4665,
      "icking": 4666,
      "crore": 4667,
      "Ġdraft": 4668,
      "Ġast": 4669,
      "Ġdw": 4670,
      "stop": 4671,
      "Ġfoul": 4672,
      "bt": 4673,
      "tata": 4674,
      "Ġlater": 4675,
      "tour": 4676,
      "Ġtowards": 4677,
      "tax": 4678,
      "owry": 4679,
      "break": 4680,
      "list": 4681,
      "ald": 4682,
      "Ġstone": 4683,
      "Ġreforms": 4684,
      "Ġspec": 4685,
      "Ġpoison": 4686,
      "fly": 4687,
      "Ġthieves": 4688,
      "ument": 4689,
      "Ġcbse": 4690,
      "Ġdhan": 4691,
      "Ġpilot": 4692,
      "him": 4693,
      "Ġmuseum": 4694,
      "yar": 4695,
      "Ġ48": 4696,
      "Ġsecy": 4697,
      "Ġestate": 4698,
      "Ġindustries": 4699,
      "Ġfate": 4700,
      "ullah": 4701,
      "Ġnine": 4702,
      "Ġhelpl": 4703,
      "Ġspend": 4704,
      "sonia": 4705,
      "Ġchann": 4706,
      "Ġviral": 4707,
      "Ġnmc": 4708,
      "Ġchance": 4709,
      "Ġnuclear": 4710,
      "Ġep": 4711,
      "Ġfloor": 4712,
      "Ġcosts": 4713,
      "indust": 4714,
      "Ġkam": 4715,
      "couple": 4716,
      "Ġbott": 4717,
      "Ġjunior": 4718,
      "wl": 4719,
      "whe": 4720,
      "take": 4721,
      "Ġcro": 4722,
      "Ġstatement": 4723,
      "Ġsilver": 4724,
      "Ġcook": 4725,
      "Ġagency": 4726,
      "Ġordered": 4727,
      "Ġbats": 4728,
      "Ġexit": 4729,
      "Ġnir": 4730,
      "Ġpersons": 4731,
      "xygen": 4732,
      "Ġgal": 4733,
      "Ġjd": 4734,
      "despite": 4735,
      "Ġcustom": 4736,
      "Ġtriggers": 4737,
      "Ġvows": 4738,
      "Ġdispos": 4739,
      "Ġslam": 4740,
      "hop": 4741,
      "Ġ:": 4742,
      "Ġpond": 4743,
      "Ġtor": 4744,
      "Ġwoo": 4745,
      "Ġinmates": 4746,
      "areena": 4747,
      "apuram": 4748,
      "Ġfem": 4749,
      "Ġdirects": 4750,
      "Ġtata": 4751,
      "Ġeconomic": 4752,
      "Ġshetty": 4753,
      "Ġremarks": 4754,
      "bangalore": 4755,
      "league": 4756,
      "where": 4757,
      "Ġusers": 4758,
      "Ġregular": 4759,
      "friendly": 4760,
      "Ġagric": 4761,
      "ajan": 4762,
      "Ġfoundation": 4763,
      "Ġexpansion": 4764,
      "Ġedge": 4765,
      "dir": 4766,
      "rance": 4767,
      "Ġdiesel": 4768,
      "lawy": 4769,
      "public": 4770,
      "Ġvik": 4771,
      "ugu": 4772,
      "Ġzones": 4773,
      "Ġallowed": 4774,
      "Ġserious": 4775,
      "Ġspeaker": 4776,
      "Ġoperation": 4777,
      "mm": 4778,
      "engine": 4779,
      "Ġheads": 4780,
      "Ġovers": 4781,
      "Ġups": 4782,
      "Ġaims": 4783,
      "Ġplanned": 4784,
      "Ġstray": 4785,
      "adhaar": 4786,
      "Ġpill": 4787,
      "Ġunivers": 4788,
      "Ġbuys": 4789,
      "Ġbrothers": 4790,
      "Ġrejected": 4791,
      "Ġdreams": 4792,
      "yond": 4793,
      "Ġmanipur": 4794,
      "arbha": 4795,
      "Ġvirus": 4796,
      "Ġappointment": 4797,
      "lu": 4798,
      "Ġspell": 4799,
      "Ġwelfare": 4800,
      "izag": 4801,
      "Ġhotels": 4802,
      "Ġfare": 4803,
      "Ġmuslims": 4804,
      "Ġrecruitment": 4805,
      "bang": 4806,
      "Ġcleared": 4807,
      "hai": 4808,
      "gre": 4809,
      "Ġtook": 4810,
      "Ġiraq": 4811,
      "oppos": 4812,
      "Ġflats": 4813,
      "ustralian": 4814,
      "Ġwing": 4815,
      "Ġupset": 4816,
      "Ġrag": 4817,
      "surat": 4818,
      "susp": 4819,
      "Ġstranded": 4820,
      "Ġrainfall": 4821,
      "adium": 4822,
      "Ġlessons": 4823,
      "Ġ150": 4824,
      "Ġaudit": 4825,
      "family": 4826,
      "Ġmist": 4827,
      "Ġsuspends": 4828,
      "tem": 4829,
      "Ġleopard": 4830,
      "Ġweight": 4831,
      "Ġphones": 4832,
      "Ġdemolition": 4833,
      "Ġsuv": 4834,
      "ett": 4835,
      "Ġship": 4836,
      "Ġmela": 4837,
      "Ġremoved": 4838,
      "empts": 4839,
      "Ġcorridor": 4840,
      "deal": 4841,
      "party": 4842,
      "Ġpilgrims": 4843,
      "'re": 4844,
      "wara": 4845,
      "Ġreopen": 4846,
      "akshi": 4847,
      "Ġvoice": 4848,
      "Ġsuspects": 4849,
      "pmc": 4850,
      "Ġtendulkar": 4851,
      "asha": 4852,
      "'ve": 4853,
      "Ġsurprise": 4854,
      "Ġhills": 4855,
      "citiz": 4856,
      "Ġburgl": 4857,
      "Ġcitizen": 4858,
      "Ġmilitants": 4859,
      "Ġapproves": 4860,
      "rif": 4861,
      "chh": 4862,
      "Ġcatches": 4863,
      "Ġ33": 4864,
      "Ġhair": 4865,
      "cbse": 4866,
      "Ġjourney": 4867,
      "Ġsens": 4868,
      "Ġvent": 4869,
      "Ġbooth": 4870,
      "Ġpartner": 4871,
      "Ġartist": 4872,
      "Ġkicks": 4873,
      "Ġsplit": 4874,
      "rum": 4875,
      "Ġrup": 4876,
      "Ġguil": 4877,
      "ashing": 4878,
      "Ġnand": 4879,
      "Ġ2012": 4880,
      "Ġmarried": 4881,
      "Ġgarden": 4882,
      "bra": 4883,
      "olim": 4884,
      "ivals": 4885,
      "Ġarvind": 4886,
      "Ġhelped": 4887,
      "Ġaccess": 4888,
      "Ġassist": 4889,
      "Ġdrives": 4890,
      "ande": 4891,
      "experts": 4892,
      "Ġvendors": 4893,
      "Ġfan": 4894,
      "Ġinclud": 4895,
      "hour": 4896,
      "Ġprogress": 4897,
      "moh": 4898,
      "alal": 4899,
      "Ġmap": 4900,
      "Ġliter": 4901,
      "Ġsummit": 4902,
      "earth": 4903,
      "Ġcaptain": 4904,
      "mamata": 4905,
      "Ġdoing": 4906,
      "Ġrevive": 4907,
      "Ġmadras": 4908,
      "Ġmoment": 4909,
      "Ġschedule": 4910,
      "Ġund": 4911,
      "ready": 4912,
      "Ġtakers": 4913,
      "Ġacquisition": 4914,
      "gar": 4915,
      "Ġcer": 4916,
      "Ġturnout": 4917,
      "Ġdrowns": 4918,
      "Ġpriority": 4919,
      "online": 4920,
      "alaya": 4921,
      "Ġlosses": 4922,
      "Ġbreach": 4923,
      "aitley": 4924,
      "Ġproperties": 4925,
      "Ġsmuggling": 4926,
      "smart": 4927,
      "Ġjoshi": 4928,
      "Ġnit": 4929,
      "load": 4930,
      "Ġpending": 4931,
      "Ġdrought": 4932,
      "Ġshowers": 4933,
      "Ġbat": 4934,
      "Ġrehab": 4935,
      "Ġcouncill": 4936,
      "Ġtemperature": 4937,
      "ney": 4938,
      "Ġnetas": 4939,
      "Ġemergency": 4940,
      "Ġchill": 4941,
      "Ġphotos": 4942,
      "Ġluck": 4943,
      "Ġpriv": 4944,
      "Ġscores": 4945,
      "Ġactive": 4946,
      "railway": 4947,
      "Ġmn": 4948,
      "Ġnda": 4949,
      "apatnam": 4950,
      "hos": 4951,
      "oft": 4952,
      "Ġchaos": 4953,
      "Ġashok": 4954,
      "Ġcamps": 4955,
      "icate": 4956,
      "Ġabroad": 4957,
      "Ġrailways": 4958,
      "mother": 4959,
      "Ġbypoll": 4960,
      "Ġlooking": 4961,
      "Ġfurther": 4962,
      "ura": 4963,
      "Ġdiamond": 4964,
      "Ġgoods": 4965,
      "bound": 4966,
      "Ġbenefit": 4967,
      "Ġfad": 4968,
      "Ġbsp": 4969,
      "che": 4970,
      "Ġcrashes": 4971,
      "iplom": 4972,
      "Ġabove": 4973,
      "Ġdisapp": 4974,
      "Ġtan": 4975,
      "Ġdeals": 4976,
      "Ġchoice": 4977,
      "icc": 4978,
      "hing": 4979,
      "inam": 4980,
      "Ġvacant": 4981,
      "Ġexpressway": 4982,
      "Ġpaise": 4983,
      "edy": 4984,
      "Ġsi": 4985,
      "Ġlarg": 4986,
      "unce": 4987,
      "Ġfires": 4988,
      "Ġcondem": 4989,
      "Ġfreedom": 4990,
      "Ġdeclared": 4991,
      "Ġsinha": 4992,
      "Ġek": 4993,
      "love": 4994,
      "zy": 4995,
      "Ġcurrency": 4996,
      "ique": 4997,
      "Ġcow": 4998,
      "Ġalways": 4999,
      "eas": 5000,
      "enda": 5001,
      "Ġflout": 5002,
      "Ġayodhya": 5003,
      "eries": 5004,
      "Ġbaj": 5005,
      "erst": 5006,
      "Ġreserve": 5007,
      "Ġiran": 5008,
      "Ġsewage": 5009,
      "Ġsor": 5010,
      "Ġaiims": 5011,
      "had": 5012,
      "Ġtmc": 5013,
      "Ġmagic": 5014,
      "Ġoperators": 5015,
      "Ġmilitary": 5016,
      "eg": 5017,
      "Ġliving": 5018,
      "Ġhosp": 5019,
      "Ġpresent": 5020,
      "kin": 5021,
      "ailed": 5022,
      "Ġgreater": 5023,
      "thane": 5024,
      "Ġstadium": 5025,
      "Ġagra": 5026,
      "business": 5027,
      "Ġmaoist": 5028,
      "Ġmoot": 5029,
      "Ġnetwork": 5030,
      "cycl": 5031,
      "Ġlpg": 5032,
      "allies": 5033,
      "umbs": 5034,
      "Ġneighbour": 5035,
      "budget": 5036,
      "Ġcrem": 5037,
      "Ġincome": 5038,
      "Ġhuge": 5039,
      "Ġjaw": 5040,
      "Ġremark": 5041,
      "Ġpopular": 5042,
      "Ġinflation": 5043,
      "holds": 5044,
      "Ġpool": 5045,
      "inde": 5046,
      "Ġblind": 5047,
      "uds": 5048,
      "Ġchandr": 5049,
      "omm": 5050,
      "Ġholiday": 5051,
      "anga": 5052,
      "Ġpromise": 5053,
      "Ġpregnant": 5054,
      "akhapatnam": 5055,
      "Ġlosing": 5056,
      "Ġzeal": 5057,
      "Ġbird": 5058,
      "Ġforward": 5059,
      "ithik": 5060,
      "speed": 5061,
      "Ġsleep": 5062,
      "call": 5063,
      "rains": 5064,
      "prison": 5065,
      "Ġ0": 5066,
      "Ġhanging": 5067,
      "Ġhubby": 5068,
      "Ġcriminals": 5069,
      "Ġtalent": 5070,
      "Ġhiv": 5071,
      "Ġdefault": 5072,
      "Ġbids": 5073,
      "Ġvadodara": 5074,
      "born": 5075,
      "Ġchec": 5076,
      "Ġlonger": 5077,
      "Ġcamer": 5078,
      "wag": 5079,
      "Ġtea": 5080,
      "Ġadvis": 5081,
      "Ġopposes": 5082,
      "Ġbuyers": 5083,
      "Ġmum": 5084,
      "Ġspots": 5085,
      "Ġclimate": 5086,
      "did": 5087,
      "Ġmode": 5088,
      "Ġinformation": 5089,
      "Ġaccounts": 5090,
      "Ġperformance": 5091,
      "Ġchem": 5092,
      "ensive": 5093,
      "Ġlalu": 5094,
      "Ġ32": 5095,
      "Ġ2021": 5096,
      "mla": 5097,
      "Ġopt": 5098,
      "Ġtally": 5099,
      "Ġmemorial": 5100,
      "Ġrussia": 5101,
      "nep": 5102,
      "Ġrival": 5103,
      "Ġfootpath": 5104,
      "Ġbusy": 5105,
      "Ġeurope": 5106,
      "Ġaim": 5107,
      "Ġbcci": 5108,
      "aland": 5109,
      "Ġpassport": 5110,
      "Ġeco": 5111,
      "75": 5112,
      "Ġreduc": 5113,
      "jam": 5114,
      "ional": 5115,
      "ubs": 5116,
      "polls": 5117,
      "Ġfit": 5118,
      "Ġstaffers": 5119,
      "Ġfishermen": 5120,
      "Ġinvites": 5121,
      "plan": 5122,
      "Ġabducted": 5123,
      "Ġunl": 5124,
      "senior": 5125,
      "Ġlease": 5126,
      "dead": 5127,
      "Ġstaffer": 5128,
      "drug": 5129,
      "ving": 5130,
      "nic": 5131,
      "alse": 5132,
      "Ġdied": 5133,
      "inst": 5134,
      "ective": 5135,
      "Ġremove": 5136,
      "Ġavail": 5137,
      "Ġwebsite": 5138,
      "issa": 5139,
      "Ġguilty": 5140,
      "ulam": 5141,
      "Ġexpect": 5142,
      "nitish": 5143,
      "Ġadmit": 5144,
      "Ġfestive": 5145,
      "Ġproposes": 5146,
      "Ġpu": 5147,
      "achh": 5148,
      "hys": 5149,
      "Ġentrance": 5150,
      "music": 5151,
      "Ġrai": 5152,
      "Ġcelebs": 5153,
      "Ġcertificate": 5154,
      "father": 5155,
      "inda": 5156,
      "Ġagencies": 5157,
      "Ġneg": 5158,
      "Ġcauses": 5159,
      "dom": 5160,
      "Ġsight": 5161,
      "Ġstamp": 5162,
      "Ġdrinking": 5163,
      "Ġtig": 5164,
      "Ġgif": 5165,
      "Ġseen": 5166,
      "Ġprep": 5167,
      "anji": 5168,
      "assam": 5169,
      "coming": 5170,
      "nan": 5171,
      "Ġgy": 5172,
      "Ġadj": 5173,
      "Ġperfect": 5174,
      "Ġinternet": 5175,
      "Ġcancels": 5176,
      "Ġwed": 5177,
      "Ġlabourers": 5178,
      "Ġgupta": 5179,
      "regular": 5180,
      "Ġdav": 5181,
      "Ġworst": 5182,
      "phot": 5183,
      "Ġlooted": 5184,
      "Ġbrain": 5185,
      "chief": 5186,
      "Ġworries": 5187,
      "Ġinnov": 5188,
      "lings": 5189,
      "unity": 5190,
      "Ġhill": 5191,
      "Ġsidd": 5192,
      "Ġscri": 5193,
      "sol": 5194,
      "Ġattempts": 5195,
      "has": 5196,
      "odisha": 5197,
      "Ġallege": 5198,
      "Ġappointed": 5199,
      "Ġbirds": 5200,
      "Ġoxygen": 5201,
      "phant": 5202,
      "dog": 5203,
      "urday": 5204,
      "Ġpipeline": 5205,
      "35": 5206,
      "Ġradi": 5207,
      "Ġbon": 5208,
      "Ġcheer": 5209,
      "olls": 5210,
      "Ġ36": 5211,
      "phan": 5212,
      "Ġdiabet": 5213,
      "hand": 5214,
      "Ġhealthy": 5215,
      "cel": 5216,
      "nit": 5217,
      "Ġurge": 5218,
      "Ġmel": 5219,
      "olt": 5220,
      "ancing": 5221,
      "Ġviolation": 5222,
      "Ġrealty": 5223,
      "Ġdisease": 5224,
      "ayukta": 5225,
      "Ġworried": 5226,
      "Ġwrite": 5227,
      "Ġbase": 5228,
      "atar": 5229,
      "Ġravi": 5230,
      "Ġlights": 5231,
      "Ġlap": 5232,
      "Ġpoach": 5233,
      "Ġclin": 5234,
      "Ġmanu": 5235,
      "plea": 5236,
      "Ġaffect": 5237,
      "%;": 5238,
      "wah": 5239,
      "Ġdegrees": 5240,
      "andoned": 5241,
      "madras": 5242,
      "Ġguns": 5243,
      "Ġvoting": 5244,
      "Ġcrosses": 5245,
      "Ġdmk": 5246,
      "iate": 5247,
      "Ġbeef": 5248,
      "Ġexplos": 5249,
      "spir": 5250,
      "Ġparticip": 5251,
      "Ġchristmas": 5252,
      "Ġsettle": 5253,
      "villagers": 5254,
      "Ġprincipal": 5255,
      "Ġseize": 5256,
      "Ġturned": 5257,
      "Ġblow": 5258,
      "Ġtrailer": 5259,
      "wr": 5260,
      "bel": 5261,
      "Ġagenda": 5262,
      "ishek": 5263,
      "Ġjammu": 5264,
      "Ġbenefits": 5265,
      "employ": 5266,
      "Ġcomeback": 5267,
      "Ġsolution": 5268,
      "Ġreceives": 5269,
      "give": 5270,
      "Ġvari": 5271,
      "Ġbeyond": 5272,
      "Ġips": 5273,
      "aina": 5274,
      "maoists": 5275,
      "Ġpatil": 5276,
      "ograp": 5277,
      "Ġmohan": 5278,
      "Ġpicks": 5279,
      "board": 5280,
      "yas": 5281,
      "Ġmast": 5282,
      "ava": 5283,
      "bmp": 5284,
      "ennis": 5285,
      "foreign": 5286,
      "Ġreserves": 5287,
      "kat": 5288,
      "Ġplots": 5289,
      "icle": 5290,
      "eight": 5291,
      "aters": 5292,
      "eshwar": 5293,
      "craft": 5294,
      "japan": 5295,
      "Ġms": 5296,
      "navis": 5297,
      "Ġmd": 5298,
      "rikar": 5299,
      "Ġpenalty": 5300,
      "australia": 5301,
      "rev": 5302,
      "Ġdocuments": 5303,
      "Ġwestern": 5304,
      "Ġpoth": 5305,
      "Ġmarg": 5306,
      "fort": 5307,
      "Ġyam": 5308,
      "Ġii": 5309,
      "Ġpandemic": 5310,
      "ceed": 5311,
      "Ġlegisl": 5312,
      "Ġacademy": 5313,
      "left": 5314,
      "Ġunveils": 5315,
      "Ġharm": 5316,
      "Ġsms": 5317,
      "Ġ400": 5318,
      "ml": 5319,
      "ankan": 5320,
      "Ġpayment": 5321,
      "citizens": 5322,
      "kumar": 5323,
      "Ġfares": 5324,
      "nel": 5325,
      "Ġfy": 5326,
      "Ġchallenges": 5327,
      "Ġvalley": 5328,
      "raped": 5329,
      "Ġsealed": 5330,
      "Ġ2023": 5331,
      "north": 5332,
      "Ġguru": 5333,
      "illed": 5334,
      "Ġiim": 5335,
      "Ġaffected": 5336,
      "Ġexecutive": 5337,
      "Ġhikes": 5338,
      "istic": 5339,
      "Ġscore": 5340,
      "uli": 5341,
      "Ġcomb": 5342,
      "Ġfrench": 5343,
      "Ġroyal": 5344,
      "tw": 5345,
      "Ġvax": 5346,
      "Ġpled": 5347,
      "Ġzealand": 5348,
      "isf": 5349,
      "aze": 5350,
      "Ġgoogle": 5351,
      "Ġprime": 5352,
      "Ġarjun": 5353,
      "level": 5354,
      "Ġraja": 5355,
      "Ġdemoc": 5356,
      "Ġsurvivor": 5357,
      "oring": 5358,
      "rosoft": 5359,
      "Ġwaiting": 5360,
      "Ġirr": 5361,
      "Ġstruggle": 5362,
      "Ġax": 5363,
      "Ġagitation": 5364,
      "Ġskin": 5365,
      "Ġscholars": 5366,
      "Ġet": 5367,
      "amar": 5368,
      "Ġquarant": 5369,
      "russ": 5370,
      "Ġboth": 5371,
      "Ġvice": 5372,
      "Ġtrav": 5373,
      "Ġdisaster": 5374,
      "Ġskills": 5375,
      "olation": 5376,
      "Ġdefeat": 5377,
      "Ġdelivery": 5378,
      "Ġinvolved": 5379,
      "bacco": 5380,
      "kula": 5381,
      "iding": 5382,
      "Ġrelax": 5383,
      "Ġguidelines": 5384,
      "Ġonce": 5385,
      "Ġplaint": 5386,
      "prene": 5387,
      "Ġdress": 5388,
      "payee": 5389,
      "sim": 5390,
      "Ġji": 5391,
      "hlot": 5392,
      "Ġsir": 5393,
      "Ġlax": 5394,
      "Ġtraff": 5395,
      "gurgaon": 5396,
      "Ġpace": 5397,
      "Ġbench": 5398,
      "Ġraw": 5399,
      "Ġfeed": 5400,
      "Ġfog": 5401,
      "tiger": 5402,
      "Ġupa": 5403,
      "aliban": 5404,
      "alpur": 5405,
      "bn": 5406,
      "owda": 5407,
      "Ġlanguage": 5408,
      "fers": 5409,
      "Ġbreath": 5410,
      "Ġmax": 5411,
      "teacher": 5412,
      "Ġolympics": 5413,
      "yog": 5414,
      "Ġdubai": 5415,
      "Ġrobbers": 5416,
      "beat": 5417,
      "Ġcharged": 5418,
      "accused": 5419,
      "Ġjain": 5420,
      "oking": 5421,
      "Ġexpected": 5422,
      "Ġlinked": 5423,
      "Ġannual": 5424,
      "asw": 5425,
      "Ġbuilder": 5426,
      "Ġthrows": 5427,
      "Ġreligious": 5428,
      "Ġcinema": 5429,
      "inated": 5430,
      "Ġthink": 5431,
      "Ġcracks": 5432,
      "Ġrestaur": 5433,
      "point": 5434,
      "vy": 5435,
      "Ġmigrants": 5436,
      "Ġslips": 5437,
      "Ġelectroc": 5438,
      "pcb": 5439,
      "Ġexerc": 5440,
      "Ġirks": 5441,
      "Ġcoimbatore": 5442,
      "Ġbure": 5443,
      "achi": 5444,
      "sena": 5445,
      "Ġcoup": 5446,
      "Ġrana": 5447,
      "spe": 5448,
      "Ġchhattisgarh": 5449,
      "Ġforum": 5450,
      "agan": 5451,
      "Ġludhiana": 5452,
      "Ġflow": 5453,
      "Ġchandra": 5454,
      "Ġcondition": 5455,
      "Ġgave": 5456,
      "Ġcommerc": 5457,
      "crime": 5458,
      "Ġmodern": 5459,
      "kr": 5460,
      "Ġnaxal": 5461,
      "Ġbrought": 5462,
      "Ġterrorists": 5463,
      "Ġdowry": 5464,
      "Ġ34": 5465,
      "exp": 5466,
      "Ġlearning": 5467,
      "bc": 5468,
      "invest": 5469,
      "fight": 5470,
      "ece": 5471,
      "god": 5472,
      "Ġanimals": 5473,
      "iim": 5474,
      "Ġdar": 5475,
      "Ġcolour": 5476,
      "Ġkidnap": 5477,
      "Ġdefends": 5478,
      "eri": 5479,
      "istani": 5480,
      "atters": 5481,
      "doctor": 5482,
      "Ġathlet": 5483,
      "Ġocc": 5484,
      "Ġgrab": 5485,
      "lab": 5486,
      "ince": 5487,
      "Ġcooper": 5488,
      "Ġhindi": 5489,
      "Ġcame": 5490,
      "Ġsaturday": 5491,
      "Ġambul": 5492,
      "ganj": 5493,
      "Ġess": 5494,
      "estri": 5495,
      "Ġlevels": 5496,
      "Ġbs": 5497,
      "apple": 5498,
      "Ġauthorities": 5499,
      "she": 5500,
      "Ġplane": 5501,
      "Ġzero": 5502,
      "Ġthrashed": 5503,
      "distr": 5504,
      "sri": 5505,
      "Ġham": 5506,
      "Ġ2011": 5507,
      "Ġstruct": 5508,
      "Ġdiplom": 5509,
      "pics": 5510,
      "reprene": 5511,
      "Ġmakeover": 5512,
      "Ġrent": 5513,
      "Ġlarge": 5514,
      "Ġundergo": 5515,
      "Ġsport": 5516,
      "aging": 5517,
      "Ġinjuries": 5518,
      "nba": 5519,
      "Ġros": 5520,
      "Ġ37": 5521,
      "dhan": 5522,
      "Ġcoronavirus": 5523,
      "Ġdumping": 5524,
      "jet": 5525,
      "Ġdial": 5526,
      "Ġsucc": 5527,
      "Ġfc": 5528,
      "Ġxii": 5529,
      "Ġurged": 5530,
      "Ġfeels": 5531,
      "Ġkumb": 5532,
      "Ġreplace": 5533,
      "film": 5534,
      "Ġanswer": 5535,
      "Ġsaves": 5536,
      "crimin": 5537,
      "Ġrajkot": 5538,
      "Ġpleas": 5539,
      "Ġlimit": 5540,
      "div": 5541,
      "ishw": 5542,
      "Ġpersonal": 5543,
      "ape": 5544,
      "shr": 5545,
      "Ġdisplay": 5546,
      "Ġcollapses": 5547,
      "Ġhunger": 5548,
      "Ġlibr": 5549,
      "Ġstatue": 5550,
      "erut": 5551,
      "Ġwish": 5552,
      "Ġnam": 5553,
      "amc": 5554,
      "death": 5555,
      "Ġkat": 5556,
      "acking": 5557,
      "pad": 5558,
      "major": 5559,
      "Ġhab": 5560,
      "uesday": 5561,
      "Ġassaulted": 5562,
      "Ġstrategy": 5563,
      "opposition": 5564,
      "90": 5565,
      "Ġta": 5566,
      "aling": 5567,
      "Ġachie": 5568,
      "Ġchidambaram": 5569,
      "Ġcelebrated": 5570,
      "Ġmohali": 5571,
      "Ġcommercial": 5572,
      "sachin": 5573,
      "Ġbah": 5574,
      "idhi": 5575,
      "Ġchanged": 5576,
      "Ġblue": 5577,
      "Ġprez": 5578,
      "Ġfines": 5579,
      "Ġguards": 5580,
      "bbs": 5581,
      "americ": 5582,
      "Ġrolls": 5583,
      "Ġtransferred": 5584,
      "serv": 5585,
      "ulty": 5586,
      "Ġbay": 5587,
      "Ġgradu": 5588,
      "Ġburning": 5589,
      "tual": 5590,
      "clean": 5591,
      "Ġshelter": 5592,
      "Ġcerem": 5593,
      "Ġrallies": 5594,
      "Ġrenew": 5595,
      "Ġtort": 5596,
      "Ġintroduc": 5597,
      "alalitha": 5598,
      "Ġworkshop": 5599,
      "Ġbear": 5600,
      "Ġapply": 5601,
      "Ġkaran": 5602,
      "Ġprofessor": 5603,
      "Ġpackage": 5604,
      "Ġsound": 5605,
      "Ġabh": 5606,
      "Ġdeter": 5607,
      "Ġmalik": 5608,
      "Ġwarri": 5609,
      "sum": 5610,
      "Ġkept": 5611,
      "kidn": 5612,
      "Ġbabus": 5613,
      "Ġblocks": 5614,
      "Ġflying": 5615,
      "Ġarrives": 5616,
      "Ġkidnapped": 5617,
      "Ġcra": 5618,
      "Ġthir": 5619,
      "Ġevidence": 5620,
      "Ġwarning": 5621,
      "edic": 5622,
      "acle": 5623,
      "Ġcannot": 5624,
      "Ġmorning": 5625,
      "Ġgutted": 5626,
      "shi": 5627,
      "Ġquarter": 5628,
      "Ġpump": 5629,
      "Ġviolations": 5630,
      "Ġjee": 5631,
      "Ġshine": 5632,
      "Ġassures": 5633,
      "Ġhalt": 5634,
      "Ġdivor": 5635,
      "Ġfactor": 5636,
      "Ġevents": 5637,
      "Ġmurders": 5638,
      "Ġhelpline": 5639,
      "din": 5640,
      "aja": 5641,
      "Ġnavy": 5642,
      "charge": 5643,
      "awada": 5644,
      "phones": 5645,
      "lack": 5646,
      "Ġexhibition": 5647,
      "Ġminutes": 5648,
      "Ġpolling": 5649,
      "Ġimpress": 5650,
      "Ġaver": 5651,
      "Ġjaitley": 5652,
      "thi": 5653,
      "Ġalone": 5654,
      "Ġelected": 5655,
      "burgl": 5656,
      "Ġhp": 5657,
      "Ġvaranasi": 5658,
      "celebr": 5659,
      "tu": 5660,
      "Ġthanks": 5661,
      "Ġgolden": 5662,
      "Ġnath": 5663,
      "ipe": 5664,
      "ittal": 5665,
      "Ġdust": 5666,
      "harraf": 5667,
      "Ġprosec": 5668,
      "Ġsuffers": 5669,
      "ohar": 5670,
      "activists": 5671,
      "hospit": 5672,
      "dhar": 5673,
      "Ġfig": 5674,
      "hana": 5675,
      "Ġhealthcare": 5676,
      "Ġganja": 5677,
      "agn": 5678,
      "non": 5679,
      "wheel": 5680,
      "Ġtuesday": 5681,
      "Ġidol": 5682,
      "Ġrice": 5683,
      "Ġvisitors": 5684,
      "Ġcolony": 5685,
      "vide": 5686,
      "Ġthak": 5687,
      "Ġcontain": 5688,
      "Ġassess": 5689,
      "Ġakhilesh": 5690,
      "Ġseveral": 5691,
      "dmk": 5692,
      "Ġactors": 5693,
      "Ġconsult": 5694,
      "fa": 5695,
      "thy": 5696,
      "Ġsho": 5697,
      "Ġevening": 5698,
      "vas": 5699,
      "Ġforec": 5700,
      "andi": 5701,
      "Ġapart": 5702,
      "Ġwaiver": 5703,
      "Ġhr": 5704,
      "Ġreceive": 5705,
      "even": 5706,
      "Ġfaith": 5707,
      "Ġrebels": 5708,
      "uxury": 5709,
      "arrest": 5710,
      "Ġps": 5711,
      "Ġexports": 5712,
      "Ġdeploy": 5713,
      "Ġtechie": 5714,
      "mayor": 5715,
      "low": 5716,
      "Ġefforts": 5717,
      "Ġpersonnel": 5718,
      "Ġbul": 5719,
      "Ġdiss": 5720,
      "otic": 5721,
      "Ġcham": 5722,
      "illy": 5723,
      "comes": 5724,
      "drunk": 5725,
      "Ġstands": 5726,
      "Ġpassenger": 5727,
      "Ġbikes": 5728,
      "Ġmater": 5729,
      "ocate": 5730,
      "Ġsexually": 5731,
      "Ġhurdle": 5732,
      "second": 5733,
      "Ġproposed": 5734,
      "Ġkolhapur": 5735,
      "Ġraps": 5736,
      "lier": 5737,
      "hear": 5738,
      "Ġngo": 5739,
      "Ġproof": 5740,
      "Ġimage": 5741,
      "Ġsignal": 5742,
      "uvan": 5743,
      "college": 5744,
      "Ġcontroversy": 5745,
      "iny": 5746,
      "enge": 5747,
      "Ġconcerns": 5748,
      "Ġregistered": 5749,
      "Ġmk": 5750,
      "uster": 5751,
      "bhu": 5752,
      "global": 5753,
      "Ġscreening": 5754,
      "Ġcolon": 5755,
      "Ġacting": 5756,
      "Ġapolog": 5757,
      "Ġprofession": 5758,
      "alalithaa": 5759,
      "asons": 5760,
      "Ġpushes": 5761,
      "Ġranchi": 5762,
      "Ġhints": 5763,
      "Ġalarm": 5764,
      "Ġwinning": 5765,
      "supreme": 5766,
      "Ġva": 5767,
      "Ġconference": 5768,
      "Ġmarry": 5769,
      "Ġapple": 5770,
      "Ġexperience": 5771,
      "Ġpictures": 5772,
      "Ġcounselling": 5773,
      "Ġfitness": 5774,
      "Ġgate": 5775,
      "Ġidea": 5776,
      "nl": 5777,
      "Ġjournal": 5778,
      "lets": 5779,
      "quit": 5780,
      "Ġassaulting": 5781,
      "children": 5782,
      "racy": 5783,
      "Ġnad": 5784,
      "Ġvoter": 5785,
      "Ġpaduk": 5786,
      "cing": 5787,
      "far": 5788,
      "Ġkas": 5789,
      "Ġamr": 5790,
      "show": 5791,
      "Ġmaf": 5792,
      "Ġmedal": 5793,
      "300": 5794,
      "Ġopened": 5795,
      "Ġengineers": 5796,
      "you": 5797,
      "Ġacid": 5798,
      "ousands": 5799,
      "Ġsrk": 5800,
      "Ġtele": 5801,
      "arpur": 5802,
      "Ġjawan": 5803,
      "rolog": 5804,
      "kochi": 5805,
      "they": 5806,
      "Ġjoy": 5807,
      "Ġislam": 5808,
      "ipro": 5809,
      "ajpayee": 5810,
      "author": 5811,
      "Ġdamaged": 5812,
      "hone": 5813,
      "olution": 5814,
      "Ġmolesting": 5815,
      "Ġwear": 5816,
      "bid": 5817,
      "Ġsamples": 5818,
      "district": 5819,
      "Ġfemale": 5820,
      "harth": 5821,
      "isi": 5822,
      "cep": 5823,
      "Ġattach": 5824,
      "itivity": 5825,
      "Ġwitnesses": 5826,
      "van": 5827,
      "Ġslip": 5828,
      "Ġvidarbha": 5829,
      "Ġelectricity": 5830,
      "dav": 5831,
      "ooth": 5832,
      "Ġjailed": 5833,
      "Ġspotted": 5834,
      "Ġsons": 5835,
      "Ġgar": 5836,
      "uts": 5837,
      "Ġ55": 5838,
      "Ġtale": 5839,
      "Ġautos": 5840,
      "Ġfunding": 5841,
      "Ġextend": 5842,
      "Ġpadukone": 5843,
      "encroach": 5844,
      "Ġrte": 5845,
      "Ġdm": 5846,
      "Ġdy": 5847,
      "Ġlovers": 5848,
      "itya": 5849,
      "Ġpup": 5850,
      "Ġunlikely": 5851,
      "Ġwards": 5852,
      "gate": 5853,
      "vin": 5854,
      "Ġ38": 5855,
      "heri": 5856,
      "oti": 5857,
      "Ġcomplain": 5858,
      "gad": 5859,
      "Ġbuying": 5860,
      "bedkar": 5861,
      "Ġfinish": 5862,
      "Ġdonation": 5863,
      "Ġult": 5864,
      "coll": 5865,
      "Ġarrive": 5866,
      "Ġmut": 5867,
      "Ġmarathon": 5868,
      "Ġchowk": 5869,
      "have": 5870,
      "nag": 5871,
      "self": 5872,
      "Ġmale": 5873,
      "Ġboat": 5874,
      "Ġattract": 5875,
      "unte": 5876,
      "indore": 5877,
      "chinese": 5878,
      "uddhav": 5879,
      "tain": 5880,
      "social": 5881,
      "Ġbigger": 5882,
      "Ġactivities": 5883,
      "guard": 5884,
      "Ġwalks": 5885,
      "bcci": 5886,
      "fts": 5887,
      "Ġaurangabad": 5888,
      "Ġceremony": 5889,
      "een": 5890,
      "akar": 5891,
      "mys": 5892,
      "urban": 5893,
      "Ġspect": 5894,
      "Ġanimal": 5895,
      "fo": 5896,
      "Ġrub": 5897,
      "Ġsoar": 5898,
      "Ġbabu": 5899,
      "Ġtwin": 5900,
      "nepal": 5901,
      "Ġago": 5902,
      "Ġops": 5903,
      "laws": 5904,
      "mind": 5905,
      "Ġaadhaar": 5906,
      "Ġpul": 5907,
      "Ġmr": 5908,
      "Ġwishes": 5909,
      "Ġexchange": 5910,
      "ampn": 5911,
      "infosys": 5912,
      "wide": 5913,
      "Ġwet": 5914,
      "Ġprove": 5915,
      "Ġminors": 5916,
      "urt": 5917,
      "Ġgone": 5918,
      "elift": 5919,
      "Ġresolve": 5920,
      "Ġfadnavis": 5921,
      "Ġcwg": 5922,
      "Ġ65": 5923,
      "Ġcameras": 5924,
      "Ġparks": 5925,
      "Ġdefer": 5926,
      "nine": 5927,
      "sel": 5928,
      "Ġjet": 5929,
      "Ġsinger": 5930,
      "rupt": 5931,
      "Ġkalyan": 5932,
      "Ġhoard": 5933,
      "Ġhire": 5934,
      "Ġwords": 5935,
      "wada": 5936,
      "Ġrans": 5937,
      "Ġbritish": 5938,
      "Ġdeepika": 5939,
      "Ġrav": 5940,
      "Ġhails": 5941,
      "Ġgolf": 5942,
      "Ġnri": 5943,
      "team": 5944,
      "Ġsah": 5945,
      "Ġairlines": 5946,
      "Ġsap": 5947,
      "Ġrit": 5948,
      "leopard": 5949,
      "Ġmaha": 5950,
      "Ġdiseases": 5951,
      "lif": 5952,
      "Ġmight": 5953,
      "itted": 5954,
      "eta": 5955,
      "Ġagent": 5956,
      "Ġsolve": 5957,
      "Ġpor": 5958,
      "Ġmega": 5959,
      "Ġidentify": 5960,
      "fest": 5961,
      "Ġtable": 5962,
      "eties": 5963,
      "Ġhoroscope": 5964,
      "ten": 5965,
      "Ġkamal": 5966,
      "Ġincluding": 5967,
      "Ġlt": 5968,
      "officials": 5969,
      "laze": 5970,
      "Ġmolestation": 5971,
      "ius": 5972,
      "rag": 5973,
      "Ġweap": 5974,
      "Ġtaxi": 5975,
      "live": 5976,
      "Ġpremises": 5977,
      "vadodara": 5978,
      "Ġarg": 5979,
      "Ġtoilets": 5980,
      "Ġaksh": 5981,
      "mun": 5982,
      "Ġsuppl": 5983,
      "kam": 5984,
      "asia": 5985,
      "Ġngt": 5986,
      "Ġpartners": 5987,
      "Ġremand": 5988,
      "Ġguide": 5989,
      "Ġfourth": 5990,
      "odhpur": 5991,
      "Ġjaya": 5992,
      "Ġquick": 5993,
      "Ġapproval": 5994,
      "Ġcompetition": 5995,
      "camp": 5996,
      "dep": 5997,
      "wait": 5998,
      "uter": 5999,
      "imary": 6000,
      "Ġselection": 6001,
      "force": 6002,
      "arshan": 6003,
      "Ġedu": 6004,
      "Ġhelping": 6005,
      "governor": 6006,
      "uting": 6007,
      "Ġplatform": 6008,
      "Ġtemples": 6009,
      "Ġarticle": 6010,
      "Ġbadal": 6011,
      "nal": 6012,
      "Ġmeal": 6013,
      "etic": 6014,
      "Ġphoto": 6015,
      "Ġstructures": 6016,
      "Ġtied": 6017,
      "amsung": 6018,
      "akhi": 6019,
      "stre": 6020,
      "madurai": 6021,
      "Ġsubsidy": 6022,
      "east": 6023,
      "Ġokays": 6024,
      "Ġstalls": 6025,
      "Ġgaya": 6026,
      "Ġrajya": 6027,
      "Ġentreprene": 6028,
      "Ġbuilders": 6029,
      "Ġwildlife": 6030,
      "enced": 6031,
      "Ġthrill": 6032,
      "Ġmultip": 6033,
      "Ġdj": 6034,
      "Ġintell": 6035,
      "hru": 6036,
      "Ġaudience": 6037,
      "Ġsemis": 6038,
      "voy": 6039,
      "const": 6040,
      "thing": 6041,
      "Ġ44": 6042,
      "Ġsuit": 6043,
      "rise": 6044,
      "iscal": 6045,
      "usa": 6046,
      "py": 6047,
      "Ġdiver": 6048,
      "ursday": 6049,
      "Ġjohn": 6050,
      "Ġdevotees": 6051,
      "Ġkidney": 6052,
      "Ġfights": 6053,
      "Ġdesh": 6054,
      "stand": 6055,
      "ological": 6056,
      "Ġrepublic": 6057,
      "Ġresignation": 6058,
      "aked": 6059,
      "Ġneet": 6060,
      "Ġappe": 6061,
      "Ġmu": 6062,
      "exclusive": 6063,
      "proper": 6064,
      "mobile": 6065,
      "Ġdurga": 6066,
      "Ġprepare": 6067,
      "dengue": 6068,
      "ship": 6069,
      "step": 6070,
      "obama": 6071,
      "wife": 6072,
      "Ġhrs": 6073,
      "Ġgadkari": 6074,
      "bik": 6075,
      "muslim": 6076,
      "Ġdc": 6077,
      "Ġrevival": 6078,
      "cid": 6079,
      "education": 6080,
      "Ġdivers": 6081,
      "Ġweb": 6082,
      "Ġincident": 6083,
      "Ġadditional": 6084,
      "Ġremoval": 6085,
      "Ġpon": 6086,
      "Ġleast": 6087,
      "rtc": 6088,
      "Ġphys": 6089,
      "Ġcertificates": 6090,
      "Ġpranab": 6091,
      "Ġconnection": 6092,
      "Ġajmer": 6093,
      "uits": 6094,
      "Ġtrend": 6095,
      "Ġ42": 6096,
      "Ġmerger": 6097,
      "ishwarya": 6098,
      "kol": 6099,
      "Ġrath": 6100,
      "Ġeid": 6101,
      "Ġmusical": 6102,
      "Ġconsider": 6103,
      "Ġcontractor": 6104,
      "Ġrelationship": 6105,
      "ampnbsp": 6106,
      "Ġfdi": 6107,
      "Ġrapes": 6108,
      "uckus": 6109,
      "Ġsuspension": 6110,
      "ickshaw": 6111,
      "Ġkidnapping": 6112,
      "Ġicc": 6113,
      "makers": 6114,
      "eman": 6115,
      "Ġpurch": 6116,
      "Ġaiadmk": 6117,
      "sit": 6118,
      "some": 6119,
      "Ġmulayam": 6120,
      "Ġpeaceful": 6121,
      "traders": 6122,
      "Ġmayawati": 6123,
      "there": 6124,
      "Ġtribunal": 6125,
      "Ġghat": 6126,
      "Ġmercury": 6127,
      "Ġcommunal": 6128,
      "Ġsurrenders": 6129,
      "Ġhacked": 6130,
      "Ġje": 6131,
      "Ġcoastal": 6132,
      "inamool": 6133,
      "gic": 6134,
      "arsh": 6135,
      "flood": 6136,
      "Ġnavi": 6137,
      "Ġmystery": 6138,
      "drive": 6139,
      "Ġcyl": 6140,
      "Ġhazare": 6141,
      "Ġmanufact": 6142,
      "Ġunc": 6143,
      "Ġrespite": 6144,
      "Ġsoftware": 6145,
      "Ġtender": 6146,
      "Ġment": 6147,
      "Ġanil": 6148,
      "char": 6149,
      "Ġmafia": 6150,
      "45": 6151,
      "Ġblues": 6152,
      "Ġguv": 6153,
      "Ġpmc": 6154,
      "Ġdose": 6155,
      "adra": 6156,
      "Ġconfident": 6157,
      "Ġlg": 6158,
      "Ġthief": 6159,
      "Ġpolicemen": 6160,
      "bes": 6161,
      "uvery": 6162,
      "Ġtrace": 6163,
      "uke": 6164,
      "theast": 6165,
      "Ġrage": 6166,
      "Ġeduc": 6167,
      "gand": 6168,
      "iant": 6169,
      "Ġpi": 6170,
      "Ġstra": 6171,
      "sush": 6172,
      "ining": 6173,
      "Ġconservation": 6174,
      "Ġadjour": 6175,
      "sav": 6176,
      "Ġsib": 6177,
      "Ġamend": 6178,
      "Ġreviews": 6179,
      "Ġgehlot": 6180,
      "Ġlob": 6181,
      "rss": 6182,
      "Ġpharma": 6183,
      "ser": 6184,
      "Ġexcise": 6185,
      "Ġriders": 6186,
      "Ġpowers": 6187,
      "Ġtrs": 6188,
      "bridge": 6189,
      "Ġinjury": 6190,
      "Ġchecks": 6191,
      "Ġbeds": 6192,
      "Ġmysuru": 6193,
      "hard": 6194,
      "Ġtribals": 6195,
      "Ġconvicted": 6196,
      "Ġapplications": 6197,
      "Ġrumours": 6198,
      "Ġthen": 6199,
      "ancer": 6200,
      "Ġfaculty": 6201,
      "Ġsteals": 6202,
      "Ġacquitted": 6203,
      "sanjay": 6204,
      "Ġgap": 6205,
      "Ġcoff": 6206,
      "Ġvision": 6207,
      "vict": 6208,
      "Ġrocks": 6209,
      "present": 6210,
      "himachal": 6211,
      "fre": 6212,
      "Ġfalse": 6213,
      "Ġpose": 6214,
      "Ġruling": 6215,
      "Ġbeauty": 6216,
      "Ġnegligence": 6217,
      "Ġagriculture": 6218,
      "Ġyamuna": 6219,
      "Ġjal": 6220,
      "ucial": 6221,
      "Ġoption": 6222,
      "Ġru": 6223,
      "Ġprotesters": 6224,
      "cos": 6225,
      "Ġmarathi": 6226,
      "Ġcollision": 6227,
      "Ġmulti": 6228,
      "Ġcart": 6229,
      "Ġroh": 6230,
      "Ġkiss": 6231,
      "Ġpedd": 6232,
      "Ġacb": 6233,
      "oi": 6234,
      "Ġmiddle": 6235,
      "Ġtransplant": 6236,
      "kanpur": 6237,
      "ecr": 6238,
      "Ġthursday": 6239,
      "mot": 6240,
      "Ġtrucks": 6241,
      "Ġlord": 6242,
      "Ġrefund": 6243,
      "ghalaya": 6244,
      "akshay": 6245,
      "Ġjagan": 6246,
      "ws": 6247,
      "Ġvizag": 6248,
      "insp": 6249,
      "Ġrepe": 6250,
      "Ġprakash": 6251,
      "Ġaltern": 6252,
      "Ġspike": 6253,
      "Ġunif": 6254,
      "coimbatore": 6255,
      "hd": 6256,
      "Ġdevi": 6257,
      "Ġnearly": 6258,
      "Ġgay": 6259,
      "ths": 6260,
      "Ġcrimes": 6261,
      "Ġburns": 6262,
      "Ġlimited": 6263,
      "Ġeat": 6264,
      "Ġreun": 6265,
      "ighter": 6266,
      "trump": 6267,
      "Ġguest": 6268,
      "Ġterms": 6269,
      "Ġfacelift": 6270,
      "Ġemot": 6271,
      "job": 6272,
      "vc": 6273,
      "Ġfell": 6274,
      "ayal": 6275,
      "Ġstopped": 6276,
      "Ġsongs": 6277,
      "Ġpopulation": 6278,
      "demand": 6279,
      "Ġsurrender": 6280,
      "Ġdeleg": 6281,
      "Ġmount": 6282,
      "esha": 6283,
      "Ġbuff": 6284,
      "Ġswitch": 6285,
      "Ġinstitutes": 6286,
      "ste": 6287,
      "tod": 6288,
      "Ġbased": 6289,
      "Ġrab": 6290,
      "Ġtelugu": 6291,
      "nax": 6292,
      "Ġescapes": 6293,
      "Ġelectrocuted": 6294,
      "Ġfm": 6295,
      "Ġga": 6296,
      "Ġshinde": 6297,
      "Ġveget": 6298,
      "wala": 6299,
      "Ġbom": 6300,
      "eding": 6301,
      "mukh": 6302,
      "Ġfray": 6303,
      "Ġflees": 6304,
      "Ġdivorce": 6305,
      "pic": 6306,
      "inger": 6307,
      "Ġnothing": 6308,
      "Ġallahabad": 6309,
      "sk": 6310,
      "Ġsud": 6311,
      "isal": 6312,
      "ikanth": 6313,
      "Ġbhavan": 6314,
      "azon": 6315,
      "oz": 6316,
      "Ġsaved": 6317,
      "Ġalum": 6318,
      "Ġresigns": 6319,
      "corporation": 6320,
      "times": 6321,
      "igin": 6322,
      "Ġchat": 6323,
      "liquor": 6324,
      "Ġcoaches": 6325,
      "Ġtower": 6326,
      "400": 6327,
      "itis": 6328,
      "apy": 6329,
      "istry": 6330,
      "27": 6331,
      "Ġsac": 6332,
      "Ġ43": 6333,
      "Ġcontempt": 6334,
      "Ġmisses": 6335,
      "Ġcott": 6336,
      "Ġdiet": 6337,
      "Ġfatal": 6338,
      "iors": 6339,
      "Ġshopping": 6340,
      "hon": 6341,
      "iest": 6342,
      "making": 6343,
      "Ġmuz": 6344,
      "Ġplayer": 6345,
      "Ġallegations": 6346,
      "fisher": 6347,
      "Ġflak": 6348,
      "Ġhosts": 6349,
      "indians": 6350,
      "Ġopport": 6351,
      "Ġinaugurated": 6352,
      "Ġcensus": 6353,
      "Ġfeet": 6354,
      "Ġpossible": 6355,
      "Ġarab": 6356,
      "alli": 6357,
      "etan": 6358,
      "Ġbudd": 6359,
      "paid": 6360,
      "political": 6361,
      "arjun": 6362,
      "Ġtotal": 6363,
      "icy": 6364,
      "Ġquiz": 6365,
      "Ġunearth": 6366,
      "Ġoptions": 6367,
      "Ġpuri": 6368,
      "Ġcloses": 6369,
      "acity": 6370,
      "Ġmahar": 6371,
      "Ġreservation": 6372,
      "anagar": 6373,
      "oric": 6374,
      "elect": 6375,
      "Ġcelebration": 6376,
      "Ġidols": 6377,
      "sac": 6378,
      "ushka": 6379,
      "Ġwelcomes": 6380,
      "Ġdoubles": 6381,
      "Ġconfirms": 6382,
      "kha": 6383,
      "Ġenvoy": 6384,
      "Ġhottest": 6385,
      "safe": 6386,
      "Ġcamera": 6387,
      "Ġstick": 6388,
      "Ġtrigger": 6389,
      "ato": 6390,
      "Ġchess": 6391,
      "Ġprefer": 6392,
      "rets": 6393,
      "ander": 6394,
      "Ġrecogn": 6395,
      "Ġafghanistan": 6396,
      "Ġrecomm": 6397,
      "Ġcentury": 6398,
      "atsapp": 6399,
      "Ġobserv": 6400,
      "inn": 6401,
      "Ġpac": 6402,
      "Ġincidents": 6403,
      "raine": 6404,
      "cricket": 6405,
      "Ġcanada": 6406,
      "Ġosc": 6407,
      "Ġrefuse": 6408,
      "Ġmukher": 6409,
      "Ġmou": 6410,
      "Ġupholds": 6411,
      "uber": 6412,
      "Ġqueen": 6413,
      "Ġmakers": 6414,
      "Ġboards": 6415,
      "fs": 6416,
      "Ġkish": 6417,
      "navi": 6418,
      "Ġib": 6419,
      "Ġrajnath": 6420,
      "chang": 6421,
      "Ġdeclares": 6422,
      "Ġcid": 6423,
      "Ġflays": 6424,
      "illegally": 6425,
      "Ġmatter": 6426,
      "Ġbeh": 6427,
      "das": 6428,
      "sbi": 6429,
      "small": 6430,
      "Ġgranted": 6431,
      "Ġgifts": 6432,
      "start": 6433,
      "ria": 6434,
      "Ġunions": 6435,
      "Ġcag": 6436,
      "Ġpock": 6437,
      "Ġharvest": 6438,
      "hrc": 6439,
      "Ġdistribution": 6440,
      "Ġpoliticians": 6441,
      "gas": 6442,
      "Ġrto": 6443,
      "Ġshankar": 6444,
      "Ġcurfew": 6445,
      "Ġexercise": 6446,
      "fast": 6447,
      "Ġgram": 6448,
      "jab": 6449,
      "Ġquizz": 6450,
      "Ġcrushed": 6451,
      "Ġarunachal": 6452,
      "bet": 6453,
      "Ġhail": 6454,
      "Ġcomment": 6455,
      "Ġfelicit": 6456,
      "Ġaids": 6457,
      "Ġncr": 6458,
      "Ġtrue": 6459,
      "Ġattention": 6460,
      "short": 6461,
      "Ġlargest": 6462,
      "eli": 6463,
      "aded": 6464,
      "uled": 6465,
      "christ": 6466,
      "asekhar": 6467,
      "Ġcalling": 6468,
      "sad": 6469,
      "Ġreason": 6470,
      "Ġseizes": 6471,
      "Ġsweet": 6472,
      "28": 6473,
      "Ġreop": 6474,
      "Ġfollowing": 6475,
      "Ġranbir": 6476,
      "Ġsupporters": 6477,
      "tmc": 6478,
      "Ġmull": 6479,
      "itary": 6480,
      "utta": 6481,
      "Ġfacts": 6482,
      "lands": 6483,
      "banks": 6484,
      "iffic": 6485,
      "Ġconsumer": 6486,
      "Ġsawant": 6487,
      "Ġfiscal": 6488,
      "Ġ2010": 6489,
      "bill": 6490,
      "Ġsail": 6491,
      "Ġwhip": 6492,
      "Ġquarters": 6493,
      "conf": 6494,
      "Ġkaif": 6495,
      "dalit": 6496,
      "kim": 6497,
      "Ġdiabetes": 6498,
      "rad": 6499,
      "Ġwinner": 6500,
      "ause": 6501,
      "dar": 6502,
      "Ġbath": 6503,
      "autam": 6504,
      "gao": 6505,
      "Ġpostponed": 6506,
      "ially": 6507,
      "Ġcultural": 6508,
      "Ġmaj": 6509,
      "Ġhiring": 6510,
      "Ġmoving": 6511,
      "arian": 6512,
      "urved": 6513,
      "bas": 6514,
      "Ġterrorism": 6515,
      "Ġstabs": 6516,
      "pcmc": 6517,
      "Ġmaintain": 6518,
      "hari": 6519,
      "Ġfavourite": 6520,
      "Ġconsumers": 6521,
      "Ġsuggest": 6522,
      "Ġaamir": 6523,
      "karan": 6524,
      "Ġfighting": 6525,
      "Ġterminal": 6526,
      "wall": 6527,
      "umber": 6528,
      "Ġbroad": 6529,
      "65": 6530,
      "Ġroutes": 6531,
      "Ġaircraft": 6532,
      "ject": 6533,
      "anced": 6534,
      "ae": 6535,
      "Ġimportant": 6536,
      "dil": 6537,
      "otsav": 6538,
      "idden": 6539,
      "farmer": 6540,
      "Ġappeals": 6541,
      "xic": 6542,
      "Ġmental": 6543,
      "Ġtobacco": 6544,
      "bris": 6545,
      "Ġtried": 6546,
      "azz": 6547,
      "Ġpaddy": 6548,
      "Ġisrael": 6549,
      "plus": 6550,
      "psc": 6551,
      "Ġdestroy": 6552,
      "bum": 6553,
      "fe": 6554,
      "angaluru": 6555,
      "Ġkalam": 6556,
      "Ġmachines": 6557,
      "Ġglory": 6558,
      "Ġbypass": 6559,
      "race": 6560,
      "Ġsops": 6561,
      "aamir": 6562,
      "Ġlyn": 6563,
      "qual": 6564,
      "advani": 6565,
      "town": 6566,
      "Ġdemon": 6567,
      "Ġfacing": 6568,
      "Ġfalling": 6569,
      "Ġposes": 6570,
      "Ġrazed": 6571,
      "Ġuniversities": 6572,
      "wani": 6573,
      "Ġrang": 6574,
      "Ġnan": 6575,
      "Ġpositivity": 6576,
      "yap": 6577,
      "owing": 6578,
      "shri": 6579,
      "deepika": 6580,
      "Ġlibrary": 6581,
      "eration": 6582,
      "Ġcries": 6583,
      "Ġbung": 6584,
      "avati": 6585,
      "Ġparrikar": 6586,
      "Ġvalu": 6587,
      "Ġpraises": 6588,
      "Ġmehta": 6589,
      "last": 6590,
      "enance": 6591,
      "Ġcharm": 6592,
      "Ġcycle": 6593,
      "Ġtouches": 6594,
      "Ġiaf": 6595,
      "Ġword": 6596,
      "Ġlicences": 6597,
      "amitabh": 6598,
      "bit": 6599,
      "indo": 6600,
      "girls": 6601,
      "facebook": 6602,
      "vp": 6603,
      "Ġasi": 6604,
      "ghaziabad": 6605,
      "ngo": 6606,
      "ede": 6607,
      "vehic": 6608,
      "Ġsurve": 6609,
      "airy": 6610,
      "trichy": 6611,
      "Ġspeak": 6612,
      "Ġharassing": 6613,
      "Ġadopt": 6614,
      "sil": 6615,
      "Ġos": 6616,
      "Ġliver": 6617,
      "tegr": 6618,
      "Ġstalin": 6619,
      "Ġabandoned": 6620,
      "Ġappoints": 6621,
      "Ġolympic": 6622,
      "Ġscen": 6623,
      "Ġhandle": 6624,
      "Ġmishra": 6625,
      "Ġhaasan": 6626,
      "Ġpermission": 6627,
      "Ġviolating": 6628,
      "oos": 6629,
      "Ġburg": 6630,
      "Ġshro": 6631,
      "Ġhighlights": 6632,
      "Ġtripura": 6633,
      "Ġgirlfriend": 6634,
      "Ġscene": 6635,
      "Ġwithdraws": 6636,
      "spot": 6637,
      "Ġnomination": 6638,
      "kum": 6639,
      "finally": 6640,
      "Ġidentified": 6641,
      "Ġipo": 6642,
      "ags": 6643,
      "Ġitems": 6644,
      "Ġdecline": 6645,
      "aysia": 6646,
      "Ġkillers": 6647,
      "ishing": 6648,
      "nesday": 6649,
      "dist": 6650,
      "irement": 6651,
      "contr": 6652,
      "Ġflyers": 6653,
      "ancell": 6654,
      "Ġtdp": 6655,
      "Ġssc": 6656,
      "Ġknot": 6657,
      "tha": 6658,
      "Ġpilots": 6659,
      "john": 6660,
      "asion": 6661,
      "vement": 6662,
      "Ġcable": 6663,
      "oration": 6664,
      "ulate": 6665,
      "Ġagents": 6666,
      "Ġunhappy": 6667,
      "Ġawarded": 6668,
      "Ġlifts": 6669,
      "nri": 6670,
      "Ġganguly": 6671,
      "Ġtwice": 6672,
      "Ġsells": 6673,
      "isions": 6674,
      "Ġlankan": 6675,
      "Ġiron": 6676,
      "Ġrestric": 6677,
      "Ġhonours": 6678,
      "'?": 6679,
      "Ġakshay": 6680,
      "Ġwent": 6681,
      "ilpa": 6682,
      "Ġveter": 6683,
      "Ġwheat": 6684,
      "ifficult": 6685,
      "Ġaides": 6686,
      "Ġvandal": 6687,
      "Ġspent": 6688,
      "rog": 6689,
      "Ġni": 6690,
      "Ġablaze": 6691,
      "Ġvarsities": 6692,
      "labour": 6693,
      "Ġgender": 6694,
      "Ġlane": 6695,
      "Ġstrict": 6696,
      "ully": 6697,
      "itsar": 6698,
      "Ġbrazil": 6699,
      "ghar": 6700,
      "ayed": 6701,
      "aiya": 6702,
      "Ġcloser": 6703,
      "international": 6704,
      "eff": 6705,
      "Ġgather": 6706,
      "acter": 6707,
      "Ġcous": 6708,
      "Ġbrit": 6709,
      "Ġsalt": 6710,
      "Ġleadership": 6711,
      "wahati": 6712,
      "iac": 6713,
      "uing": 6714,
      "Ġrange": 6715,
      "Ġconditions": 6716,
      "lawyers": 6717,
      "lin": 6718,
      "Ġsukh": 6719,
      "inikanth": 6720,
      "fare": 6721,
      "maker": 6722,
      "oty": 6723,
      "arnath": 6724,
      "Ġequip": 6725,
      "every": 6726,
      "itra": 6727,
      "Ġsaudi": 6728,
      "Ġyr": 6729,
      "Ġinfant": 6730,
      "Ġscientists": 6731,
      "hist": 6732,
      "Ġdear": 6733,
      "Ġpeak": 6734,
      "anthapuram": 6735,
      "Ġcler": 6736,
      "Ġtrials": 6737,
      "bur": 6738,
      "Ġdeficit": 6739,
      "Ġsuic": 6740,
      "roli": 6741,
      "Ġdumped": 6742,
      "Ġcotton": 6743,
      "Ġyork": 6744,
      "Ġsequ": 6745,
      "Ġslaps": 6746,
      "zen": 6747,
      "Ġfern": 6748,
      "odia": 6749,
      "Ġalmost": 6750,
      "madh": 6751,
      "nat": 6752,
      "racts": 6753,
      "amm": 6754,
      "ueless": 6755,
      "cut": 6756,
      "rare": 6757,
      "Ġfault": 6758,
      "ulter": 6759,
      "sea": 6760,
      "Ġupgrade": 6761,
      "jewell": 6762,
      "Ġtension": 6763,
      "ication": 6764,
      "trial": 6765,
      "Ġgrows": 6766,
      "Ġinspector": 6767,
      "mail": 6768,
      "oping": 6769,
      "Ġconfl": 6770,
      "Ġimprison": 6771,
      "Ġdrag": 6772,
      "aviour": 6773,
      "Ġtelecom": 6774,
      "Ġcrops": 6775,
      "Ġluxury": 6776,
      "Ġuses": 6777,
      "Ġvin": 6778,
      "cohol": 6779,
      "Ġcollect": 6780,
      "Ġigi": 6781,
      "Ġration": 6782,
      "agra": 6783,
      "Ġunf": 6784,
      "ression": 6785,
      "Ġconvocation": 6786,
      "sand": 6787,
      "Ġspark": 6788,
      "Ġmovies": 6789,
      "Ġvalue": 6790,
      "Ġelephant": 6791,
      "Ġdhawan": 6792,
      "Ġtoilet": 6793,
      "rer": 6794,
      "Ġtaj": 6795,
      "Ġshad": 6796,
      "early": 6797,
      "orse": 6798,
      "vot": 6799,
      "Ġsingapore": 6800,
      "ooter": 6801,
      "eddy": 6802,
      "Ġbooths": 6803,
      "Ġirrigation": 6804,
      "fan": 6805,
      "Ġcasual": 6806,
      "Ġidentity": 6807,
      "lalu": 6808,
      "well": 6809,
      "Ġchase": 6810,
      "Ġpedestri": 6811,
      "uvananthapuram": 6812,
      "nia": 6813,
      "Ġannounced": 6814,
      "Ġwednesday": 6815,
      "lf": 6816,
      "ogue": 6817,
      "member": 6818,
      "hael": 6819,
      "reds": 6820,
      "jack": 6821,
      "Ġpav": 6822,
      "adun": 6823,
      "Ġproduce": 6824,
      "Ġparis": 6825,
      "ouhan": 6826,
      "Ġburnt": 6827,
      "bon": 6828,
      "Ġkab": 6829,
      "Ġcouples": 6830,
      "Ġspar": 6831,
      "Ġbrid": 6832,
      "Ġsetting": 6833,
      "Ġbare": 6834,
      "affron": 6835,
      "coronavirus": 6836,
      "oked": 6837,
      "kn": 6838,
      "Ġsizz": 6839,
      "Ġcomedy": 6840,
      "Ġcloth": 6841,
      "Ġcrew": 6842,
      "Ġnia": 6843,
      "Ġthefts": 6844,
      "Ġresumes": 6845,
      "Ġremember": 6846,
      "hradun": 6847,
      "Ġencroachments": 6848,
      "Ġmukherjee": 6849,
      "iences": 6850,
      "Ġtip": 6851,
      "Ġpwd": 6852,
      "sebi": 6853,
      "wi": 6854,
      "Ġcompletes": 6855,
      "99": 6856,
      "pool": 6857,
      "Ġvat": 6858,
      "Ġtriple": 6859,
      "Ġaudio": 6860,
      "Ġindependence": 6861,
      "Ġtrafficking": 6862,
      "ques": 6863,
      "Ġscr": 6864,
      "Ġapathy": 6865,
      "Ġoccup": 6866,
      "wind": 6867,
      "ngt": 6868,
      "Ġshak": 6869,
      "Ġknock": 6870,
      "Ġradar": 6871,
      "Ġnu": 6872,
      "ocol": 6873,
      "wealth": 6874,
      "Ġprize": 6875,
      "Ġbhat": 6876,
      "Ġdupes": 6877,
      "mw": 6878,
      "waste": 6879,
      "Ġlowest": 6880,
      "urers": 6881,
      "urappa": 6882,
      "Ġreasons": 6883,
      "Ġscar": 6884,
      "your": 6885,
      "Ġmbbs": 6886,
      "Ġradio": 6887,
      "Ġwhich": 6888,
      "rown": 6889,
      "uvraj": 6890,
      "Ġamarinder": 6891,
      "biz": 6892,
      "Ġoppn": 6893,
      "brit": 6894,
      "local": 6895,
      "Ġconstitu": 6896,
      "Ġnegative": 6897,
      "pin": 6898,
      "Ġcrucial": 6899,
      "expl": 6900,
      "regularities": 6901,
      "Ġquarantine": 6902,
      "Ġhat": 6903,
      "Ġprisoners": 6904,
      "Ġgamb": 6905,
      "Ġsaid": 6906,
      "Ġinitiative": 6907,
      "Ġmixed": 6908,
      "close": 6909,
      "Ġsilent": 6910,
      "Ġsuccessful": 6911,
      "ahead": 6912,
      "onal": 6913,
      "Ġrjd": 6914,
      "ador": 6915,
      "Ġkir": 6916,
      "raps": 6917,
      "Ġfrance": 6918,
      "Ġexpo": 6919,
      "Ġenrol": 6920,
      "ludhiana": 6921,
      "Ġray": 6922,
      "amid": 6923,
      "Ġchak": 6924,
      "Ġastrolog": 6925,
      "Ġavailable": 6926,
      "Ġfeature": 6927,
      "enty": 6928,
      "acement": 6929,
      "ifty": 6930,
      "aveen": 6931,
      "Ġdefaulters": 6932,
      "Ġlooms": 6933,
      "llab": 6934,
      "Ġaustralian": 6935,
      "ellite": 6936,
      "Ġfarming": 6937,
      "Ġregional": 6938,
      "Ġcarrying": 6939,
      "made": 6940,
      "allahabad": 6941,
      "rc": 6942,
      "Ġmine": 6943,
      "Ġsilence": 6944,
      "Ġdemocracy": 6945,
      "Ġsick": 6946,
      "Ġlie": 6947,
      "Ġambedkar": 6948,
      "Ġtransfers": 6949,
      "Ġthreats": 6950,
      "sew": 6951,
      "ooja": 6952,
      "Ġ39": 6953,
      "Ġinjures": 6954,
      "Ġmcd": 6955,
      "Ġroshan": 6956,
      "ayi": 6957,
      "minton": 6958,
      "srk": 6959,
      "Ġrd": 6960,
      "Ġroof": 6961,
      "aser": 6962,
      "puri": 6963,
      "Ġcorp": 6964,
      "Ġthrash": 6965,
      "sikh": 6966,
      "Ġstudies": 6967,
      "Ġfeat": 6968,
      "Ġacademic": 6969,
      "Ġjuven": 6970,
      "boo": 6971,
      "won": 6972,
      "alys": 6973,
      "Ġnations": 6974,
      "Ġregistr": 6975,
      "Ġfields": 6976,
      "Ġdum": 6977,
      "ches": 6978,
      "Ġcapacity": 6979,
      "stri": 6980,
      "porary": 6981,
      "dam": 6982,
      "Ġpts": 6983,
      "block": 6984,
      "Ġmanmohan": 6985,
      "Ġmeat": 6986,
      "Ġideas": 6987,
      "Ġbullet": 6988,
      "Ġmantra": 6989,
      "lor": 6990,
      "Ġlies": 6991,
      "Ġdamages": 6992,
      "american": 6993,
      "Ġhers": 6994,
      "Ġhaving": 6995,
      "Ġquake": 6996,
      "Ġminority": 6997,
      "Ġrebel": 6998,
      "Ġdeposit": 6999,
      "Ġtom": 7000,
      "aurangabad": 7001,
      "buil": 7002,
      "Ġmuzaff": 7003,
      "Ġrevised": 7004,
      "Ġflags": 7005,
      "nir": 7006,
      "Ġdates": 7007,
      "ching": 7008,
      "check": 7009,
      "illa": 7010,
      "Ġagri": 7011,
      "Ġmachine": 7012,
      "aneswar": 7013,
      "Ġcustomers": 7014,
      "gun": 7015,
      "Ġsanct": 7016,
      "mag": 7017,
      "yal": 7018,
      "bsf": 7019,
      "peak": 7020,
      "Ġvirtual": 7021,
      "vention": 7022,
      "Ġpunish": 7023,
      "84": 7024,
      "Ġdivided": 7025,
      "Ġmemory": 7026,
      "Ġsanctions": 7027,
      "fifa": 7028,
      "tat": 7029,
      "Ġmoon": 7030,
      "Ġnehru": 7031,
      "Ġiphone": 7032,
      "Ġmoots": 7033,
      "Ġchandrasekhar": 7034,
      "Ġgall": 7035,
      "Ġquot": 7036,
      "Ġconvict": 7037,
      "Ġlokayukta": 7038,
      "Ġgreet": 7039,
      "eur": 7040,
      "qa": 7041,
      "iful": 7042,
      "ubaneswar": 7043,
      "Ġparish": 7044,
      "viol": 7045,
      "Ġmasks": 7046,
      "tension": 7047,
      "Ġillegally": 7048,
      "Ġdaco": 7049,
      "Ġvarun": 7050,
      "agi": 7051,
      "door": 7052,
      "oph": 7053,
      "Ġswachh": 7054,
      "Ġportal": 7055,
      "Ġbuilt": 7056,
      "Ġambulance": 7057,
      "Ġimprisonment": 7058,
      "Ġregisters": 7059,
      "Ġwinners": 7060,
      "Ġserve": 7061,
      "reliance": 7062,
      "dg": 7063,
      "inate": 7064,
      "Ġkm": 7065,
      "imal": 7066,
      "parking": 7067,
      "Ġhearts": 7068,
      "Ġtaste": 7069,
      "Ġhollywood": 7070,
      "Ġclashes": 7071,
      "Ġpanaji": 7072,
      "Ġinterim": 7073,
      "Ġbelt": 7074,
      "bies": 7075,
      "Ġgowda": 7076,
      "Ġkings": 7077,
      "Ġbeating": 7078,
      "Ġscor": 7079,
      "Ġ250": 7080,
      "Ġdating": 7081,
      "Ġclueless": 7082,
      "Ġtej": 7083,
      "Ġgopal": 7084,
      "Ġarts": 7085,
      "ughters": 7086,
      "vil": 7087,
      "Ġengg": 7088,
      "Ġbonds": 7089,
      "mass": 7090,
      "upur": 7091,
      "Ġbrig": 7092,
      "orders": 7093,
      "Ġdesi": 7094,
      "Ġkapil": 7095,
      "box": 7096,
      "fed": 7097,
      "Ġtaliban": 7098,
      "Ġmort": 7099,
      "osis": 7100,
      "Ġscandal": 7101,
      "Ġexpand": 7102,
      "Ġgangster": 7103,
      "Ġthrong": 7104,
      "hotra": 7105,
      "Ġkumbh": 7106,
      "Ġboom": 7107,
      "iat": 7108,
      "Ġmanohar": 7109,
      "Ġranks": 7110,
      "dd": 7111,
      "mis": 7112,
      "Ġpanels": 7113,
      "Ġretain": 7114,
      "Ġabduction": 7115,
      "ography": 7116,
      "arati": 7117,
      "Ġporn": 7118,
      "Ġnob": 7119,
      "Ġmaya": 7120,
      "Ġposing": 7121,
      "Ġromance": 7122,
      "600": 7123,
      "Ġjumb": 7124,
      "Ġrepresent": 7125,
      "quake": 7126,
      "Ġresidence": 7127,
      "Ġcolours": 7128,
      "Ġlucky": 7129,
      "Ġpink": 7130,
      "Ġlect": 7131,
      "Ġposter": 7132,
      "Ġcleaning": 7133,
      "Ġsentence": 7134,
      "Ġgul": 7135,
      "Ġeater": 7136,
      "Ġheroin": 7137,
      "atta": 7138,
      "Ġscript": 7139,
      "raph": 7140,
      "Ġdisposal": 7141,
      "entine": 7142,
      "umble": 7143,
      "Ġdischarg": 7144,
      "Ġinvite": 7145,
      "Ġhyd": 7146,
      "field": 7147,
      "Ġlashes": 7148,
      "Ġkatrina": 7149,
      "Ġpercent": 7150,
      "Ġpresence": 7151,
      "cyber": 7152,
      "inary": 7153,
      "Ġben": 7154,
      "jaya": 7155,
      "riti": 7156,
      "vik": 7157,
      "Ġcp": 7158,
      "eye": 7159,
      "Ġparade": 7160,
      "Ġturning": 7161,
      "cust": 7162,
      "Ġpic": 7163,
      "imla": 7164,
      "Ġbit": 7165,
      "third": 7166,
      "develop": 7167,
      "Ġbalance": 7168,
      "justice": 7169,
      "Ġherself": 7170,
      "Ġbund": 7171,
      "Ġadvance": 7172,
      "Ġshuts": 7173,
      "Ġtowers": 7174,
      "Ġevac": 7175,
      "kart": 7176,
      "Ġarmed": 7177,
      "Ġstartups": 7178,
      "Ġresponsible": 7179,
      "sania": 7180,
      "auc": 7181,
      "bul": 7182,
      "press": 7183,
      "anmar": 7184,
      "idav": 7185,
      "Ġkon": 7186,
      "amaiah": 7187,
      "Ġwarriors": 7188,
      "argo": 7189,
      "rass": 7190,
      "property": 7191,
      "bie": 7192,
      "hwag": 7193,
      "vol": 7194,
      "Ġmini": 7195,
      "Ġdismissed": 7196,
      "Ġamerican": 7197,
      "Ġpir": 7198,
      "Ġ41": 7199,
      "clude": 7200,
      "Ġdalits": 7201,
      "Ġcrackdown": 7202,
      "Ġshifts": 7203,
      "Ġspeeding": 7204,
      "bail": 7205,
      "ea": 7206,
      "uki": 7207,
      "Ġentertain": 7208,
      "lic": 7209,
      "lakh": 7210,
      "Ġrig": 7211,
      "Ġvenue": 7212,
      "Ġlauds": 7213,
      "Ġsmooth": 7214,
      "Ġemb": 7215,
      "Ġmund": 7216,
      "Ġdealer": 7217,
      "Ġserial": 7218,
      "Ġbelie": 7219,
      "double": 7220,
      "Ġearnings": 7221,
      "Ġtigers": 7222,
      "tdp": 7223,
      "stit": 7224,
      "Ġreward": 7225,
      "Ġacres": 7226,
      "ford": 7227,
      "Ġmedals": 7228,
      "Ġpromotion": 7229,
      "guj": 7230,
      "Ġrides": 7231,
      "ifth": 7232,
      "Ġsai": 7233,
      "Ġseg": 7234,
      "Ġtechnical": 7235,
      "Ġdharna": 7236,
      "cost": 7237,
      "Ġnal": 7238,
      "atha": 7239,
      "shop": 7240,
      "Ġdrains": 7241,
      "Ġresolution": 7242,
      "vo": 7243,
      "Ġcoaching": 7244,
      "Ġrevealed": 7245,
      "vars": 7246,
      "Ġmi": 7247,
      "Ġads": 7248,
      "british": 7249,
      "Ġsyllab": 7250,
      "iod": 7251,
      "mes": 7252,
      "tur": 7253,
      "isa": 7254,
      "Ġ46": 7255,
      "Ġmysore": 7256,
      "Ġjawans": 7257,
      "rie": 7258,
      "Ġdrink": 7259,
      "vish": 7260,
      "Ġsik": 7261,
      "Ġgates": 7262,
      "Ġcorporators": 7263,
      "sacred": 7264,
      "Ġrash": 7265,
      "Ġshield": 7266,
      "Ġretired": 7267,
      "elsius": 7268,
      "locals": 7269,
      "Ġraised": 7270,
      "struct": 7271,
      "32": 7272,
      "Ġgor": 7273,
      "Ġgaur": 7274,
      "Ġshutt": 7275,
      "Ġkillings": 7276,
      "Ġuddhav": 7277,
      "Ġtunn": 7278,
      "Ġjack": 7279,
      "Ġprimary": 7280,
      "Ġdecides": 7281,
      "Ġlodged": 7282,
      "cre": 7283,
      "dm": 7284,
      "Ġaffects": 7285,
      "Ġsuccumbs": 7286,
      "Ġresist": 7287,
      "Ġretirement": 7288,
      "Ġshots": 7289,
      "active": 7290,
      "rajkot": 7291,
      "iders": 7292,
      "Ġmaintenance": 7293,
      "super": 7294,
      "Ġsuicides": 7295,
      "ova": 7296,
      "Ġunity": 7297,
      "Ġstrang": 7298,
      "Ġmandatory": 7299,
      "ensic": 7300,
      "Ġbetting": 7301,
      "arka": 7302,
      "Ġinaugurates": 7303,
      "Ġcondemns": 7304,
      "scient": 7305,
      "turns": 7306,
      "Ġsant": 7307,
      "Ġcorporate": 7308,
      "Ġchallenged": 7309,
      "Ġcure": 7310,
      "Ġmeerut": 7311,
      "Ġrecall": 7312,
      "final": 7313,
      "babu": 7314,
      "Ġmedicine": 7315,
      "impri": 7316,
      "Ġstartup": 7317,
      "Ġentrepreneurs": 7318,
      "master": 7319,
      "snatch": 7320,
      "Ġpractice": 7321,
      "Ġorissa": 7322,
      "coal": 7323,
      "Ġsind": 7324,
      "Ġagrees": 7325,
      "Ġcru": 7326,
      "Ġmishaps": 7327,
      "prom": 7328,
      "Ġhaj": 7329,
      "Ġchouhan": 7330,
      "Ġsubmits": 7331,
      "Ġchannel": 7332,
      "cond": 7333,
      "rural": 7334,
      "Ġkod": 7335,
      "icken": 7336,
      "Ġcheated": 7337,
      "Ġpaul": 7338,
      "cpi": 7339,
      "Ġlady": 7340,
      "Ġnaik": 7341,
      "Ġtourney": 7342,
      "yrs": 7343,
      "Ġproud": 7344,
      "Ġbanking": 7345,
      "Ġvegg": 7346,
      "Ġsocieties": 7347,
      "kia": 7348,
      "mare": 7349,
      "Ġdaw": 7350,
      "riya": 7351,
      "Ġamc": 7352,
      "Ġire": 7353,
      "greater": 7354,
      "spiracy": 7355,
      "gc": 7356,
      "andon": 7357,
      "away": 7358,
      "Ġquashes": 7359,
      "cred": 7360,
      "Ġannounce": 7361,
      "maoist": 7362,
      "unes": 7363,
      "bsnl": 7364,
      "rench": 7365,
      "Ġelev": 7366,
      "gst": 7367,
      "buy": 7368,
      "Ġsoldiers": 7369,
      "Ġnatural": 7370,
      "muk": 7371,
      "zan": 7372,
      "ooch": 7373,
      "prof": 7374,
      "cot": 7375,
      "order": 7376,
      "arch": 7377,
      "Ġmood": 7378,
      "amour": 7379,
      "mcd": 7380,
      "Ġcontractors": 7381,
      "Ġignored": 7382,
      "hom": 7383,
      "ushi": 7384,
      "Ġstun": 7385,
      "Ġjodhpur": 7386,
      "Ġagre": 7387,
      "toi": 7388,
      "Ġresidential": 7389,
      "gets": 7390,
      "infl": 7391,
      "Ġcelsius": 7392,
      "Ġblaze": 7393,
      "Ġlimits": 7394,
      "Ġhonoured": 7395,
      "Ġsed": 7396,
      "Ġshadow": 7397,
      "Ġpist": 7398,
      "Ġkareena": 7399,
      "imming": 7400,
      "vision": 7401,
      "Ġaside": 7402,
      "amprs": 7403,
      "onding": 7404,
      "Ġmalhotra": 7405,
      "Ġsignals": 7406,
      "Ġnabs": 7407,
      "amprsqu": 7408,
      "mand": 7409,
      "Ġindies": 7410,
      "Ġdairy": 7411,
      "Ġwrest": 7412,
      "amu": 7413,
      "thieves": 7414,
      "Ġ47": 7415,
      "Ġnortheast": 7416,
      "Ġdonate": 7417,
      "Ġrussian": 7418,
      "Ġsection": 7419,
      "Ġmargao": 7420,
      "burglars": 7421,
      "Ġsis": 7422,
      "ules": 7423,
      "Ġdocument": 7424,
      "srtc": 7425,
      "Ġdirectors": 7426,
      "Ġobserve": 7427,
      "Ġmisuse": 7428,
      "ratri": 7429,
      "mmc": 7430,
      "Ġmean": 7431,
      "Ġruckus": 7432,
      "Ġencroachment": 7433,
      "mart": 7434,
      "ources": 7435,
      "Ġsweep": 7436,
      "Ġholding": 7437,
      "burn": 7438,
      "mac": 7439,
      "aramaiah": 7440,
      "Ġoutfit": 7441,
      "Ġmars": 7442,
      "Ġterrorist": 7443,
      "Ġmolested": 7444,
      "parties": 7445,
      "Ġtextile": 7446,
      "Ġtrapped": 7447,
      "itude": 7448,
      "Ġnights": 7449,
      "Ġcheaper": 7450,
      "Ġcountries": 7451,
      "Ġsarpanch": 7452,
      "Ġtanker": 7453,
      "47": 7454,
      "Ġdifficult": 7455,
      "Ġwary": 7456,
      "urse": 7457,
      "uths": 7458,
      "Ġoutput": 7459,
      "Ġkhanna": 7460,
      "ayats": 7461,
      "Ġkit": 7462,
      "Ġuncle": 7463,
      "passeng": 7464,
      "rani": 7465,
      "actions": 7466,
      "Ġsalem": 7467,
      "Ġafford": 7468,
      "igerian": 7469,
      "jail": 7470,
      "liness": 7471,
      "aditya": 7472,
      "Ġrein": 7473,
      "once": 7474,
      "Ġbuck": 7475,
      "ifest": 7476,
      "Ġramesh": 7477,
      "vmc": 7478,
      "Ġvihar": 7479,
      "Ġbecause": 7480,
      "Ġpanchkula": 7481,
      "Ġmaterial": 7482,
      "Ġspin": 7483,
      "Ġadvice": 7484,
      "achar": 7485,
      "Ġbadminton": 7486,
      "Ġconclud": 7487,
      "axy": 7488,
      "Ġcolonies": 7489,
      "Ġgrips": 7490,
      "Ġsensex": 7491,
      "Ġbright": 7492,
      "Ġlakhs": 7493,
      "Ġhorror": 7494,
      "Ġgermany": 7495,
      "ancellor": 7496,
      "anidhi": 7497,
      "ateg": 7498,
      "Ġartists": 7499,
      "Ġjohar": 7500,
      "eb": 7501,
      "Ġcarn": 7502,
      "Ġhood": 7503,
      "human": 7504,
      "rly": 7505,
      "Ġtb": 7506,
      "Ġcues": 7507,
      "narendra": 7508,
      "Ġallotment": 7509,
      "cold": 7510,
      "Ġdedic": 7511,
      "erson": 7512,
      "Ġinspects": 7513,
      "Ġbsf": 7514,
      "efin": 7515,
      "eted": 7516,
      "Ġeditor": 7517,
      "driver": 7518,
      "Ġformula": 7519,
      "Ġinflu": 7520,
      "29": 7521,
      "Ġnature": 7522,
      "ovic": 7523,
      "Ġsep": 7524,
      "businessman": 7525,
      "cer": 7526,
      "lie": 7527,
      "Ġdaughters": 7528,
      "Ġclim": 7529,
      "Ġ49": 7530,
      "Ġsharing": 7531,
      "Ġunique": 7532,
      "Ġordin": 7533,
      "velops": 7534,
      "Ġlabs": 7535,
      "acb": 7536,
      "Ġproceed": 7537,
      "aim": 7538,
      "Ġsnow": 7539,
      "roid": 7540,
      "should": 7541,
      "Ġ600": 7542,
      "Ġpatrol": 7543,
      "Ġyoungsters": 7544,
      "Ġera": 7545,
      "Ġbast": 7546,
      "Ġhd": 7547,
      "Ġreally": 7548,
      "Ġbuzz": 7549,
      "Ġmasters": 7550,
      "ugs": 7551,
      "Ġcomputer": 7552,
      "Ġgrowing": 7553,
      "Ġtwist": 7554,
      "fix": 7555,
      "Ġrivers": 7556,
      "Ġmoved": 7557,
      "Ġgriev": 7558,
      "equ": 7559,
      "nda": 7560,
      "Ġabd": 7561,
      "Ġbharti": 7562,
      "Ġsidhu": 7563,
      "hat": 7564,
      "katrina": 7565,
      "mall": 7566,
      "Ġcoc": 7567,
      "Ġbatter": 7568,
      "sever": 7569,
      "Ġconvicts": 7570,
      "Ġhalts": 7571,
      "petrol": 7572,
      "french": 7573,
      "ought": 7574,
      "amps": 7575,
      "kmc": 7576,
      "Ġvip": 7577,
      "microsoft": 7578,
      "Ġsacked": 7579,
      "Ġhoney": 7580,
      "Ġlash": 7581,
      "Ġteens": 7582,
      "Ġinvestig": 7583,
      "Ġattendance": 7584,
      "Ġhoax": 7585,
      "kamal": 7586,
      "askar": 7587,
      "Ġperiod": 7588,
      "commer": 7589,
      "Ġrestr": 7590,
      "Ġcombat": 7591,
      "Ġpas": 7592,
      "Ġhate": 7593,
      "Ġaffidav": 7594,
      "akshmi": 7595,
      "Ġgeneration": 7596,
      "Ġamitabh": 7597,
      "Ġjas": 7598,
      "Ġposition": 7599,
      "dhoni": 7600,
      "Ġbedi": 7601,
      "Ġtiwari": 7602,
      "Ġthakur": 7603,
      "agram": 7604,
      "umer": 7605,
      "Ġinfections": 7606,
      "Ġuniform": 7607,
      "pvt": 7608,
      "Ġcrores": 7609,
      "ahan": 7610,
      "mayawati": 7611,
      "help": 7612,
      "Ġdeshmukh": 7613,
      "kolhapur": 7614,
      "anil": 7615,
      "Ġmour": 7616,
      "term": 7617,
      "exc": 7618,
      "Ġvolunte": 7619,
      "cutta": 7620,
      "Ġapps": 7621,
      "Ġ52": 7622,
      "kir": 7623,
      "Ġfb": 7624,
      "ifer": 7625,
      "Ġclearance": 7626,
      "Ġincreases": 7627,
      "Ġpurchase": 7628,
      "Ġhighways": 7629,
      "Ġphil": 7630,
      "Ġtreated": 7631,
      "huff": 7632,
      "Ġdeclare": 7633,
      "odes": 7634,
      "Ġvisakhapatnam": 7635,
      "maruti": 7636,
      "Ġproducer": 7637,
      "ronic": 7638,
      "Ġice": 7639,
      "Ġtherapy": 7640,
      "Ġvaluables": 7641,
      "map": 7642,
      "Ġtol": 7643,
      "Ġmalaria": 7644,
      "Ġpolicies": 7645,
      "ront": 7646,
      "Ġreadies": 7647,
      "exam": 7648,
      "Ġambani": 7649,
      "Ġmigrant": 7650,
      "video": 7651,
      "Ġburgled": 7652,
      "Ġformed": 7653,
      "Ġspr": 7654,
      "tourism": 7655,
      "ori": 7656,
      "Ġprat": 7657,
      "Ġbless": 7658,
      "Ġdealers": 7659,
      "Ġspreads": 7660,
      "Ġwaters": 7661,
      "Ġabhi": 7662,
      "working": 7663,
      "dj": 7664,
      "Ġkot": 7665,
      "Ġjunction": 7666,
      "Ġtaxes": 7667,
      "Ġgrounds": 7668,
      "chhattisgarh": 7669,
      "Ġfixed": 7670,
      "bharat": 7671,
      "iet": 7672,
      "jai": 7673,
      "acre": 7674,
      "utor": 7675,
      "Ġjew": 7676,
      "Ġpotholes": 7677,
      "Ġkitch": 7678,
      "Ġdoors": 7679,
      "pra": 7680,
      "tim": 7681,
      "Ġtennis": 7682,
      "Ġmh": 7683,
      "Ġwood": 7684,
      "thir": 7685,
      "Ġspree": 7686,
      "Ġleading": 7687,
      "ny": 7688,
      "Ġcul": 7689,
      "iala": 7690,
      "Ġreshuff": 7691,
      "Ġrestore": 7692,
      "Ġgeorge": 7693,
      "Ġprepared": 7694,
      "Ġprayers": 7695,
      "lift": 7696,
      "Ġragh": 7697,
      "Ġrivals": 7698,
      "these": 7699,
      "logging": 7700,
      "sg": 7701,
      "iva": 7702,
      "Ġsha": 7703,
      "Ġtroops": 7704,
      "Ġsanitation": 7705,
      "Ġsanctuary": 7706,
      "mult": 7707,
      "ocates": 7708,
      "ivek": 7709,
      "Ġexped": 7710,
      "ratic": 7711,
      "suicide": 7712,
      "Ġparishad": 7713,
      "krishna": 7714,
      "Ġtum": 7715,
      "aluation": 7716,
      "Ġburden": 7717,
      "Ġphd": 7718,
      "going": 7719,
      "Ġtrading": 7720,
      "Ġcrossing": 7721,
      "Ġpoly": 7722,
      "Ġclick": 7723,
      "Ġbound": 7724,
      "Ġpakistani": 7725,
      "Ġempower": 7726,
      "Ġrejig": 7727,
      "Ġdecade": 7728,
      "Ġcorporator": 7729,
      "Ġbiker": 7730,
      "Ġlah": 7731,
      "Ġprec": 7732,
      "Ġraje": 7733,
      "bike": 7734,
      "Ġsisters": 7735,
      "Ġoverturns": 7736,
      "engineering": 7737,
      "Ġbrigade": 7738,
      "36": 7739,
      "fits": 7740,
      "Ġtenders": 7741,
      "Ġisolation": 7742,
      "Ġcomments": 7743,
      "Ġbaba": 7744,
      "Ġshivraj": 7745,
      "Ġlion": 7746,
      "ivities": 7747,
      "Ġtruth": 7748,
      "Ġkhur": 7749,
      "Ġbungal": 7750,
      "Ġremake": 7751,
      "Ġragging": 7752,
      "Ġcouncillors": 7753,
      "essions": 7754,
      "Ġagree": 7755,
      "ample": 7756,
      "Ġforecast": 7757,
      "pon": 7758,
      "Ġintegr": 7759,
      "ajit": 7760,
      "Ġvacation": 7761,
      "Ġmessages": 7762,
      "Ġwidow": 7763,
      "cement": 7764,
      "inho": 7765,
      "Ġmec": 7766,
      "Ġnay": 7767,
      "attar": 7768,
      "Ġinfosys": 7769,
      "ariat": 7770,
      "Ġbasu": 7771,
      "books": 7772,
      "Ġtoes": 7773,
      "Ġhelmet": 7774,
      "seb": 7775,
      "Ġbandra": 7776,
      "ranbir": 7777,
      "Ġpaint": 7778,
      "Ġjh": 7779,
      "Ġproposals": 7780,
      "gpc": 7781,
      "Ġintroduce": 7782,
      "Ġrupee": 7783,
      "Ġ@": 7784,
      "ackers": 7785,
      "manent": 7786,
      "Ġdiscover": 7787,
      "readers": 7788,
      "Ġpotential": 7789,
      "Ġakhtar": 7790,
      "igar": 7791,
      "Ġshines": 7792,
      "Ġmanifest": 7793,
      "Ġfirs": 7794,
      "naidu": 7795,
      "Ġacquire": 7796,
      "Ġsource": 7797,
      "Ġthriller": 7798,
      "pand": 7799,
      "Ġeaster": 7800,
      "agement": 7801,
      "defence": 7802,
      "Ġtournament": 7803,
      "Ġlays": 7804,
      "Ġnc": 7805,
      "Ġsrinagar": 7806,
      "itz": 7807,
      "Ġkota": 7808,
      "Ġbypolls": 7809,
      "Ġcorner": 7810,
      "market": 7811,
      "ambh": 7812,
      "Ġseal": 7813,
      "Ġwhatsapp": 7814,
      "Ġitself": 7815,
      "relief": 7816,
      "bour": 7817,
      "budd": 7818,
      "cast": 7819,
      "ket": 7820,
      "econom": 7821,
      "Ġrout": 7822,
      "Ġlanding": 7823,
      "Ġbrief": 7824,
      "Ġintelligence": 7825,
      "Ġrefer": 7826,
      "Ġelector": 7827,
      "Ġinterview": 7828,
      "Ġsewer": 7829,
      "leader": 7830,
      "Ġtorture": 7831,
      "erse": 7832,
      "aiadmk": 7833,
      "Ġcancel": 7834,
      "Ġsust": 7835,
      "kashmir": 7836,
      "organ": 7837,
      "Ġhan": 7838,
      "rows": 7839,
      "phal": 7840,
      "Ġpandey": 7841,
      "Ġmotorists": 7842,
      "Ġspecies": 7843,
      "800": 7844,
      "oop": 7845,
      "Ġoath": 7846,
      "Ġ72": 7847,
      "oyal": 7848,
      "Ġconducts": 7849,
      "transport": 7850,
      "gender": 7851,
      "Ġnil": 7852,
      "avat": 7853,
      "Ġpaying": 7854,
      "Ġadjourned": 7855,
      "Ġtall": 7856,
      "Ġintervention": 7857,
      "Ġsynd": 7858,
      "Ġlokpal": 7859,
      "Ġpraise": 7860,
      "Ġmatches": 7861,
      "eels": 7862,
      "Ġsectors": 7863,
      "Ġpumps": 7864,
      "antic": 7865,
      "Ġuniv": 7866,
      "building": 7867,
      "staff": 7868,
      "Ġfiling": 7869,
      "Ġinvestigation": 7870,
      "robbers": 7871,
      "Ġflouting": 7872,
      "Ġdischarged": 7873,
      "undreds": 7874,
      "Ġdrill": 7875,
      "Ġrobbing": 7876,
      "Ġngos": 7877,
      "33": 7878,
      "Ġpair": 7879,
      "avours": 7880,
      "Ġcounting": 7881,
      "Ġarrang": 7882,
      "ered": 7883,
      "Ġcrpf": 7884,
      "Ġanth": 7885,
      "Ġwheels": 7886,
      "airport": 7887,
      "Ġwarrant": 7888,
      "ij": 7889,
      "Ġwars": 7890,
      "apa": 7891,
      "Ġoutbreak": 7892,
      "Ġdists": 7893,
      "Ġnears": 7894,
      "Ġneta": 7895,
      "Ġdeny": 7896,
      "Ġpunjabi": 7897,
      "Ġapplication": 7898,
      "isalmer": 7899,
      "Ġconcludes": 7900,
      "Ġkher": 7901,
      "Ġshir": 7902,
      "Ġdevelops": 7903,
      "Ġrajiv": 7904,
      "Ġghosh": 7905,
      "55": 7906,
      "Ġiv": 7907,
      "Ġbaza": 7908,
      "ajwadi": 7909,
      "Ġplease": 7910,
      "Ġintensify": 7911,
      "fund": 7912,
      "tpc": 7913,
      "Ġrop": 7914,
      "Ġthought": 7915,
      "arna": 7916,
      "Ġhide": 7917,
      "storm": 7918,
      "Ġ51": 7919,
      "Ġfoc": 7920,
      "Ġbbmp": 7921,
      "Ġsentenced": 7922,
      "wanted": 7923,
      "Ġlying": 7924,
      "Ġexcess": 7925,
      "Ġrecovers": 7926,
      "Ġmeters": 7927,
      "sunny": 7928,
      "tail": 7929,
      "Ġcult": 7930,
      "Ġcateg": 7931,
      "Ġrajput": 7932,
      "Ġselfie": 7933,
      "Ġvirat": 7934,
      "Ġprivat": 7935,
      "esty": 7936,
      "Ġsecure": 7937,
      "say": 7938,
      "elderly": 7939,
      "angute": 7940,
      "Ġcauvery": 7941,
      "Ġsymb": 7942,
      "bri": 7943,
      "pp": 7944,
      "Ġthreatening": 7945,
      "Ġsuggests": 7946,
      "aults": 7947,
      "Ġtiff": 7948,
      "Ġvajpayee": 7949,
      "manipur": 7950,
      "trs": 7951,
      "Ġdangerous": 7952,
      "Ġweapons": 7953,
      "onic": 7954,
      "Ġfeared": 7955,
      "cand": 7956,
      "Ġstages": 7957,
      "cctv": 7958,
      "Ġinstitutions": 7959,
      "emma": 7960,
      "Ġmanish": 7961,
      "Ġsett": 7962,
      "Ġsupports": 7963,
      "Ġajit": 7964,
      "Ġdock": 7965,
      "edcl": 7966,
      "eti": 7967,
      "Ġwilli": 7968,
      "Ġcorona": 7969,
      "Ġangry": 7970,
      "lord": 7971,
      "som": 7972,
      "Ġajay": 7973,
      "Ġpit": 7974,
      "Ġstories": 7975,
      "hus": 7976,
      "asian": 7977,
      "Ġunite": 7978,
      "ancies": 7979,
      "Ġstores": 7980,
      "Ġblocked": 7981,
      "complete": 7982,
      "nik": 7983,
      "Ġpin": 7984,
      "Ġwast": 7985,
      "etisation": 7986,
      "Ġheist": 7987,
      "Ġmlc": 7988,
      "Ġburst": 7989,
      "uals": 7990,
      "Ġsunny": 7991,
      "Ġtrick": 7992,
      "roads": 7993,
      "Ġimmigr": 7994,
      "Ġconflict": 7995,
      "right": 7996,
      "inees": 7997,
      "Ġirregularities": 7998,
      "shahid": 7999
    },
    "merges": [
      [
        "i",
        "n"
      ],
      [
        "Ġ",
        "t"
      ],
      [
        "Ġ",
        "s"
      ],
      [
        "e",
        "r"
      ],
      [
        "a",
        "n"
      ],
      [
        "Ġ",
        "c"
      ],
      [
        "e",
        "s"
      ],
      [
        "o",
        "n"
      ],
      [
        "Ġ",
        "a"
      ],
      [
        "o",
        "r"
      ],
      [
        "Ġ",
        "f"
      ],
      [
        "a",
        "r"
      ],
      [
        "Ġ",
        "p"
      ],
      [
        "Ġ",
        "b"
      ],
      [
        "e",
        "n"
      ],
      [
        "a",
        "t"
      ],
      [
        "Ġ",
        "m"
      ],
      [
        "Ġ",
        "in"
      ],
      [
        "a",
        "l"
      ],
      [
        "Ġ",
        "r"
      ],
      [
        "Ġt",
        "o"
      ],
      [
        "Ġ",
        "d"
      ],
      [
        "i",
        "t"
      ],
      [
        "e",
        "d"
      ],
      [
        "Ġ",
        "o"
      ],
      [
        "Ġ",
        "h"
      ],
      [
        "i",
        "s"
      ],
      [
        "Ġ",
        "w"
      ],
      [
        "u",
        "r"
      ],
      [
        "in",
        "g"
      ],
      [
        "Ġ",
        "g"
      ],
      [
        "i",
        "l"
      ],
      [
        "e",
        "l"
      ],
      [
        "i",
        "c"
      ],
      [
        "a",
        "s"
      ],
      [
        "Ġ",
        "l"
      ],
      [
        "Ġf",
        "or"
      ],
      [
        "e",
        "t"
      ],
      [
        "r",
        "o"
      ],
      [
        "Ġ",
        "n"
      ],
      [
        "o",
        "l"
      ],
      [
        "a",
        "y"
      ],
      [
        "u",
        "n"
      ],
      [
        "i",
        "on"
      ],
      [
        "a",
        "d"
      ],
      [
        "Ġo",
        "f"
      ],
      [
        "u",
        "s"
      ],
      [
        "a",
        "m"
      ],
      [
        "en",
        "t"
      ],
      [
        "e",
        "c"
      ],
      [
        "a",
        "c"
      ],
      [
        "i",
        "d"
      ],
      [
        "Ġs",
        "t"
      ],
      [
        "i",
        "r"
      ],
      [
        "u",
        "t"
      ],
      [
        "Ġ",
        "on"
      ],
      [
        "er",
        "s"
      ],
      [
        "Ġ",
        "k"
      ],
      [
        "'",
        "s"
      ],
      [
        "an",
        "d"
      ],
      [
        "r",
        "e"
      ],
      [
        "Ġt",
        "h"
      ],
      [
        "o",
        "m"
      ],
      [
        "o",
        "t"
      ],
      [
        "a",
        "k"
      ],
      [
        "l",
        "e"
      ],
      [
        "i",
        "v"
      ],
      [
        "s",
        "t"
      ],
      [
        "r",
        "a"
      ],
      [
        "c",
        "h"
      ],
      [
        "i",
        "g"
      ],
      [
        "Ġ",
        "v"
      ],
      [
        "es",
        "t"
      ],
      [
        "Ġ",
        "e"
      ],
      [
        "o",
        "v"
      ],
      [
        "u",
        "p"
      ],
      [
        "o",
        "w"
      ],
      [
        "Ġc",
        "h"
      ],
      [
        "i",
        "m"
      ],
      [
        "e",
        "m"
      ],
      [
        "t",
        "s"
      ],
      [
        "t",
        "h"
      ],
      [
        "a",
        "g"
      ],
      [
        "Ġ",
        "j"
      ],
      [
        "o",
        "p"
      ],
      [
        "il",
        "l"
      ],
      [
        "Ġa",
        "t"
      ],
      [
        "u",
        "l"
      ],
      [
        "t",
        "er"
      ],
      [
        "a",
        "b"
      ],
      [
        "at",
        "ion"
      ],
      [
        "o",
        "d"
      ],
      [
        "Ġs",
        "h"
      ],
      [
        "Ġr",
        "e"
      ],
      [
        "o",
        "s"
      ],
      [
        "a",
        "p"
      ],
      [
        "u",
        "m"
      ],
      [
        "Ġth",
        "e"
      ],
      [
        "Ġd",
        "e"
      ],
      [
        "r",
        "i"
      ],
      [
        "a",
        "in"
      ],
      [
        "Ġp",
        "ro"
      ],
      [
        "it",
        "h"
      ],
      [
        "Ġ",
        "1"
      ],
      [
        "Ġb",
        "e"
      ],
      [
        "u",
        "d"
      ],
      [
        "Ġa",
        "s"
      ],
      [
        "es",
        "s"
      ],
      [
        "o",
        "ur"
      ],
      [
        "it",
        "y"
      ],
      [
        "Ġ",
        "2"
      ],
      [
        "e",
        "ar"
      ],
      [
        "i",
        "a"
      ],
      [
        "Ġ",
        "y"
      ],
      [
        "a",
        "v"
      ],
      [
        "at",
        "e"
      ],
      [
        "k",
        "s"
      ],
      [
        "al",
        "l"
      ],
      [
        "Ġc",
        "on"
      ],
      [
        "Ġw",
        "ith"
      ],
      [
        "h",
        "i"
      ],
      [
        "Ġ",
        "'"
      ],
      [
        "i",
        "f"
      ],
      [
        "ec",
        "t"
      ],
      [
        "o",
        "c"
      ],
      [
        "ig",
        "h"
      ],
      [
        "i",
        "es"
      ],
      [
        "en",
        "d"
      ],
      [
        "Ġs",
        "e"
      ],
      [
        "or",
        "e"
      ],
      [
        "c",
        "e"
      ],
      [
        "ro",
        "m"
      ],
      [
        "e",
        "w"
      ],
      [
        "is",
        "t"
      ],
      [
        "an",
        "g"
      ],
      [
        "un",
        "d"
      ],
      [
        "v",
        "er"
      ],
      [
        "Ġ",
        "up"
      ],
      [
        "Ġf",
        "rom"
      ],
      [
        "a",
        "i"
      ],
      [
        "Ġa",
        "c"
      ],
      [
        "ic",
        "e"
      ],
      [
        "Ġe",
        "x"
      ],
      [
        "ay",
        "s"
      ],
      [
        "Ġp",
        "l"
      ],
      [
        "u",
        "g"
      ],
      [
        "ac",
        "k"
      ],
      [
        "an",
        "t"
      ],
      [
        "Ġp",
        "ol"
      ],
      [
        "in",
        "d"
      ],
      [
        "Ġa",
        "g"
      ],
      [
        "h",
        "ar"
      ],
      [
        "l",
        "y"
      ],
      [
        "0",
        "0"
      ],
      [
        "Ġ",
        "is"
      ],
      [
        "Ġin",
        "d"
      ],
      [
        "q",
        "u"
      ],
      [
        "Ġp",
        "r"
      ],
      [
        "p",
        "or"
      ],
      [
        "ent",
        "s"
      ],
      [
        "Ġ",
        "and"
      ],
      [
        "iv",
        "e"
      ],
      [
        "Ġc",
        "om"
      ],
      [
        "Ġc",
        "r"
      ],
      [
        "u",
        "c"
      ],
      [
        "Ġh",
        "el"
      ],
      [
        "at",
        "h"
      ],
      [
        "as",
        "h"
      ],
      [
        "Ġg",
        "et"
      ],
      [
        "a",
        "il"
      ],
      [
        "Ġa",
        "l"
      ],
      [
        "ar",
        "d"
      ],
      [
        "Ġof",
        "f"
      ],
      [
        "Ġs",
        "p"
      ],
      [
        "i",
        "k"
      ],
      [
        "Ġw",
        "or"
      ],
      [
        "i",
        "p"
      ],
      [
        "Ġa",
        "r"
      ],
      [
        "o",
        "o"
      ],
      [
        "an",
        "s"
      ],
      [
        "Ġb",
        "y"
      ],
      [
        "Ġt",
        "r"
      ],
      [
        "e",
        "e"
      ],
      [
        "ar",
        "t"
      ],
      [
        "Ġc",
        "as"
      ],
      [
        "Ġo",
        "ver"
      ],
      [
        "ol",
        "d"
      ],
      [
        "Ġl",
        "e"
      ],
      [
        "m",
        "ent"
      ],
      [
        "f",
        "f"
      ],
      [
        "Ġr",
        "o"
      ],
      [
        "us",
        "t"
      ],
      [
        "ak",
        "e"
      ],
      [
        "ac",
        "h"
      ],
      [
        "Ġ",
        "un"
      ],
      [
        "in",
        "e"
      ],
      [
        "is",
        "h"
      ],
      [
        "u",
        "b"
      ],
      [
        "i",
        "al"
      ],
      [
        "Ġr",
        "s"
      ],
      [
        "el",
        "l"
      ],
      [
        "Ġag",
        "ain"
      ],
      [
        "Ġc",
        "o"
      ],
      [
        "i",
        "e"
      ],
      [
        "Ġn",
        "ot"
      ],
      [
        "d",
        "er"
      ],
      [
        "as",
        "t"
      ],
      [
        "p",
        "l"
      ],
      [
        "Ġc",
        "l"
      ],
      [
        "o",
        "ut"
      ],
      [
        "Ġg",
        "ov"
      ],
      [
        "a",
        "h"
      ],
      [
        "a",
        "j"
      ],
      [
        "it",
        "s"
      ],
      [
        "f",
        "ter"
      ],
      [
        "en",
        "g"
      ],
      [
        "en",
        "s"
      ],
      [
        "Ġr",
        "es"
      ],
      [
        "Ġs",
        "c"
      ],
      [
        "Ġ",
        "3"
      ],
      [
        "m",
        "an"
      ],
      [
        "ag",
        "e"
      ],
      [
        "Ġm",
        "an"
      ],
      [
        "Ġg",
        "o"
      ],
      [
        "Ġ",
        "an"
      ],
      [
        "Ġf",
        "ir"
      ],
      [
        "on",
        "g"
      ],
      [
        "Ġhel",
        "d"
      ],
      [
        "igh",
        "t"
      ],
      [
        "Ġn",
        "ew"
      ],
      [
        "as",
        "s"
      ],
      [
        "Ġo",
        "ut"
      ],
      [
        "a",
        "w"
      ],
      [
        "por",
        "t"
      ],
      [
        "id",
        "e"
      ],
      [
        "w",
        "o"
      ],
      [
        "Ġagain",
        "st"
      ],
      [
        "es",
        "h"
      ],
      [
        "Ġm",
        "e"
      ],
      [
        "t",
        "ion"
      ],
      [
        "Ġa",
        "fter"
      ],
      [
        "Ġa",
        "d"
      ],
      [
        "um",
        "b"
      ],
      [
        "op",
        "s"
      ],
      [
        "Ġo",
        "p"
      ],
      [
        "g",
        "e"
      ],
      [
        "Ġs",
        "ays"
      ],
      [
        "Ġd",
        "r"
      ],
      [
        "u",
        "e"
      ],
      [
        "Ġd",
        "el"
      ],
      [
        "or",
        "s"
      ],
      [
        "i",
        "an"
      ],
      [
        "o",
        "st"
      ],
      [
        "Ġst",
        "ud"
      ],
      [
        "Ġk",
        "ill"
      ],
      [
        "Ġm",
        "ar"
      ],
      [
        "i",
        "z"
      ],
      [
        "d",
        "ay"
      ],
      [
        "o",
        "us"
      ],
      [
        "t",
        "o"
      ],
      [
        "Ġt",
        "ra"
      ],
      [
        "r",
        "ess"
      ],
      [
        "is",
        "s"
      ],
      [
        "Ġm",
        "ay"
      ],
      [
        "Ġn",
        "e"
      ],
      [
        "Ġf",
        "l"
      ],
      [
        "on",
        "e"
      ],
      [
        "ur",
        "e"
      ],
      [
        "j",
        "p"
      ],
      [
        "p",
        "s"
      ],
      [
        "Ġb",
        "l"
      ],
      [
        "re",
        "e"
      ],
      [
        "al",
        "s"
      ],
      [
        "Ġind",
        "ia"
      ],
      [
        "Ġa",
        "m"
      ],
      [
        "ur",
        "n"
      ],
      [
        "Ġs",
        "ch"
      ],
      [
        "ac",
        "e"
      ],
      [
        "Ġm",
        "in"
      ],
      [
        "Ġa",
        "p"
      ],
      [
        "Ġf",
        "o"
      ],
      [
        "Ġ2",
        "0"
      ],
      [
        "o",
        "ol"
      ],
      [
        "h",
        "an"
      ],
      [
        "Ġcas",
        "e"
      ],
      [
        "av",
        "e"
      ],
      [
        "v",
        "e"
      ],
      [
        "Ġb",
        "o"
      ],
      [
        "Ġt",
        "e"
      ],
      [
        "Ġw",
        "h"
      ],
      [
        "Ġc",
        "an"
      ],
      [
        "Ġa",
        "b"
      ],
      [
        "Ġh",
        "e"
      ],
      [
        "ar",
        "y"
      ],
      [
        "Ġ",
        "5"
      ],
      [
        "er",
        "n"
      ],
      [
        "an",
        "k"
      ],
      [
        "Ġc",
        "ol"
      ],
      [
        "ar",
        "e"
      ],
      [
        "oo",
        "k"
      ],
      [
        "Ġgov",
        "t"
      ],
      [
        "Ġw",
        "om"
      ],
      [
        "Ġ",
        "or"
      ],
      [
        "ar",
        "m"
      ],
      [
        "r",
        "y"
      ],
      [
        "o",
        "g"
      ],
      [
        "et",
        "s"
      ],
      [
        "o",
        "b"
      ],
      [
        "s",
        "h"
      ],
      [
        "Ġ",
        "us"
      ],
      [
        "r",
        "est"
      ],
      [
        "ug",
        "h"
      ],
      [
        "Ġ",
        "qu"
      ],
      [
        "am",
        "p"
      ],
      [
        "Ġp",
        "ar"
      ],
      [
        "Ġc",
        "our"
      ],
      [
        "Ġ",
        "4"
      ],
      [
        "Ġd",
        "is"
      ],
      [
        "if",
        "e"
      ],
      [
        "ic",
        "t"
      ],
      [
        "ak",
        "h"
      ],
      [
        "at",
        "er"
      ],
      [
        "in",
        "s"
      ],
      [
        "ig",
        "n"
      ],
      [
        "Ġy",
        "ear"
      ],
      [
        "n",
        "o"
      ],
      [
        "en",
        "ce"
      ],
      [
        "Ġr",
        "ec"
      ],
      [
        "om",
        "e"
      ],
      [
        "at",
        "es"
      ],
      [
        "an",
        "a"
      ],
      [
        "h",
        "a"
      ],
      [
        "Ġse",
        "e"
      ],
      [
        "il",
        "d"
      ],
      [
        "m",
        "s"
      ],
      [
        "Ġal",
        "l"
      ],
      [
        "umb",
        "ai"
      ],
      [
        "Ġac",
        "c"
      ],
      [
        "Ġc",
        "ity"
      ],
      [
        "l",
        "d"
      ],
      [
        "b",
        "e"
      ],
      [
        "Ġro",
        "ad"
      ],
      [
        "Ġw",
        "ill"
      ],
      [
        "Ġar",
        "rest"
      ],
      [
        "Ġwor",
        "k"
      ],
      [
        "ion",
        "s"
      ],
      [
        "ab",
        "ad"
      ],
      [
        "p",
        "ur"
      ],
      [
        "ow",
        "n"
      ],
      [
        "Ġn",
        "o"
      ],
      [
        "el",
        "e"
      ],
      [
        "Ġat",
        "t"
      ],
      [
        "'",
        "t"
      ],
      [
        "Ġm",
        "ore"
      ],
      [
        "h",
        "er"
      ],
      [
        "Ġget",
        "s"
      ],
      [
        "ic",
        "k"
      ],
      [
        "Ġb",
        "r"
      ],
      [
        "is",
        "e"
      ],
      [
        "l",
        "s"
      ],
      [
        "s",
        "e"
      ],
      [
        "Ġcon",
        "t"
      ],
      [
        "Ġs",
        "o"
      ],
      [
        "p",
        "er"
      ],
      [
        "Ġ",
        "it"
      ],
      [
        "an",
        "ce"
      ],
      [
        "oc",
        "k"
      ],
      [
        "Ġpol",
        "ice"
      ],
      [
        "Ġf",
        "il"
      ],
      [
        "Ġh",
        "igh"
      ],
      [
        "m",
        "c"
      ],
      [
        "Ġoff",
        "ic"
      ],
      [
        "b",
        "er"
      ],
      [
        "y",
        "a"
      ],
      [
        "ro",
        "w"
      ],
      [
        "ie",
        "f"
      ],
      [
        "Ġsch",
        "ool"
      ],
      [
        "Ġdel",
        "hi"
      ],
      [
        "b",
        "i"
      ],
      [
        "f",
        "or"
      ],
      [
        "b",
        "r"
      ],
      [
        "ar",
        "n"
      ],
      [
        "ac",
        "t"
      ],
      [
        "s",
        "p"
      ],
      [
        "ow",
        "er"
      ],
      [
        "am",
        "il"
      ],
      [
        "a",
        "x"
      ],
      [
        "Ġc",
        "ov"
      ],
      [
        "Ġs",
        "ec"
      ],
      [
        "w",
        "ay"
      ],
      [
        "ul",
        "t"
      ],
      [
        "le",
        "g"
      ],
      [
        "ar",
        "s"
      ],
      [
        "at",
        "a"
      ],
      [
        "u",
        "j"
      ],
      [
        "Ġde",
        "ath"
      ],
      [
        "t",
        "ra"
      ],
      [
        "Ġs",
        "ur"
      ],
      [
        "Ġas",
        "s"
      ],
      [
        "Ġcour",
        "t"
      ],
      [
        "Ġs",
        "et"
      ],
      [
        "Ġcom",
        "m"
      ],
      [
        "und",
        "er"
      ],
      [
        "Ġ",
        "i"
      ],
      [
        "Ġin",
        "to"
      ],
      [
        "Ġ",
        "im"
      ],
      [
        "Ġc",
        "ent"
      ],
      [
        "on",
        "d"
      ],
      [
        "ic",
        "al"
      ],
      [
        "Ġb",
        "us"
      ],
      [
        "u",
        "k"
      ],
      [
        "Ġstud",
        "ents"
      ],
      [
        "p",
        "t"
      ],
      [
        "a",
        "ir"
      ],
      [
        "im",
        "e"
      ],
      [
        "p",
        "os"
      ],
      [
        "Ġc",
        "ops"
      ],
      [
        "p",
        "it"
      ],
      [
        "re",
        "at"
      ],
      [
        "an",
        "ts"
      ],
      [
        "out",
        "h"
      ],
      [
        "ing",
        "s"
      ],
      [
        "Ġa",
        "re"
      ],
      [
        "iv",
        "ers"
      ],
      [
        "Ġd",
        "ay"
      ],
      [
        "g",
        "ov"
      ],
      [
        "as",
        "e"
      ],
      [
        "id",
        "ent"
      ],
      [
        "Ġp",
        "art"
      ],
      [
        "en",
        "c"
      ],
      [
        "Ġh",
        "er"
      ],
      [
        "Ġl",
        "akh"
      ],
      [
        "Ġm",
        "on"
      ],
      [
        "n",
        "a"
      ],
      [
        "e",
        "x"
      ],
      [
        "Ġm",
        "ur"
      ],
      [
        "Ġd",
        "o"
      ],
      [
        "Ġle",
        "ad"
      ],
      [
        "Ġb",
        "u"
      ],
      [
        "Ġ",
        "el"
      ],
      [
        "Ġs",
        "l"
      ],
      [
        "Ġp",
        "an"
      ],
      [
        "o",
        "in"
      ],
      [
        "Ġac",
        "t"
      ],
      [
        "f",
        "t"
      ],
      [
        "Ġc",
        "m"
      ],
      [
        "ak",
        "es"
      ],
      [
        "ation",
        "s"
      ],
      [
        "er",
        "v"
      ],
      [
        "m",
        "a"
      ],
      [
        "Ġg",
        "ir"
      ],
      [
        "Ġc",
        "or"
      ],
      [
        "Ġd",
        "ec"
      ],
      [
        "c",
        "r"
      ],
      [
        "ap",
        "p"
      ],
      [
        "Ġs",
        "up"
      ],
      [
        "it",
        "ion"
      ],
      [
        "Ġb",
        "jp"
      ],
      [
        "ar",
        "g"
      ],
      [
        "al",
        "a"
      ],
      [
        "Ġarrest",
        "ed"
      ],
      [
        "Ġh",
        "c"
      ],
      [
        "v",
        "el"
      ],
      [
        "is",
        "ter"
      ],
      [
        "y",
        "ear"
      ],
      [
        "od",
        "y"
      ],
      [
        "us",
        "h"
      ],
      [
        "Ġpro",
        "t"
      ],
      [
        "00",
        "0"
      ],
      [
        "Ġap",
        "p"
      ],
      [
        "c",
        "l"
      ],
      [
        "Ġa",
        "ir"
      ],
      [
        "at",
        "t"
      ],
      [
        "Ġs",
        "ing"
      ],
      [
        "Ġcon",
        "g"
      ],
      [
        "Ġ20",
        "1"
      ],
      [
        "ov",
        "er"
      ],
      [
        "p",
        "r"
      ],
      [
        "Ġst",
        "ate"
      ],
      [
        "ad",
        "e"
      ],
      [
        "Ġ",
        "6"
      ],
      [
        "n",
        "ow"
      ],
      [
        "Ġr",
        "a"
      ],
      [
        "Ġm",
        "od"
      ],
      [
        "un",
        "t"
      ],
      [
        "at",
        "i"
      ],
      [
        "o",
        "ot"
      ],
      [
        "Ġr",
        "aj"
      ],
      [
        "Ġcas",
        "es"
      ],
      [
        "iv",
        "es"
      ],
      [
        "e",
        "y"
      ],
      [
        "im",
        "s"
      ],
      [
        "Ġ",
        "under"
      ],
      [
        "Ġme",
        "et"
      ],
      [
        "at",
        "ch"
      ],
      [
        "o",
        "k"
      ],
      [
        "un",
        "e"
      ],
      [
        "Ġcov",
        "id"
      ],
      [
        "u",
        "es"
      ],
      [
        "end",
        "s"
      ],
      [
        "Ġre",
        "v"
      ],
      [
        "Ġw",
        "ater"
      ],
      [
        "h",
        "e"
      ],
      [
        "Ġkill",
        "ed"
      ],
      [
        "all",
        "y"
      ],
      [
        "l",
        "es"
      ],
      [
        "is",
        "ts"
      ],
      [
        "Ġr",
        "ap"
      ],
      [
        "Ġd",
        "em"
      ],
      [
        "h",
        "y"
      ],
      [
        "on",
        "s"
      ],
      [
        "Ġt",
        "est"
      ],
      [
        "Ġmur",
        "der"
      ],
      [
        "Ġt",
        "wo"
      ],
      [
        "p",
        "ol"
      ],
      [
        "Ġt",
        "ri"
      ],
      [
        "Ġ",
        "&"
      ],
      [
        "at",
        "s"
      ],
      [
        "Ġt",
        "ake"
      ],
      [
        "Ġp",
        "re"
      ],
      [
        "am",
        "s"
      ],
      [
        "Ġl",
        "and"
      ],
      [
        "m",
        "er"
      ],
      [
        "Ġ1",
        "0"
      ],
      [
        "ik",
        "e"
      ],
      [
        "Ġl",
        "a"
      ],
      [
        "Ġb",
        "h"
      ],
      [
        "Ġto",
        "day"
      ],
      [
        "Ġf",
        "r"
      ],
      [
        "Ġb",
        "ack"
      ],
      [
        "t",
        "y"
      ],
      [
        "Ġcr",
        "ore"
      ],
      [
        "ov",
        "e"
      ],
      [
        "Ġh",
        "os"
      ],
      [
        "s",
        "c"
      ],
      [
        "Ġ",
        "7"
      ],
      [
        "id",
        "s"
      ],
      [
        "uc",
        "k"
      ],
      [
        "o",
        "or"
      ],
      [
        "un",
        "ch"
      ],
      [
        "an",
        "i"
      ],
      [
        "a",
        "f"
      ],
      [
        "at",
        "ed"
      ],
      [
        "or",
        "y"
      ],
      [
        "Ġf",
        "in"
      ],
      [
        "Ġh",
        "ave"
      ],
      [
        "l",
        "a"
      ],
      [
        "Ġp",
        "e"
      ],
      [
        "Ġr",
        "em"
      ],
      [
        "Ġpl",
        "an"
      ],
      [
        "o",
        "y"
      ],
      [
        "Ġb",
        "ut"
      ],
      [
        "Ġv",
        "i"
      ],
      [
        "Ġm",
        "ed"
      ],
      [
        "o",
        "od"
      ],
      [
        "t",
        "r"
      ],
      [
        "t",
        "ed"
      ],
      [
        "k",
        "ar"
      ],
      [
        "Ġst",
        "r"
      ],
      [
        "it",
        "e"
      ],
      [
        "o",
        "u"
      ],
      [
        "Ġwom",
        "an"
      ],
      [
        "ist",
        "r"
      ],
      [
        "Ġh",
        "ous"
      ],
      [
        "ec",
        "ts"
      ],
      [
        "eng",
        "al"
      ],
      [
        "Ġs",
        "u"
      ],
      [
        "Ġm",
        "umbai"
      ],
      [
        "Ġh",
        "is"
      ],
      [
        "ar",
        "at"
      ],
      [
        "Ġv",
        "is"
      ],
      [
        "ul",
        "d"
      ],
      [
        "w",
        "e"
      ],
      [
        "Ġc",
        "all"
      ],
      [
        "Ġl",
        "ife"
      ],
      [
        "Ġd",
        "own"
      ],
      [
        "ind",
        "ia"
      ],
      [
        "Ġr",
        "et"
      ],
      [
        "Ġb",
        "ook"
      ],
      [
        "gov",
        "t"
      ],
      [
        "Ġgov",
        "ern"
      ],
      [
        "Ġfir",
        "st"
      ],
      [
        "il",
        "e"
      ],
      [
        "or",
        "d"
      ],
      [
        "an",
        "c"
      ],
      [
        "Ġp",
        "ower"
      ],
      [
        "Ġ",
        "z"
      ],
      [
        "ad",
        "esh"
      ],
      [
        "ect",
        "ion"
      ],
      [
        "Ġhos",
        "pit"
      ],
      [
        "Ġfo",
        "und"
      ],
      [
        "Ġt",
        "urn"
      ],
      [
        "Ġr",
        "el"
      ],
      [
        "Ġprot",
        "est"
      ],
      [
        "ab",
        "le"
      ],
      [
        "Ġsh",
        "ow"
      ],
      [
        "al",
        "i"
      ],
      [
        "r",
        "am"
      ],
      [
        "Ġs",
        "al"
      ],
      [
        "Ġwom",
        "en"
      ],
      [
        "it",
        "ies"
      ],
      [
        "Ġh",
        "as"
      ],
      [
        "Ġth",
        "is"
      ],
      [
        "Ġf",
        "e"
      ],
      [
        "d",
        "el"
      ],
      [
        "c",
        "o"
      ],
      [
        "Ġpro",
        "j"
      ],
      [
        "Ġhel",
        "p"
      ],
      [
        "ic",
        "s"
      ],
      [
        "Ġch",
        "ief"
      ],
      [
        "a",
        "ff"
      ],
      [
        "Ġis",
        "s"
      ],
      [
        "am",
        "e"
      ],
      [
        "t",
        "e"
      ],
      [
        "m",
        "ed"
      ],
      [
        "iv",
        "er"
      ],
      [
        "en",
        "n"
      ],
      [
        "m",
        "in"
      ],
      [
        "Ġsee",
        "ks"
      ],
      [
        "Ġde",
        "ad"
      ],
      [
        "Ġcom",
        "p"
      ],
      [
        "Ġb",
        "an"
      ],
      [
        "i",
        "x"
      ],
      [
        "Ġp",
        "er"
      ],
      [
        "Ġa",
        "w"
      ],
      [
        "us",
        "ed"
      ],
      [
        "e",
        "p"
      ],
      [
        "Ġyear",
        "s"
      ],
      [
        "uj",
        "arat"
      ],
      [
        "ic",
        "es"
      ],
      [
        "k",
        "ing"
      ],
      [
        "Ġgir",
        "l"
      ],
      [
        "ation",
        "al"
      ],
      [
        "el",
        "y"
      ],
      [
        "Ġpro",
        "be"
      ],
      [
        "t",
        "ing"
      ],
      [
        "b",
        "s"
      ],
      [
        "Ġop",
        "en"
      ],
      [
        "Ġe",
        "v"
      ],
      [
        "ash",
        "tra"
      ],
      [
        "Ġm",
        "a"
      ],
      [
        "Ġc",
        "ar"
      ],
      [
        "p",
        "ro"
      ],
      [
        "t",
        "wo"
      ],
      [
        "l",
        "ine"
      ],
      [
        "Ġd",
        "ies"
      ],
      [
        "Ġw",
        "e"
      ],
      [
        "Ġd",
        "oc"
      ],
      [
        "un",
        "c"
      ],
      [
        "Ġin",
        "ter"
      ],
      [
        "os",
        "e"
      ],
      [
        "ee",
        "p"
      ],
      [
        "al",
        "th"
      ],
      [
        "Ġ",
        "8"
      ],
      [
        "Ġpol",
        "l"
      ],
      [
        "Ġm",
        "ake"
      ],
      [
        "ff",
        "ic"
      ],
      [
        "is",
        "es"
      ],
      [
        "Ġs",
        "m"
      ],
      [
        "w",
        "n"
      ],
      [
        "or",
        "t"
      ],
      [
        "Ġp",
        "ost"
      ],
      [
        "ur",
        "g"
      ],
      [
        "Ġla",
        "unch"
      ],
      [
        "Ġh",
        "ome"
      ],
      [
        "Ġre",
        "g"
      ],
      [
        "Ġt",
        "er"
      ],
      [
        "us",
        "p"
      ],
      [
        "Ġoffic",
        "ial"
      ],
      [
        "Ġsing",
        "h"
      ],
      [
        "b",
        "jp"
      ],
      [
        "ect",
        "or"
      ],
      [
        "ec",
[...]
