{
  "version": "1.0",
  "truncation": null,
  "padding": null,
  "added_tokens": [
    {
      "id": 0,
      "content": "[UNK]",
      "single_word": false,
      "lstrip": false,
      "rstrip": false,
      "normalized": false,
      "special": true
    },
    {
      "id": 1,
      "content": "[PAD]",
      "single_word": false,
      "lstrip": false,
      "rstrip": false,
      "normalized": false,
      "special": true
    },
    {
      "id": 2,
      "content": "[BOS]",
      "single_word": false,
      "lstrip": false,
      "rstrip": false,
      "normalized": false,
      "special": true
    },
    {
      "id": 3,
      "content": "[EOS]",
      "single_word": false,
      "lstrip": false,
      "rstrip": false,
      "normalized": false,
      "special": true
    }
  ],
  "normalizer": null,
  "pre_tokenizer": {
    "type": "ByteLevel",
    "add_prefix_space": false,
    "trim_offsets": true,
    "use_regex": true
  },
  "post_processor": null,
  "decoder": {
    "type": "ByteLevel",
    "add_prefix_space": true,
    "trim_offsets": true,
    "use_regex": true
  },
  "model": {
    "type": "BPE",
    "dropout": null,
    "unk_token": "[UNK]",
    "continuing_subword_prefix": null,
    "end_of_word_suffix": null,
    "fuse_unk": false,
    "byte_fallback": false,
    "ignore_merges": false,
    "vocab": {
      "[UNK]": 0,
      "[PAD]": 1,
      "[BOS]": 2,
      "[EOS]": 3,
      "!": 4,
      "#": 5,
      "$": 6,
      "%": 7,
      "&": 8,
      "'": 9,
      "(": 10,
      ")": 11,
      "*": 12,
      "+": 13,
      "-": 14,
      ".": 15,
      "/": 16,
      "0": 17,
      "1": 18,
      "2": 19,
      "3": 20,
      "4": 21,
      "5": 22,
      "6": 23,
      "7": 24,
      "8": 25,
      "9": 26,
      ":": 27,
      ";": 28,
      "<": 29,
      "=": 30,
      ">": 31,
      "?": 32,
      "@": 33,
      "A": 34,
      "B": 35,
      "C": 36,
      "D": 37,
      "E": 38,
      "F": 39,
      "G": 40,
      "H": 41,
      "I": 42,
      "J": 43,
      "K": 44,
      "L": 45,
      "M": 46,
      "N": 47,
      "O": 48,
      "P": 49,
      "Q": 50,
      "R": 51,
      "S": 52,
      "T": 53,
      "U": 54,
      "V": 55,
      "W": 56,
      "X": 57,
      "Y": 58,
      "Z": 59,
      "[": 60,
      "\\": 61,
      "]": 62,
      "_": 63,
      "a": 64,
      "b": 65,
      "c": 66,
      "d": 67,
      "e": 68,
      "f": 69,
      "g": 70,
      "h": 71,
      "i": 72,
      "j": 73,
      "k": 74,
      "l": 75,
      "m": 76,
      "n": 77,
      "o": 78,
      "p": 79,
      "q": 80,
      "r": 81,
      "s": 82,
      "t": 83,
      "u": 84,
      "v": 85,
      "w": 86,
      "x": 87,
      "y": 88,
      "z": 89,
      "{": 90,
      "}": 91,
      "~": 92,
      "Ċ": 93,
      "Ġ": 94,
      "ġ": 95,
      "in": 96,
      "Ġt": 97,
      "er": 98,
      "an": 99,
      "es": 100,
      "Ġs": 101,
      "on": 102,
      "or": 103,
      "ar": 104,
      "Ġf": 105,
      "at": 106,
      "Ġc": 107,
      "en": 108,
      "al": 109,
      "Ġto": 110,
      "Ġin": 111,
      "Ġp": 112,
      "it": 113,
      "Ġb": 114,
      "ed": 115,
      "Ġa": 116,
      "Ġd": 117,
      "is": 118,
      "Ġr": 119,
      "Ġo": 120,
      "Ġm": 121,
      "ur": 122,
      "ing": 123,
      "Ġw": 124,
      "Ġh": 125,
      "el": 126,
      "il": 127,
      "ic": 128,
      "as": 129,
      "Ġfor": 130,
      "ol": 131,
      "et": 132,
      "Ġl": 133,
      "ay": 134,
      "ro": 135,
      "ion": 136,
      "Ġg": 137,
      "Ġof": 138,
      "ad": 139,
      "un": 140,
      "am": 141,
      "us": 142,
      "ent": 143,
      "ĠS": 144,
      "ec": 145,
      "ac": 146,
      "ers": 147,
      "id": 148,
      "ĠC": 149,
      "Ġon": 150,
      "ut": 151,
      "ir": 152,
      "ĠM": 153,
      "Ġn": 154,
      "Ġst": 155,
      "'s": 156,
      "om": 157,
      "and": 158,
      "ot": 159,
      "ak": 160,
      "Ġth": 161,
      "le": 162,
      "iv": 163,
      "ig": 164,
      "ĠA": 165,
      "ĠB": 166,
      "re": 167,
      "ĠP": 168,
      "ĠR": 169,
      "ra": 170,
      "os": 171,
      "est": 172,
      "ow": 173,
      "em": 174,
      "ov": 175,
      "ch": 176,
      "ts": 177,
      "up": 178,
      "ag": 179,
      "ĠK": 180,
      "ill": 181,
      "Ġat": 182,
      "ul": 183,
      "op": 184,
      "ter": 185,
      "im": 186,
      "ĠI": 187,
      "ation": 188,
      "ĠD": 189,
      "Ġe": 190,
      "ab": 191,
      "od": 192,
      "hi": 193,
      "ĠN": 194,
      "ĠT": 195,
      "Ġv": 196,
      "um": 197,
      "all": 198,
      "Ġthe": 199,
      "ain": 200,
      "th": 201,
      "Ġre": 202,
      "ĠG": 203,
      "ap": 204,
      "ri": 205,
      "Ġ1": 206,
      "st": 207,
      "ith": 208,
      "our": 209,
      "nd": 210,
      "ess": 211,
      "Ġ2": 212,
      "Ġbe": 213,
      "Ġpro": 214,
      "Ġde": 215,
      "ity": 216,
      "ud": 217,
      "ear": 218,
      "Ġk": 219,
      "av": 220,
      "ĠH": 221,
      "har": 222,
      "igh": 223,
      "ks": 224,
      "ia": 225,
      "ate": 226,
      "Ġwith": 227,
      "ect": 228,
      "Ġas": 229,
      "Ġ'": 230,
      "ee": 231,
      "ies": 232,
      "ew": 233,
      "oc": 234,
      "ore": 235,
      "end": 236,
      "ver": 237,
      "ce": 238,
      "ist": 239,
      "rom": 240,
      "if": 241,
      "ang": 242,
      "Ġy": 243,
      "und": 244,
      "Ġfrom": 245,
      "Ġsh": 246,
      "ays": 247,
      "ĠJ": 248,
      "Ġcon": 249,
      "ai": 250,
      "ice": 251,
      "ly": 252,
      "ack": 253,
      "Ġar": 254,
      "Ġpl": 255,
      "ug": 256,
      "Ġj": 257,
      "Ġch": 258,
      "ĠU": 259,
      "ant": 260,
      "00": 261,
      "Ġex": 262,
      "Ġup": 263,
      "ents": 264,
      "Ġac": 265,
      "ive": 266,
      "por": 267,
      "Ġag": 268,
      "ail": 269,
      "ath": 270,
      "Ġpol": 271,
      "uc": 272,
      "Ġis": 273,
      "ĠL": 274,
      "Ġhel": 275,
      "qu": 276,
      "ash": 277,
      "Ġand": 278,
      "Ġcr": 279,
      "ong": 280,
      "Ġget": 281,
      "art": 282,
      "Ġcom": 283,
      "ard": 284,
      "ĠF": 285,
      "ans": 286,
      "ĠInd": 287,
      "Ġoff": 288,
      "aj": 289,
      "Ġby": 290,
      "ff": 291,
      "ik": 292,
      "Ġcas": 293,
      "Ġover": 294,
      "old": 295,
      "ha": 296,
      "ment": 297,
      "oo": 298,
      "ust": 299,
      "ake": 300,
      "ĠV": 301,
      "ach": 302,
      "Ġwor": 303,
      "ine": 304,
      "der": 305,
      "out": 306,
      "ub": 307,
      "Ġsp": 308,
      "ast": 309,
      "ell": 310,
      "Ġle": 311,
      "ight": 312,
      "Ġagain": 313,
      "ial": 314,
      "ĠCh": 315,
      "Ġtr": 316,
      "Ġnot": 317,
      "ĠW": 318,
      "Ġse": 319,
      "ish": 320,
      "ĠRs": 321,
      "its": 322,
      "pl": 323,
      "fter": 324,
      "ovt": 325,
      "Ġ3": 326,
      "ens": 327,
      "he": 328,
      "age": 329,
      "ob": 330,
      "ĠE": 331,
      "Ġres": 332,
      "ip": 333,
      "Ġcl": 334,
      "Ġout": 335,
      "Ġheld": 336,
      "ost": 337,
      "ge": 338,
      "wo": 339,
      "ress": 340,
      "port": 341,
      "ide": 342,
      "ĠO": 343,
      "Ġagainst": 344,
      "tion": 345,
      "ef": 346,
      "umb": 347,
      "han": 348,
      "ue": 349,
      "over": 350,
      "ind": 351,
      "ass": 352,
      "Ġsays": 353,
      "pp": 354,
      "Ġafter": 355,
      "ops": 356,
      "Ġfir": 357,
      "ian": 358,
      "ous": 359,
      "Ġnew": 360,
      "esh": 361,
      "elhi": 362,
      "iz": 363,
      "eng": 364,
      "Ġpr": 365,
      "Ġco": 366,
      "Ġkill": 367,
      "ors": 368,
      "aw": 369,
      "Ġun": 370,
      "als": 371,
      "ĠIndia": 372,
      "ns": 373,
      "iss": 374,
      "Ġme": 375,
      "og": 376,
      "ure": 377,
      "ary": 378,
      "Ġsc": 379,
      "JP": 380,
      "St": 381,
      "Ġ20": 382,
      "Ġfl": 383,
      "Ġdr": 384,
      "ave": 385,
      "Ġgo": 386,
      "ool": 387,
      "ree": 388,
      "oy": 389,
      "day": 390,
      "Ġtra": 391,
      "Ġstud": 392,
      "ark": 393,
      "ah": 394,
      "ace": 395,
      "ey": 396,
      "oll": 397,
      "amp": 398,
      "Ġan": 399,
      "ook": 400,
      "Ġcase": 401,
      "ry": 402,
      "Ġman": 403,
      "Ġ5": 404,
      "Ġbl": 405,
      "Ġad": 406,
      "ets": 407,
      "Ġsch": 408,
      "oad": 409,
      "ank": 410,
      "Ġfo": 411,
      "ric": 412,
      "ugh": 413,
      "Ġarr": 414,
      "per": 415,
      "Ġint": 416,
      "Ġ4": 417,
      "ep": 418,
      "Ġmin": 419,
      "ife": 420,
      "Ġcan": 421,
      "Ġmay": 422,
      "ise": 423,
      "ome": 424,
      "Ġhe": 425,
      "Ġor": 426,
      "ater": 427,
      "Ġqu": 428,
      "Ind": 429,
      "ld": 430,
      "Ġwom": 431,
      "ana": 432,
      "her": 433,
      "ence": 434,
      "ates": 435,
      "Ġte": 436,
      "akh": 437,
      "Ġne": 438,
      "umbai": 439,
      "Ġrec": 440,
      "Ġsee": 441,
      "ions": 442,
      "eb": 443,
      "Ġgovt": 444,
      "ild": 445,
      "ins": 446,
      "own": 447,
      "ourt": 448,
      "Ġab": 449,
      "abad": 450,
      "pur": 451,
      "Ġacc": 452,
      "ev": 453,
      "ance": 454,
      "Ġarrest": 455,
      "Ġyear": 456,
      "ars": 457,
      "orm": 458,
      "MC": 459,
      "Ġwork": 460,
      "are": 461,
      "Ġdis": 462,
      "Ġpoll": 463,
      "Ġatt": 464,
      "ock": 465,
      "Ġgets": 466,
      "'t": 467,
      "Ġmore": 468,
      "Ġwill": 469,
      "Ġwh": 470,
      "Ġall": 471,
      "ĠPr": 472,
      "Ġcont": 473,
      "oon": 474,
      "irl": 475,
      "ign": 476,
      "ick": 477,
      "ower": 478,
      "amil": 479,
      "Ch": 480,
      "ĠDelhi": 481,
      "ve": 482,
      "arm": 483,
      "way": 484,
      "row": 485,
      "ya": 486,
      "ovid": 487,
      "one": 488,
      "ges": 489,
      "ax": 490,
      "ons": 491,
      "Ġoffic": 492,
      "Ġrel": 493,
      "ata": 494,
      "oun": 495,
      "Ġal": 496,
      "Man": 497,
      "ult": 498,
      "ps": 499,
      "emb": 500,
      "Ġhigh": 501,
      "uj": 502,
      "Ġdeath": 503,
      "Ġfil": 504,
      "Ġcity": 505,
      "urn": 506,
      "Ġinto": 507,
      "ings": 508,
      "No": 509,
      "be": 510,
      "oot": 511,
      "ond": 512,
      "ical": 513,
      "ime": 514,
      "ants": 515,
      "Ġschool": 516,
      "Ġare": 517,
      "Ġset": 518,
      "reat": 519,
      "Ġroad": 520,
      "ite": 521,
      "ĠY": 522,
      "Ġstudents": 523,
      "ft": 524,
      "man": 525,
      "under": 526,
      "arn": 527,
      "ivers": 528,
      "In": 529,
      "overn": 530,
      "Ġsec": 531,
      "Ġel": 532,
      "ase": 533,
      "oin": 534,
      "ident": 535,
      "act": 536,
      "Ġbus": 537,
      "ition": 538,
      "ations": 539,
      "Ġlakh": 540,
      "outh": 541,
      "Ġmon": 542,
      "akes": 543,
      "ĠBJP": 544,
      "Ġlead": 545,
      "ĠCM": 546,
      "Ġbr": 547,
      "ok": 548,
      "Ġpart": 549,
      "ala": 550,
      "Ġpolice": 551,
      "ush": 552,
      "Ġdo": 553,
      "Ġ201": 554,
      "Ġop": 555,
      "enc": 556,
      "ongress": 557,
      "ie": 558,
      "ict": 559,
      "erv": 560,
      "Ġam": 561,
      "ister": 562,
      "Ġarrested": 563,
      "Ġsl": 564,
      "Ġcases": 565,
      "na": 566,
      "Ġim": 567,
      "Ġher": 568,
      "ody": 569,
      "ĠHC": 570,
      "atch": 571,
      "les": 572,
      "year": 573,
      "Ġcomm": 574,
      "urder": 575,
      "000": 576,
      "Ġbu": 577,
      "ĠRaj": 578,
      "ty": 579,
      "ati": 580,
      "ives": 581,
      "Ġ6": 582,
      "Ġprot": 583,
      "att": 584,
      "Ġapp": 585,
      "ade": 586,
      "ally": 587,
      "ĠSh": 588,
      "Ġit": 589,
      "ams": 590,
      "Ġkilled": 591,
      "une": 592,
      "tra": 593,
      "eh": 594,
      "Ġunder": 595,
      "Ġmeet": 596,
      "ends": 597,
      "ose": 598,
      "ĠCovid": 599,
      "Ġass": 600,
      "ues": 601,
      "Ġcops": 602,
      "ss": 603,
      "Ġgirl": 604,
      "unch": 605,
      "oor": 606,
      "Ġno": 607,
      "Ġ10": 608,
      "ory": 609,
      "ani": 610,
      "ike": 611,
      "uck": 612,
      "air": 613,
      "Ġrap": 614,
      "ood": 615,
      "ital": 616,
      "Ġ&": 617,
      "ists": 618,
      "osp": 619,
      "ou": 620,
      "ting": 621,
      "ove": 622,
      "arat": 623,
      "Ġmurder": 624,
      "Wh": 625,
      "entre": 626,
      "Ġcourt": 627,
      "Ġ7": 628,
      "ib": 629,
      "Ġla": 630,
      "Ġdem": 631,
      "ats": 632,
      "Ġtake": 633,
      "Ġbo": 634,
      "Th": 635,
      "Ġtoday": 636,
      "ll": 637,
      "Ġback": 638,
      "odi": 639,
      "ahar": 640,
      "Ġwater": 641,
      "az": 642,
      "Ġcrore": 643,
      "app": 644,
      "Ġsur": 645,
      "Ġhave": 646,
      "vel": 647,
      "used": 648,
      "olle": 649,
      "Ġhis": 650,
      "engal": 651,
      "rit": 652,
      "Ġstate": 653,
      "ects": 654,
      "ted": 655,
      "ord": 656,
      "Ġsup": 657,
      "The": 658,
      "Ġbut": 659,
      "ids": 660,
      "ated": 661,
      "af": 662,
      "Ġland": 663,
      "ĠMumbai": 664,
      "uld": 665,
      "BI": 666,
      "use": 667,
      "India": 668,
      "ĠSt": 669,
      "uk": 670,
      "ĠBh": 671,
      "ims": 672,
      "able": 673,
      "ort": 674,
      "ull": 675,
      "Ġrev": 676,
      "Ġrem": 677,
      "Ġdep": 678,
      "eep": 679,
      "Ġstr": 680,
      "ection": 681,
      "eal": 682,
      "Ġcall": 683,
      "Ġplan": 684,
      "hief": 685,
      "Ġtri": 686,
      "adesh": 687,
      "Ġtwo": 688,
      "ours": 689,
      "ĠSing": 690,
      "Ġlife": 691,
      "ery": 692,
      "ame": 693,
      "overnment": 694,
      "An": 695,
      "Ġdec": 696,
      "Ġdown": 697,
      "anc": 698,
      "emp": 699,
      "Ġfin": 700,
      "ile": 701,
      "ms": 702,
      "Ġdist": 703,
      "Ġfound": 704,
      "Ġbook": 705,
      "Govt": 706,
      "Ġret": 707,
      "ics": 708,
      "ashtra": 709,
      "Ġact": 710,
      "Ġtest": 711,
      "Ġdead": 712,
      "Ġthis": 713,
      "Ġwoman": 714,
      "duc": 715,
      "ujarat": 716,
      "Ġpe": 717,
      "Ġshow": 718,
      "Ġprotest": 719,
      "Ġvis": 720,
      "ix": 721,
      "enn": 722,
      "Ġpan": 723,
      "ffic": 724,
      "Ġfirst": 725,
      "Ġpower": 726,
      "Ġmed": 727,
      "ational": 728,
      "Ġpre": 729,
      "get": 730,
      "Ġiss": 731,
      "Ġhas": 732,
      "Ġair": 733,
      "Ġcomp": 734,
      "ely": 735,
      "ĠUn": 736,
      "Ġseeks": 737,
      "ities": 738,
      "Ġchar": 739,
      "aff": 740,
      "Ġproj": 741,
      "Ġlaunch": 742,
      "Sh": 743,
      "Ġper": 744,
      "Ġyears": 745,
      "aharashtra": 746,
      "ices": 747,
      "Ġ8": 748,
      "ari": 749,
      "Ġhelp": 750,
      "ct": 751,
      "ises": 752,
      "Ġsu": 753,
      "ĠSingh": 754,
      "Two": 755,
      "Ġchief": 756,
      "xt": 757,
      "Ġwomen": 758,
      "Ġhosp": 759,
      "Ġdies": 760,
      "Ġev": 761,
      "Ġcar": 762,
      "gal": 763,
      "BJP": 764,
      "Ġday": 765,
      "ector": 766,
      "ech": 767,
      "usp": 768,
      "iver": 769,
      "err": 770,
      "ouse": 771,
      "rik": 772,
      "ĠPradesh": 773,
      "oh": 774,
      "ram": 775,
      "ina": 776,
      "other": 777,
      "line": 778,
      "Ġinf": 779,
      "Ġplay": 780,
      "Ġpos": 781,
      "ma": 782,
      "eleb": 783,
      "Ġprobe": 784,
      "HC": 785,
      "ĠUS": 786,
      "ali": 787,
      "Ġmake": 788,
      "ĠAm": 789,
      "Delhi": 790,
      "Ġmar": 791,
      "ink": 792,
      "ards": 793,
      "oa": 794,
      "ement": 795,
      "Ġhome": 796,
      "pr": 797,
      "Ġcor": 798,
      "ands": 799,
      "ĠModi": 800,
      "gl": 801,
      "ĠMan": 802,
      "els": 803,
      "ĠPM": 804,
      "Ġinv": 805,
      "Ġdel": 806,
      "ĠAn": 807,
      "Ġdef": 808,
      "Ġcle": 809,
      "ĠPak": 810,
      "olk": 811,
      "ys": 812,
      "olice": 813,
      "uru": 814,
      "Ġpolls": 815,
      "Ġwas": 816,
      "Ġdoc": 817,
      "IT": 818,
      "ĠCongress": 819,
      "elf": 820,
      "Ġreg": 821,
      "iversity": 822,
      "Ġcoun": 823,
      "sh": 824,
      "aka": 825,
      "Ġbody": 826,
      "Wom": 827,
      "Ġcamp": 828,
      "Ġbeg": 829,
      "ihar": 830,
      "ann": 831,
      "Ġwin": 832,
      "Ġofficial": 833,
      "ines": 834,
      "now": 835,
      "ump": 836,
      "Ġra": 837,
      "New": 838,
      "Ġits": 839,
      "Ġpar": 840,
      "Ġrun": 841,
      "Ġhit": 842,
      "Ġyou": 843,
      "ĠAr": 844,
      "Ġexp": 845,
      "Ġsusp": 846,
      "eg": 847,
      "med": 848,
      "Ġaw": 849,
      "jur": 850,
      "wn": 851,
      "ating": 852,
      "Ġ9": 853,
      "ission": 854,
      "Ġabout": 855,
      "Ġtime": 856,
      "acks": 857,
      "reen": 858,
      "ral": 859,
      "Ġdays": 860,
      "ĠIndian": 861,
      "LA": 862,
      "Ġfe": 863,
      "Ġfac": 864,
      "Ġyour": 865,
      "mer": 866,
      "ople": 867,
      "ights": 868,
      "eek": 869,
      "ĠBengal": 870,
      "agar": 871,
      "Ġsm": 872,
      "augh": 873,
      "ert": 874,
      "Ġinter": 875,
      "ennai": 876,
      "Ġtal": 877,
      "adu": 878,
      "Ġone": 879,
      "Ġfr": 880,
      "Ġpay": 881,
      "Ġattack": 882,
      "ound": 883,
      "Ġcolle": 884,
      "urns": 885,
      "olkata": 886,
      "Ġfarm": 887,
      "Ġwho": 888,
      "ĠIn": 889,
      "idents": 890,
      "Ġbre": 891,
      "Ġcoll": 892,
      "Ġsoon": 893,
      "Ġmark": 894,
      "Ġnow": 895,
      "Ġmonth": 896,
      "ould": 897,
      "jab": 898,
      "Ġinjur": 899,
      "On": 900,
      "ex": 901,
      "Ġen": 902,
      "ots": 903,
      "Ġtrans": 904,
      "ady": 905,
      "Ex": 906,
      "ution": 907,
      "Ġboy": 908,
      "Ġopen": 909,
      "SC": 910,
      "ected": 911,
      "Ġbooked": 912,
      "Ġsw": 913,
      "ĠKhan": 914,
      "Ġceleb": 915,
      "asth": 916,
      "yder": 917,
      "Ġind": 918,
      "hip": 919,
      "Ġinc": 920,
      "Ġgu": 921,
      "Ġnear": 922,
      "ute": 923,
      "arnat": 924,
      "li": 925,
      "ains": 926,
      "Ġgr": 927,
      "Ġvot": 928,
      "een": 929,
      "ĠUP": 930,
      "ember": 931,
      "Ġfamil": 932,
      "Ġcut": 933,
      "Ġstrik": 934,
      "Ġins": 935,
      "Ġgovernment": 936,
      "yderabad": 937,
      "uss": 938,
      "arnataka": 939,
      "Ġpass": 940,
      "ĠTh": 941,
      "ual": 942,
      "Ġem": 943,
      "Mumbai": 944,
      "bed": 945,
      "angana": 946,
      "Ġph": 947,
      "kar": 948,
      "Ġwe": 949,
      "ikely": 950,
      "ells": 951,
      "oss": 952,
      "Ġtax": 953,
      "Ġserv": 954,
      "19": 955,
      "Raj": 956,
      "ale": 957,
      "Ġplans": 958,
      "urity": 959,
      "Ġneed": 960,
      "cr": 961,
      "Ġminister": 962,
      "Ġreport": 963,
      "Ġ15": 964,
      "Ġent": 965,
      "asthan": 966,
      "Ġhold": 967,
      "Ġref": 968,
      "Ġstaff": 969,
      "Ġkids": 970,
      "Ġfilm": 971,
      "Ġimp": 972,
      "Ġtrain": 973,
      "Ġgro": 974,
      "Ġbet": 975,
      "Ġvi": 976,
      "orld": 977,
      "Ġaccused": 978,
      "Ġchild": 979,
      "ara": 980,
      "unjab": 981,
      "Ġtheir": 982,
      "Ġthreat": 983,
      "Ġple": 984,
      "Ġvill": 985,
      "Ġban": 986,
      "ga": 987,
      "aking": 988,
      "ports": 989,
      "anj": 990,
      "PM": 991,
      "istan": 992,
      "ged": 993,
      "Ġtakes": 994,
      "erala": 995,
      "elangana": 996,
      "Ġed": 997,
      "ther": 998,
      "Ġsay": 999,
      "ubl": 1000,
      "Ġfall": 1001,
      "Ġfire": 1002,
      "Ġteach": 1003,
      "Ġfund": 1004,
      "Ġschools": 1005,
      "ĠUniversity": 1006,
      "tt": 1007,
      "Ġbig": 1008,
      "Ġpanel": 1009,
      "Ġnext": 1010,
      "Ġlaw": 1011,
      "Ġstart": 1012,
      "Ġdistric": 1013,
      "Ġheal": 1014,
      "Ġadm": 1015,
      "ied": 1016,
      "wood": 1017,
      "Ġpost": 1018,
      "uring": 1019,
      "Ġso": 1020,
      "ning": 1021,
      "Ġcelebr": 1022,
      "eck": 1023,
      "Ġmiss": 1024,
      "Ġlikely": 1025,
      "ire": 1026,
      "Ġjail": 1027,
      "Ġthat": 1028,
      "Ġparty": 1029,
      "etro": 1030,
      "ism": 1031,
      "adi": 1032,
      "DA": 1033,
      "Ġbuild": 1034,
      "ather": 1035,
      "Ġteam": 1036,
      "ures": 1037,
      "ij": 1038,
      "arb": 1039,
      "ĠNadu": 1040,
      "Ġtop": 1041,
      "Ġext": 1042,
      "iness": 1043,
      "Ġfail": 1044,
      "Ġhear": 1045,
      "icide": 1046,
      "20": 1047,
      "Ġstill": 1048,
      "ecial": 1049,
      "ope": 1050,
      "Ġcons": 1051,
      "ized": 1052,
      "cess": 1053,
      "ph": 1054,
      "Ġcla": 1055,
      "Ġprom": 1056,
      "Ar": 1057,
      "aid": 1058,
      "Ġpeople": 1059,
      "Woman": 1060,
      "ames": 1061,
      "kh": 1062,
      "Ġhealth": 1063,
      "Ġown": 1064,
      "Ġgl": 1065,
      "CC": 1066,
      "adh": 1067,
      "Ġcompl": 1068,
      "Ġhospital": 1069,
      "Ġmen": 1070,
      "Ġmov": 1071,
      "Ġjob": 1072,
      "ole": 1073,
      "ĠMLA": 1074,
      "Ġelect": 1075,
      "ange": 1076,
      "Ġdra": 1077,
      "Ġseek": 1078,
      "ross": 1079,
      "oses": 1080,
      "legal": 1081,
      "Ġthan": 1082,
      "Ġwant": 1083,
      "Ġwife": 1084,
      "Ġvict": 1085,
      "edd": 1086,
      "Ġwants": 1087,
      "anch": 1088,
      "Ġey": 1089,
      "ao": 1090,
      "Ġstrike": 1091,
      "Ġsaf": 1092,
      "ages": 1093,
      "ĠNo": 1094,
      "Ġhits": 1095,
      "Ġstar": 1096,
      "itt": 1097,
      "bs": 1098,
      "Ġrele": 1099,
      "Ġproject": 1100,
      "hik": 1101,
      "cl": 1102,
      "ĠDay": 1103,
      "Ġfamily": 1104,
      "Ġcop": 1105,
      "Ġasks": 1106,
      "Pr": 1107,
      "ĠMar": 1108,
      "Ġturn": 1109,
      "Ġdir": 1110,
      "Ġfight": 1111,
      "Ġvisit": 1112,
      "Ġmy": 1113,
      "Ġrob": 1114,
      "Ġorder": 1115,
      "Ġfest": 1116,
      "ĠSC": 1117,
      "error": 1118,
      "ait": 1119,
      "fer": 1120,
      "Ġbail": 1121,
      "hah": 1122,
      "yr": 1123,
      "Ġcur": 1124,
      "Ġinjured": 1125,
      "ont": 1126,
      "ety": 1127,
      "Ġdes": 1128,
      "ival": 1129,
      "Ġgoes": 1130,
      "ious": 1131,
      "Ġ12": 1132,
      "Ġus": 1133,
      "omm": 1134,
      "Ġrecord": 1135,
      "ta": 1136,
      "ren": 1137,
      "aya": 1138,
      "Pro": 1139,
      "Ġsex": 1140,
      "amb": 1141,
      "ites": 1142,
      "ada": 1143,
      "poration": 1144,
      "Ġrape": 1145,
      "Tr": 1146,
      "Ġsub": 1147,
      "II": 1148,
      "ĠGujarat": 1149,
      "ena": 1150,
      "ivic": 1151,
      "ĠPat": 1152,
      "ama": 1153,
      "Cops": 1154,
      "Ġshar": 1155,
      "Police": 1156,
      "Ġdrive": 1157,
      "ublic": 1158,
      "umar": 1159,
      "Ġsy": 1160,
      "Ġend": 1161,
      "aps": 1162,
      "Ġface": 1163,
      "ief": 1164,
      "arh": 1165,
      "Ġdet": 1166,
      "Ġweek": 1167,
      "Ġviol": 1168,
      "Ġwar": 1169,
      "ĠMP": 1170,
      "Ġhouse": 1171,
      "Ġcent": 1172,
      "Ġdemand": 1173,
      "Ġsuicide": 1174,
      "ere": 1175,
      "rol": 1176,
      "Ġofficials": 1177,
      "Ġson": 1178,
      "Ġrain": 1179,
      "Ġaction": 1180,
      "alk": 1181,
      "Ġdon": 1182,
      "Ġtour": 1183,
      "ased": 1184,
      "ĠAd": 1185,
      "Ġsn": 1186,
      "AP": 1187,
      "Ġnet": 1188,
      "Ġyouth": 1189,
      "Ġworth": 1190,
      "Am": 1191,
      "Ġz": 1192,
      "Ġdoct": 1193,
      "Ġaut": 1194,
      "ploy": 1195,
      "Ġtraffic": 1196,
      "Ġcontin": 1197,
      "Ġput": 1198,
      "icip": 1199,
      "Ġscam": 1200,
      "Ġsecurity": 1201,
      "Now": 1202,
      "olly": 1203,
      "Ġmust": 1204,
      "Ġthree": 1205,
      "Ġvac": 1206,
      "ĠGoa": 1207,
      "ply": 1208,
      "Ġche": 1209,
      "ows": 1210,
      "Ġbef": 1211,
      "idn": 1212,
      "ru": 1213,
      "la": 1214,
      "Ġadd": 1215,
      "hmed": 1216,
      "eed": 1217,
      "Ġann": 1218,
      "Ġrail": 1219,
      "Ġway": 1220,
      "ird": 1221,
      "Sp": 1222,
      "Ġduring": 1223,
      "hra": 1224,
      "Ġbefore": 1225,
      "ĠZ": 1226,
      "CM": 1227,
      "US": 1228,
      "Ġshould": 1229,
      "erm": 1230,
      "cer": 1231,
      "Ġsk": 1232,
      "iew": 1233,
      "Ġplea": 1234,
      "uch": 1235,
      "Ġgold": 1236,
      "ott": 1237,
      "Ġdeal": 1238,
      "Ġyet": 1239,
      "uses": 1240,
      "ruc": 1241,
      "Pak": 1242,
      "ces": 1243,
      "Ġpolic": 1244,
      "rid": 1245,
      "Ġhead": 1246,
      "Ġpolit": 1247,
      "orms": 1248,
      "Ġhur": 1249,
      "Three": 1250,
      "ees": 1251,
      "Ġlook": 1252,
      "ĠChennai": 1253,
      "oint": 1254,
      "Congress": 1255,
      "ision": 1256,
      "Ġstudent": 1257,
      "Ġfind": 1258,
      "ault": 1259,
      "Ġaway": 1260,
      "ders": 1261,
      "ians": 1262,
      "ttar": 1263,
      "ehic": 1264,
      "eet": 1265,
      "led": 1266,
      "Ġgrow": 1267,
      "Ġrise": 1268,
      "Ġready": 1269,
      "ĠCup": 1270,
      "ying": 1271,
      "Ġbill": 1272,
      "Ġred": 1273,
      "Ġdevel": 1274,
      "Ġairport": 1275,
      "Ġdro": 1276,
      "Ġloc": 1277,
      "Ġtells": 1278,
      "ĠPar": 1279,
      "Ġaff": 1280,
      "Ġur": 1281,
      "iqu": 1282,
      "ency": 1283,
      "Ġkills": 1284,
      "SE": 1285,
      "Ġamong": 1286,
      "Ġworkers": 1287,
      "ĠCor": 1288,
      "ended": 1289,
      "ĠEx": 1290,
      "Ġ$": 1291,
      "urs": 1292,
      "omb": 1293,
      "ness": 1294,
      "Ġbro": 1295,
      "ollywood": 1296,
      "ĠKap": 1297,
      "icket": 1298,
      "Ġexam": 1299,
      "hmedabad": 1300,
      "Ġlo": 1301,
      "ips": 1302,
      "head": 1303,
      "Ġinvest": 1304,
      "ĠRam": 1305,
      "ised": 1306,
      "Ġdeb": 1307,
      "CB": 1308,
      "my": 1309,
      "Ġsoc": 1310,
      "Ġpati": 1311,
      "Ġgang": 1312,
      "angal": 1313,
      "Ġgood": 1314,
      "ucknow": 1315,
      "ural": 1316,
      "Ġroads": 1317,
      "It": 1318,
      "ĠWorld": 1319,
      "ĠMaharashtra": 1320,
      "Ġtar": 1321,
      "ĠBihar": 1322,
      "Ġrul": 1323,
      "ida": 1324,
      "aint": 1325,
      "war": 1326,
      "Ġfarmers": 1327,
      "State": 1328,
      "aste": 1329,
      "Ġ50": 1330,
      "Maharashtra": 1331,
      "Ġil": 1332,
      "rem": 1333,
      "Ġbegins": 1334,
      "esident": 1335,
      "uty": 1336,
      "ivate": 1337,
      "ĠPune": 1338,
      "ger": 1339,
      "aryana": 1340,
      "Ġtoo": 1341,
      "Ġterror": 1342,
      "oes": 1343,
      "Ġpark": 1344,
      "Ġjust": 1345,
      "Ġgive": 1346,
      "Ġ11": 1347,
      "olog": 1348,
      "Ġlist": 1349,
      "Is": 1350,
      "Ġfour": 1351,
      "very": 1352,
      "SP": 1353,
      "Ġissue": 1354,
      "ones": 1355,
      "endra": 1356,
      "Ġresc": 1357,
      "City": 1358,
      "Ġ-": 1359,
      "Ġshoot": 1360,
      "ific": 1361,
      "Un": 1362,
      "rov": 1363,
      "andid": 1364,
      "iving": 1365,
      "aves": 1366,
      "Ġopp": 1367,
      "Ġrow": 1368,
      "ĠCentre": 1369,
      "Ġkeep": 1370,
      "Ġdevelop": 1371,
      "itiz": 1372,
      "Ġap": 1373,
      "Ġaccident": 1374,
      "Ġcap": 1375,
      "Ġbank": 1376,
      "Ġeng": 1377,
      "chool": 1378,
      "Ġvehic": 1379,
      "Indian": 1380,
      "Ġsal": 1381,
      "Ġonline": 1382,
      "Ġdisc": 1383,
      "Ġturns": 1384,
      "Ġself": 1385,
      "ork": 1386,
      "res": 1387,
      "Ġmakes": 1388,
      "Ġmonths": 1389,
      "Ġsol": 1390,
      "Ġnotice": 1391,
      "Ġbec": 1392,
      "ST": 1393,
      "ĠGand": 1394,
      "riend": 1395,
      "Ġseized": 1396,
      "Ġrest": 1397,
      "ĠCong": 1398,
      "Gujarat": 1399,
      "ndhra": 1400,
      "Ġbusiness": 1401,
      "ĠQ": 1402,
      "Ġ25": 1403,
      "ĠThe": 1404,
      "UP": 1405,
      "Ġca": 1406,
      "Ġonly": 1407,
      "Ġgives": 1408,
      "Ġalle": 1409,
      "stit": 1410,
      "IA": 1411,
      "After": 1412,
      "ility": 1413,
      "Ġlast": 1414,
      "uble": 1415,
      "Ġschem": 1416,
      "ĠKumar": 1417,
      "Ġreal": 1418,
      "aks": 1419,
      "ner": 1420,
      "usic": 1421,
      "ĠCBI": 1422,
      "10": 1423,
      "form": 1424,
      "Ġcalls": 1425,
      "39": 1426,
      "Ġfree": 1427,
      "imes": 1428,
      "ahul": 1429,
      "Ġstation": 1430,
      "Ġmod": 1431,
      "Ġwrit": 1432,
      "ĠSur": 1433,
      "rib": 1434,
      "ĠKolkata": 1435,
      "Ġoper": 1436,
      "ĠAs": 1437,
      "iw": 1438,
      "avi": 1439,
      "Ġ30": 1440,
      "Ġcome": 1441,
      "emple": 1442,
      "Ġnod": 1443,
      "Ġdistrict": 1444,
      "ĠMal": 1445,
      "Ġdrug": 1446,
      "ĠHyderabad": 1447,
      "Ġsupport": 1448,
      "ults": 1449,
      "ĠChand": 1450,
      "ĠPunjab": 1451,
      "Ġillegal": 1452,
      "eld": 1453,
      "wers": 1454,
      "ĠTamil": 1455,
      "ries": 1456,
      "IR": 1457,
      "Ġmove": 1458,
      "wal": 1459,
      "Ġrej": 1460,
      "udget": 1461,
      "Ġbid": 1462,
      "anti": 1463,
      "ĠTr": 1464,
      "Ġhike": 1465,
      "Stud": 1466,
      "ĠNew": 1467,
      "aipur": 1468,
      "Ġfood": 1469,
      "Ġleaders": 1470,
      "ber": 1471,
      "uv": 1472,
      "ued": 1473,
      "Ġjud": 1474,
      "unt": 1475,
      "unicip": 1476,
      "unicipal": 1477,
      "Ad": 1478,
      "pt": 1479,
      "Ġstat": 1480,
      "ocks": 1481,
      "Ġeduc": 1482,
      "Ġleader": 1483,
      "down": 1484,
      "apur": 1485,
      "Ġcandid": 1486,
      "pos": 1487,
      "Ġworld": 1488,
      "ĠMay": 1489,
      "Ġsurv": 1490,
      "Ġprof": 1491,
      "Ġindust": 1492,
      "aign": 1493,
      "par": 1494,
      "Ġcust": 1495,
      "Ġissues": 1496,
      "co": 1497,
      "Ġoffice": 1498,
      "Pune": 1499,
      "Ġstay": 1500,
      "rup": 1501,
      "Ġshi": 1502,
      "Ġhost": 1503,
      "agpur": 1504,
      "Ġorders": 1505,
      "Ġear": 1506,
      "ments": 1507,
      "Ġends": 1508,
      "Ġhot": 1509,
      "How": 1510,
      "Ġrelief": 1511,
      "Ġfly": 1512,
      "Ġspecial": 1513,
      "Ġnab": 1514,
      "ooks": 1515,
      "ging": 1516,
      "ret": 1517,
      "oth": 1518,
      "Ġ100": 1519,
      "raud": 1520,
      "ift": 1521,
      "ĠGandhi": 1522,
      "Ġconv": 1523,
      "Ġcheck": 1524,
      "pir": 1525,
      "As": 1526,
      "embly": 1527,
      "ior": 1528,
      "Ġconf": 1529,
      "PL": 1530,
      "IC": 1531,
      "RT": 1532,
      "ative": 1533,
      "iger": 1534,
      "Ġproper": 1535,
      "ĠShah": 1536,
      "ti": 1537,
      "Tra": 1538,
      "irth": 1539,
      "Ġbeat": 1540,
      "Ġdelay": 1541,
      "Ġden": 1542,
      "thers": 1543,
      "ĠKapoor": 1544,
      "Ġwins": 1545,
      "raight": 1546,
      "ĠMah": 1547,
      "ball": 1548,
      "MS": 1549,
      "Ġminor": 1550,
      "Ġmoney": 1551,
      "CP": 1552,
      "aur": 1553,
      "ways": 1554,
      "ota": 1555,
      "Ġresidents": 1556,
      "ĠShar": 1557,
      "ason": 1558,
      "Ġclass": 1559,
      "itch": 1560,
      "Ġteachers": 1561,
      "Ġbab": 1562,
      "Ġreturn": 1563,
      "ĠPakistan": 1564,
      "stem": 1565,
      "anka": 1566,
      "ĠCl": 1567,
      "Ġ14": 1568,
      "Ġcentre": 1569,
      "Ġpublic": 1570,
      "ĠEn": 1571,
      "ides": 1572,
      "Ġkin": 1573,
      "Ġsecond": 1574,
      "aught": 1575,
      "Min": 1576,
      "itive": 1577,
      "Ġresp": 1578,
      "ĠJan": 1579,
      "ught": 1580,
      "ept": 1581,
      "All": 1582,
      "Ġlove": 1583,
      "For": 1584,
      "Ġsum": 1585,
      "Ġart": 1586,
      "ators": 1587,
      "ears": 1588,
      "ka": 1589,
      "Ġtrad": 1590,
      "Ġofficer": 1591,
      "Ġdi": 1592,
      "Ġdiv": 1593,
      "Ġrules": 1594,
      "Ġshot": 1595,
      "Ġjoin": 1596,
      "Ġif": 1597,
      "ule": 1598,
      "aughter": 1599,
      "Ġemploy": 1600,
      "Ġclean": 1601,
      "Ġprojects": 1602,
      "tions": 1603,
      "Ġrecover": 1604,
      "ling": 1605,
      "erc": 1606,
      "ration": 1607,
      "obal": 1608,
      "We": 1609,
      "Ġadv": 1610,
      "ular": 1611,
      "Ġtill": 1612,
      "Ġahead": 1613,
      "Ġtalks": 1614,
      "aran": 1615,
      "elling": 1616,
      "attle": 1617,
      "gest": 1618,
      "uth": 1619,
      "earch": 1620,
      "Ġcampaign": 1621,
      "Bh": 1622,
      "artment": 1623,
      "ension": 1624,
      "orth": 1625,
      "Ġhand": 1626,
      "ination": 1627,
      "ering": 1628,
      "Ġtold": 1629,
      "gr": 1630,
      "gan": 1631,
      "Ġcivic": 1632,
      "ĠCorporation": 1633,
      "oli": 1634,
      "ases": 1635,
      "ĠKarnataka": 1636,
      "Ġclaims": 1637,
      "ĠKerala": 1638,
      "Ġsupply": 1639,
      "En": 1640,
      "Ġmissing": 1641,
      "Ġbeing": 1642,
      "CR": 1643,
      "ract": 1644,
      "ĠX": 1645,
      "ony": 1646,
      "tern": 1647,
      "Ġchall": 1648,
      "inal": 1649,
      "Ġstop": 1650,
      "ead": 1651,
      "Ġdie": 1652,
      "rees": 1653,
      "avy": 1654,
      "Ġcount": 1655,
      "Ġenc": 1656,
      "Ġstep": 1657,
      "Ġfinal": 1658,
      "Ġsets": 1659,
      "Cong": 1660,
      "Ġbag": 1661,
      "bh": 1662,
      "Ġtreat": 1663,
      "Ġtech": 1664,
      "Ġmarket": 1665,
      "Ġcolleges": 1666,
      "ĠCourt": 1667,
      "orn": 1668,
      "ison": 1669,
      "ung": 1670,
      "ession": 1671,
      "Ġcollege": 1672,
      "Ġ13": 1673,
      "Ġpap": 1674,
      "ĠMetro": 1675,
      "Ġquest": 1676,
      "mp": 1677,
      "Ġpolicy": 1678,
      "Ġlike": 1679,
      "Ġboard": 1680,
      "Ġfunds": 1681,
      "ited": 1682,
      "ury": 1683,
      "ĠChina": 1684,
      "Ġlab": 1685,
      "Ġcharges": 1686,
      "Ġfraud": 1687,
      "Ġser": 1688,
      "ience": 1689,
      "Ġuse": 1690,
      "Ġtemple": 1691,
      "Ġlaunches": 1692,
      "Ġeducation": 1693,
      "uly": 1694,
      "Four": 1695,
      "ĠSal": 1696,
      "Ġ19": 1697,
      "Ġprices": 1698,
      "Ġactiv": 1699,
      "Karnataka": 1700,
      "Ġfirm": 1701,
      "omes": 1702,
      "Ġhous": 1703,
      "ĠIT": 1704,
      "ĠGur": 1705,
      "Ġmarri": 1706,
      "Ġec": 1707,
      "Ġplant": 1708,
      "Ġexper": 1709,
      "Ġsystem": 1710,
      "ĠNar": 1711,
      "Ġdue": 1712,
      "Rajasthan": 1713,
      "ern": 1714,
      "Ġgreen": 1715,
      "ĠWh": 1716,
      "Ġseats": 1717,
      "angalore": 1718,
      "ilit": 1719,
      "ĠKh": 1720,
      "ika": 1721,
      "Ġclear": 1722,
      "NG": 1723,
      "pe": 1724,
      "Ġcash": 1725,
      "Straight": 1726,
      "gaon": 1727,
      "Ġcompan": 1728,
      "Kolkata": 1729,
      "Ġcy": 1730,
      "Ġthro": 1731,
      "gy": 1732,
      "ĠRajasthan": 1733,
      "ĠAl": 1734,
      "rs": 1735,
      "Dr": 1736,
      "Ġ16": 1737,
      "Ġbeh": 1738,
      "Rs": 1739,
      "Ġflood": 1740,
      "50": 1741,
      "Ġfake": 1742,
      "ijay": 1743,
      "Ġ24": 1744,
      "Ġtrib": 1745,
      "anth": 1746,
      "ĠRoad": 1747,
      "ĠAss": 1748,
      "int": 1749,
      "ator": 1750,
      "esc": 1751,
      "Ġ18": 1752,
      "Ġfoot": 1753,
      "Goa": 1754,
      "Ġdeaths": 1755,
      "ene": 1756,
      "ĠDev": 1757,
      "Ġgra": 1758,
      "IL": 1759,
      "Ġbirth": 1760,
      "Ġlow": 1761,
      "Ġmost": 1762,
      "Ġdriver": 1763,
      "chi": 1764,
      "Ġkilling": 1765,
      "opal": 1766,
      "Ġtw": 1767,
      "ashes": 1768,
      "oms": 1769,
      "Ġthr": 1770,
      "Ġ202": 1771,
      "Ġbetter": 1772,
      "reet": 1773,
      "Ġreach": 1774,
      "Ġshut": 1775,
      "Ġelections": 1776,
      "roach": 1777,
      "Ġgroup": 1778,
      "Ġwon": 1779,
      "struc": 1780,
      "Covid": 1781,
      "Ġpatients": 1782,
      "Ġhar": 1783,
      "Co": 1784,
      "ustral": 1785,
      "Telangana": 1786,
      "Ġ200": 1787,
      "Ġchange": 1788,
      "Ġav": 1789,
      "Why": 1790,
      "Ġhours": 1791,
      "ails": 1792,
      "Bengal": 1793,
      "Te": 1794,
      "imb": 1795,
      "ĠTelangana": 1796,
      "Ġpers": 1797,
      "Ġold": 1798,
      "Ġpet": 1799,
      "onom": 1800,
      "ream": 1801,
      "ĠDec": 1802,
      "Tamil": 1803,
      "Ġdoctors": 1804,
      "ender": 1805,
      "ills": 1806,
      "ĠSab": 1807,
      "ĠCity": 1808,
      "uel": 1809,
      "Ġsuc": 1810,
      "itizens": 1811,
      "Ġsign": 1812,
      "udd": 1813,
      "Ġareas": 1814,
      "Ġfun": 1815,
      "ich": 1816,
      "icks": 1817,
      "ini": 1818,
      "Ġrally": 1819,
      "Ġscheme": 1820,
      "..": 1821,
      "io": 1822,
      "Ġstand": 1823,
      "Ġdepartment": 1824,
      "High": 1825,
      "uple": 1826,
      "When": 1827,
      "Ġvacc": 1828,
      "What": 1829,
      "Ġcours": 1830,
      "Ġprivate": 1831,
      "Ġmob": 1832,
      "One": 1833,
      "khand": 1834,
      "Ġother": 1835,
      "band": 1836,
      "ukh": 1837,
      "oard": 1838,
      "ĠAns": 1839,
      "Ġdam": 1840,
      "Ġchildren": 1841,
      "Ġfalls": 1842,
      "Ġris": 1843,
      "igns": 1844,
      "iff": 1845,
      "Ġvillage": 1846,
      "mit": 1847,
      "here": 1848,
      "Ġgirls": 1849,
      "Ġtrade": 1850,
      "Ġbegin": 1851,
      "isis": 1852,
      "Ġmusic": 1853,
      "Ġcould": 1854,
      "Ġassault": 1855,
      "eer": 1856,
      "ĠDh": 1857,
      "Ġtro": 1858,
      "Ġloss": 1859,
      "Ġask": 1860,
      "ET": 1861,
      "oung": 1862,
      "Ġmade": 1863,
      "Ġacqu": 1864,
      "';": 1865,
      "Ph": 1866,
      "pen": 1867,
      "Ġmedical": 1868,
      "Ġhurt": 1869,
      "Ġshort": 1870,
      "ksh": 1871,
      "ful": 1872,
      "Ġresults": 1873,
      "ount": 1874,
      "Will": 1875,
      "Ġsent": 1876,
      "ĠMad": 1877,
      "Ġdept": 1878,
      "Cl": 1879,
      "Ġsafety": 1880,
      "Ġbar": 1881,
      "Ġ17": 1882,
      "Ġassembly": 1883,
      "less": 1884,
      "ener": 1885,
      "ĠLe": 1886,
      "itals": 1887,
      "Ġengine": 1888,
      "ĠBengaluru": 1889,
      "Ġreview": 1890,
      "ned": 1891,
      "ature": 1892,
      "AT": 1893,
      "Ġfive": 1894,
      "isha": 1895,
      "Ġwaste": 1896,
      "Ġtrains": 1897,
      "Ġdoes": 1898,
      "ble": 1899,
      "onsoon": 1900,
      "ape": 1901,
      "Ġboost": 1902,
      "ran": 1903,
      "Ġpoor": 1904,
      "Ġkn": 1905,
      "Youth": 1906,
      "ej": 1907,
      "Ġsing": 1908,
      "Par": 1909,
      "Ġhon": 1910,
      "Ġcre": 1911,
      "ealth": 1912,
      "Bl": 1913,
      "Ġbest": 1914,
      "alu": 1915,
      "Ġnight": 1916,
      "Ġanother": 1917,
      "AI": 1918,
      "Ġtoll": 1919,
      "ewell": 1920,
      "Ġdemands": 1921,
      "Ġbuilding": 1922,
      "Ġwatch": 1923,
      "Ġservices": 1924,
      "Ġcost": 1925,
      "usl": 1926,
      "Ġwithout": 1927,
      "arbage": 1928,
      "Ġproduc": 1929,
      "ĠTV": 1930,
      "iquor": 1931,
      "ashm": 1932,
      "Ġbuy": 1933,
      "Ġrate": 1934,
      "ield": 1935,
      "Ġbust": 1936,
      "Ġlong": 1937,
      "acy": 1938,
      "ĠLucknow": 1939,
      "Ġmanag": 1940,
      "ient": 1941,
      "ron": 1942,
      "Ġsix": 1943,
      "idd": 1944,
      "ening": 1945,
      "ĠSon": 1946,
      "ĠAf": 1947,
      "ideo": 1948,
      "RS": 1949,
      "Ġwr": 1950,
      "Ġgrowth": 1951,
      "ete": 1952,
      "Ġtrack": 1953,
      "Hyderabad": 1954,
      "Sc": 1955,
      "Ġdaughter": 1956,
      "Ġcrisis": 1957,
      "Ġservice": 1958,
      "Court": 1959,
      "Kerala": 1960,
      "cle": 1961,
      "Ġthrough": 1962,
      "Ġpush": 1963,
      "Ġoffer": 1964,
      "Ġrelease": 1965,
      "Ġrole": 1966,
      "ĠKal": 1967,
      "Ġcare": 1968,
      "Ġaward": 1969,
      "ils": 1970,
      "ras": 1971,
      "Ġdup": 1972,
      "ĠRe": 1973,
      "Ġprice": 1974,
      "ier": 1975,
      "Ġir": 1976,
      "Ġthem": 1977,
      "appy": 1978,
      "ority": 1979,
      "Ġeyes": 1980,
      "eth": 1981,
      "Centre": 1982,
      "Ġstir": 1983,
      "ests": 1984,
      "Ġhim": 1985,
      "Ġform": 1986,
      "oints": 1987,
      "IM": 1988,
      "Ġminist": 1989,
      "ĠNoida": 1990,
      "aces": 1991,
      "Ġbreak": 1992,
      "yan": 1993,
      "Ġfresh": 1994,
      "embers": 1995,
      "Ġsuspended": 1996,
      "Ġanti": 1997,
      "Ġcross": 1998,
      "Ġfore": 1999,
      "Ġkey": 2000,
      "Ġrailway": 2001,
      "Ġterm": 2002,
      "edding": 2003,
      "Ġpo": 2004,
      "ĠMunicipal": 2005,
      "ocus": 2006,
      "gle": 2007,
      "Ġ2018": 2008,
      "Ġcricket": 2009,
      "Ġlet": 2010,
      "Ġnational": 2011,
      "haw": 2012,
      "ible": 2013,
      "Ġcab": 2014,
      "Ġhad": 2015,
      "Over": 2016,
      "PC": 2017,
      "ĠHaryana": 2018,
      "Ġbel": 2019,
      "aster": 2020,
      "unk": 2021,
      "ĠWest": 2022,
      "Le": 2023,
      "ĠAct": 2024,
      "Ġkidn": 2025,
      "ĠRT": 2026,
      "Ġstarts": 2027,
      "ward": 2028,
      "Ġprov": 2029,
      "039": 2030,
      "Ġnorms": 2031,
      "Ġevery": 2032,
      "Ġvehicles": 2033,
      "ese": 2034,
      "Ġnumb": 2035,
      "Ġ40": 2036,
      "Ġblast": 2037,
      "Big": 2038,
      "ane": 2039,
      "Ġben": 2040,
      "Ġcontinue": 2041,
      "ne": 2042,
      "Cor": 2043,
      "PS": 2044,
      "Ġshop": 2045,
      "Ġcanc": 2046,
      "Ġannoun": 2047,
      "Ġsecret": 2048,
      "Ġothers": 2049,
      "aram": 2050,
      "ĠPolice": 2051,
      "off": 2052,
      "Ġaud": 2053,
      "ensex": 2054,
      "ĠAnswers": 2055,
      "Ġleave": 2056,
      "Ġleaves": 2057,
      "ĠSP": 2058,
      "Ġclos": 2059,
      "gn": 2060,
      "Ġpositive": 2061,
      "Con": 2062,
      "itness": 2063,
      "Ġcover": 2064,
      "overnor": 2065,
      "Ġofficers": 2066,
      "11": 2067,
      "MK": 2068,
      "Com": 2069,
      "Ġvs": 2070,
      "Ġbehind": 2071,
      "ID": 2072,
      "ley": 2073,
      "MP": 2074,
      "igarh": 2075,
      "Ġhang": 2076,
      "read": 2077,
      "Ġbuses": 2078,
      "Ġcharge": 2079,
      "Pl": 2080,
      "ĠApr": 2081,
      "ĠJune": 2082,
      "ĠIs": 2083,
      "Ġproperty": 2084,
      "akers": 2085,
      "Not": 2086,
      "rish": 2087,
      "Ġbur": 2088,
      "irst": 2089,
      "orrow": 2090,
      "ify": 2091,
      "Ġshift": 2092,
      "Ġcustody": 2093,
      "More": 2094,
      "andh": 2095,
      "ize": 2096,
      "era": 2097,
      "Ġslams": 2098,
      "olen": 2099,
      "Ġless": 2100,
      "ĠBhar": 2101,
      "Ġelection": 2102,
      "ĠOct": 2103,
      "ĠShiv": 2104,
      "ollege": 2105,
      "Bihar": 2106,
      "pite": 2107,
      "ores": 2108,
      "Ġexpl": 2109,
      "Al": 2110,
      "RC": 2111,
      "Ġrep": 2112,
      "Ġglobal": 2113,
      "School": 2114,
      "Ġcaught": 2115,
      "utes": 2116,
      "Ġcomes": 2117,
      "umps": 2118,
      "Ġheart": 2119,
      "Ġlock": 2120,
      "add": 2121,
      "Ġmis": 2122,
      "alls": 2123,
      "ĠMin": 2124,
      "iwali": 2125,
      "Ġblock": 2126,
      "Cr": 2127,
      "Ġorgan": 2128,
      "ami": 2129,
      "Ġdraw": 2130,
      "order": 2131,
      "ague": 2132,
      "Ġsocial": 2133,
      "CBI": 2134,
      "raj": 2135,
      "rain": 2136,
      "Ġcond": 2137,
      "Ġclash": 2138,
      "Ġbring": 2139,
      "Sur": 2140,
      "TV": 2141,
      "Ġpil": 2142,
      "Ġcoach": 2143,
      "Students": 2144,
      "riy": 2145,
      "Ġhospitals": 2146,
      "ction": 2147,
      "Ġlink": 2148,
      "agers": 2149,
      "Ġmeets": 2150,
      "ough": 2151,
      "ped": 2152,
      "ĠSw": 2153,
      "Ġeff": 2154,
      "Chennai": 2155,
      "ĠRahul": 2156,
      "Ġspot": 2157,
      "AS": 2158,
      "oom": 2159,
      "ality": 2160,
      "Ġmom": 2161,
      "ashik": 2162,
      "ween": 2163,
      "enge": 2164,
      "Don": 2165,
      "Ġmedia": 2166,
      "adhya": 2167,
      "aker": 2168,
      "Ġunit": 2169,
      "Ġexams": 2170,
      "Ġeye": 2171,
      "iance": 2172,
      "Ġdecl": 2173,
      "inet": 2174,
      "Ġsave": 2175,
      "Ġcos": 2176,
      "eds": 2177,
      "achal": 2178,
      "Ġacross": 2179,
      "ĠNov": 2180,
      "ĠLok": 2181,
      "Ġsees": 2182,
      "Ġseason": 2183,
      "eel": 2184,
      "Punjab": 2185,
      "Ġpromot": 2186,
      "Ġrout": 2187,
      "asts": 2188,
      "Ġcrit": 2189,
      "Ġfle": 2190,
      "Ġmoves": 2191,
      "Ġmembers": 2192,
      "Ġincre": 2193,
      "Ġgun": 2194,
      "Ġmany": 2195,
      "ced": 2196,
      "te": 2197,
      "Ġtom": 2198,
      "Ġhal": 2199,
      "ĠFIR": 2200,
      "ĠComm": 2201,
      "ode": 2202,
      "aji": 2203,
      "Ġcandidates": 2204,
      "raw": 2205,
      "Ġharass": 2206,
      "Uttar": 2207,
      "ince": 2208,
      "Ġspe": 2209,
      "ending": 2210,
      "Ġrescued": 2211,
      "ĠApril": 2212,
      "Ġstolen": 2213,
      "ĠAll": 2214,
      "Ġfaces": 2215,
      "ĠMarch": 2216,
      "Ġbetween": 2217,
      "Ġforeign": 2218,
      "acket": 2219,
      "ĠUttar": 2220,
      "agh": 2221,
      "ude": 2222,
      "CA": 2223,
      "Ġhop": 2224,
      "Ġcrack": 2225,
      "sc": 2226,
      "hy": 2227,
      "ohan": 2228,
      "Ġfish": 2229,
      "Ġdevelopment": 2230,
      "cc": 2231,
      "min": 2232,
      "uman": 2233,
      "engue": 2234,
      "Ġprog": 2235,
      "enior": 2236,
      "odies": 2237,
      "Ġvir": 2238,
      "ology": 2239,
      "Government": 2240,
      "Ġright": 2241,
      "Mar": 2242,
      "men": 2243,
      "Ġwait": 2244,
      "Ġbrid": 2245,
      "Ġfar": 2246,
      "Ġcontest": 2247,
      "Ġperform": 2248,
      "Five": 2249,
      "utt": 2250,
      "Ġattacks": 2251,
      "ashmir": 2252,
      "Ġground": 2253,
      "vent": 2254,
      "Ġearly": 2255,
      "mi": 2256,
      "Ġfee": 2257,
      "enue": 2258,
      "aut": 2259,
      "Ġoffers": 2260,
      "rial": 2261,
      "uce": 2262,
      "Ġforest": 2263,
      "Ġliquor": 2264,
      "rav": 2265,
      "harkhand": 2266,
      "ulls": 2267,
      "ĠSabha": 2268,
      "Ahmedabad": 2269,
      "ĠAhmedabad": 2270,
      "Air": 2271,
      "ajor": 2272,
      "Ġesc": 2273,
      "edic": 2274,
      "urch": 2275,
      "Ġ26": 2276,
      "ĠHind": 2277,
      "Ġupd": 2278,
      "Ġsome": 2279,
      "Ġrespons": 2280,
      "ĠBank": 2281,
      "Ġshare": 2282,
      "Ġfather": 2283,
      "itter": 2284,
      "Ġ21": 2285,
      "Ġraise": 2286,
      "ustralia": 2287,
      "adav": 2288,
      "iffer": 2289,
      "ĠMLAs": 2290,
      "Act": 2291,
      "rat": 2292,
      "Ġouts": 2293,
      "Ġparents": 2294,
      "Ġjobs": 2295,
      "Sec": 2296,
      "Ġcol": 2297,
      "ourn": 2298,
      "Ġfails": 2299,
      "Ġcard": 2300,
      "Ġintern": 2301,
      "Ġparking": 2302,
      "Day": 2303,
      "RI": 2304,
      "uary": 2305,
      "Ġaid": 2306,
      "elc": 2307,
      "ĠCo": 2308,
      "Farm": 2309,
      "cil": 2310,
      "ĠOpen": 2311,
      "Ġdirector": 2312,
      "zi": 2313,
      "ita": 2314,
      "ĠSouth": 2315,
      "Ġconn": 2316,
      "Ġopens": 2317,
      "Doc": 2318,
      "by": 2319,
      "iti": 2320,
      "Ġvictims": 2321,
      "':": 2322,
      "ĠSept": 2323,
      "ĠFeb": 2324,
      "Ġvictim": 2325,
      "Ġprocess": 2326,
      "This": 2327,
      "Ġbaby": 2328,
      "ĠAug": 2329,
      "Ġnabbed": 2330,
      "Ġbudget": 2331,
      "Ġlear": 2332,
      "Ġvote": 2333,
      "ĠSp": 2334,
      "empt": 2335,
      "Bengaluru": 2336,
      "Ġstudy": 2337,
      "ask": 2338,
      "ĠUK": 2339,
      "Ġtarget": 2340,
      "Ġtaking": 2341,
      "IS": 2342,
      "Ġmish": 2343,
      "ĠSa": 2344,
      "Ġracket": 2345,
      "ider": 2346,
      "Ġfiles": 2347,
      "Ġmeeting": 2348,
      "Ġcontinues": 2349,
      "osition": 2350,
      "Ġclaim": 2351,
      "olest": 2352,
      "Sensex": 2353,
      "arks": 2354,
      "Ġputs": 2355,
      "EO": 2356,
      "Ġroll": 2357,
      "Ġloses": 2358,
      "hib": 2359,
      "ollow": 2360,
      "ĠSat": 2361,
      "Ġdev": 2362,
      "au": 2363,
      "miss": 2364,
      "ela": 2365,
      "Res": 2366,
      "Ġfast": 2367,
      "ĠAndhra": 2368,
      "Ġdistricts": 2369,
      "Ġfocus": 2370,
      "Ġcitizens": 2371,
      "usband": 2372,
      "Ġdig": 2373,
      "ĠJuly": 2374,
      "Ġchang": 2375,
      "Ġmess": 2376,
      "amm": 2377,
      "ĠAir": 2378,
      "Ġrobb": 2379,
      "Power": 2380,
      "Ġwedding": 2381,
      "He": 2382,
      "Ġviolence": 2383,
      "Ġdiscuss": 2384,
      "Ġvars": 2385,
      "El": 2386,
      "Rail": 2387,
      "Ġbri": 2388,
      "Ġour": 2389,
      "Ġsuccess": 2390,
      "isc": 2391,
      "olv": 2392,
      "Ġblack": 2393,
      "Ġtomorrow": 2394,
      "Ġpri": 2395,
      "itation": 2396,
      "abh": 2397,
      "Ġ22": 2398,
      "Ġmarriage": 2399,
      "Ġhub": 2400,
      "riends": 2401,
      "let": 2402,
      "ĠSup": 2403,
      "rip": 2404,
      "Sm": 2405,
      "alit": 2406,
      "Ġbattle": 2407,
      "Ġdog": 2408,
      "ising": 2409,
      "Ġstates": 2410,
      "Ġver": 2411,
      "Ġindustry": 2412,
      "Ġcancer": 2413,
      "Ġdisp": 2414,
      "Son": 2415,
      "Ġwalk": 2416,
      "aken": 2417,
      "ĠPh": 2418,
      "iation": 2419,
      "Ġ(": 2420,
      "akhand": 2421,
      "ament": 2422,
      "ĠPan": 2423,
      "anga": 2424,
      "hane": 2425,
      "Ġlives": 2426,
      "Ġknow": 2427,
      "ikh": 2428,
      "Ġshows": 2429,
      "Ġfinds": 2430,
      "ED": 2431,
      "Ġany": 2432,
      "ences": 2433,
      "Ġcommun": 2434,
      "Ġinsp": 2435,
      "Ġrecords": 2436,
      "At": 2437,
      "Ġmother": 2438,
      "ĠStud": 2439,
      "Ġcentres": 2440,
      "unn": 2441,
      "ĠDiwali": 2442,
      "ĠSharma": 2443,
      "uz": 2444,
      "Ġcards": 2445,
      "Sal": 2446,
      "rist": 2447,
      "Ġcuts": 2448,
      "Pan": 2449,
      "itish": 2450,
      "Ġmilit": 2451,
      "entral": 2452,
      "ĠGovt": 2453,
      "Women": 2454,
      "ĠKan": 2455,
      "Ġreve": 2456,
      "Ġpropos": 2457,
      "GP": 2458,
      "Pat": 2459,
      "andal": 2460,
      "Ġreb": 2461,
      "Ġbanks": 2462,
      "iven": 2463,
      "BA": 2464,
      "istration": 2465,
      "Ġconduc": 2466,
      "erve": 2467,
      "ĠSena": 2468,
      "Ġfile": 2469,
      "Ġvoters": 2470,
      "DP": 2471,
      "garh": 2472,
      "Ġpoints": 2473,
      "ayat": 2474,
      "Ġlevel": 2475,
      "Ġbags": 2476,
      "ified": 2477,
      "Ġtruck": 2478,
      "Ġleads": 2479,
      "Ġpolitical": 2480,
      "ĠKar": 2481,
      "Ġleg": 2482,
      "Ġsale": 2483,
      "ban": 2484,
      "Ġhope": 2485,
      "Ġcontract": 2486,
      "Ġprotests": 2487,
      "rd": 2488,
      "ten": 2489,
      "eeps": 2490,
      "ormer": 2491,
      "Ġeconom": 2492,
      "EC": 2493,
      "Ġquota": 2494,
      "Ġfestival": 2495,
      "12": 2496,
      "Fl": 2497,
      "ipur": 2498,
      "Ġdrow": 2499,
      "ĠBangalore": 2500,
      "aug": 2501,
      "DI": 2502,
      "se": 2503,
      "ĠEngl": 2504,
      "book": 2505,
      "Ġmatch": 2506,
      "Inf": 2507,
      "BS": 2508,
      "With": 2509,
      "ĠNagpur": 2510,
      "Ġbusted": 2511,
      "Ġpress": 2512,
      "itor": 2513,
      "Ġposts": 2514,
      "mon": 2515,
      "Ġties": 2516,
      "Ġsell": 2517,
      "Ġhist": 2518,
      "ĠMC": 2519,
      "ula": 2520,
      "ections": 2521,
      "arty": 2522,
      "ĠFor": 2523,
      "Ġdrop": 2524,
      "Ġdata": 2525,
      "Ġname": 2526,
      "Ġalert": 2527,
      "Ġinst": 2528,
      "Ġflu": 2529,
      "Ġflight": 2530,
      "Ġline": 2531,
      "poll": 2532,
      "Ġwell": 2533,
      "Ġwoes": 2534,
      "Ġcouple": 2535,
      "Ġreturns": 2536,
      "atter": 2537,
      "Ġsector": 2538,
      "ĠMon": 2539,
      "Ġsuff": 2540,
      "of": 2541,
      "Ġtit": 2542,
      "Ġfriend": 2543,
      "Ġrights": 2544,
      "ĠPro": 2545,
      "Ġlocal": 2546,
      "inc": 2547,
      "Ġmill": 2548,
      "Ġproble": 2549,
      "Another": 2550,
      "ĠNagar": 2551,
      "Ġtests": 2552,
      "Ġlost": 2553,
      "Ġneeds": 2554,
      "Ġemployees": 2555,
      "Andhra": 2556,
      "urai": 2557,
      "Ġattend": 2558,
      "China": 2559,
      "Ġbenef": 2560,
      "engers": 2561,
      "Ġevent": 2562,
      "Ġdoctor": 2563,
      "struction": 2564,
      "Ġperson": 2565,
      "hu": 2566,
      "nam": 2567,
      "yle": 2568,
      "amata": 2569,
      "ĠHouse": 2570,
      "ugram": 2571,
      "Ġamid": 2572,
      "Ġbecome": 2573,
      "Ġfact": 2574,
      "Ġoil": 2575,
      "ĠAb": 2576,
      "ĠAsh": 2577,
      "ĠBl": 2578,
      "ĠBollywood": 2579,
      "ĠVijay": 2580,
      "wa": 2581,
      "Ġcell": 2582,
      "anded": 2583,
      "Ġsales": 2584,
      "friend": 2585,
      "Ġcro": 2586,
      "Ġvideo": 2587,
      "Ġpres": 2588,
      "Ġsteal": 2589,
      "AC": 2590,
      "Gur": 2591,
      "ĠMusl": 2592,
      "Ġlif": 2593,
      "ĠKa": 2594,
      "uja": 2595,
      "Ġupdate": 2596,
      "Ġfut": 2597,
      "ĠAg": 2598,
      "ained": 2599,
      "Ġraped": 2600,
      "Ġloan": 2601,
      "Ġsil": 2602,
      "Ġbad": 2603,
      "Ġduty": 2604,
      "anger": 2605,
      "Ġsong": 2606,
      "Ġri": 2607,
      "Ġstab": 2608,
      "Ġscreen": 2609,
      "Ġparties": 2610,
      "Ġstage": 2611,
      "Ġcrime": 2612,
      "Ġbrings": 2613,
      "ze": 2614,
      "Ġident": 2615,
      "achin": 2616,
      "Ġtem": 2617,
      "ĠAj": 2618,
      "Ġtheft": 2619,
      "Ġyoung": 2620,
      "SS": 2621,
      "oles": 2622,
      "ĠPl": 2623,
      "JD": 2624,
      "Mad": 2625,
      "atra": 2626,
      "Ġtough": 2627,
      "enders": 2628,
      "Ġconcer": 2629,
      "Ġfear": 2630,
      "ĠKashmir": 2631,
      "uggl": 2632,
      "Ġfirms": 2633,
      "15": 2634,
      "inder": 2635,
      "Ġthird": 2636,
      "ulture": 2637,
      "Ġmobile": 2638,
      "Can": 2639,
      "Foot": 2640,
      "Sw": 2641,
      "Ġhands": 2642,
      "Ġlic": 2643,
      "Ġpaper": 2644,
      "ĠCollege": 2645,
      "overs": 2646,
      "ĠTN": 2647,
      "apan": 2648,
      "Ġreserv": 2649,
      "Ġunits": 2650,
      "Ġwhat": 2651,
      "Ġdouble": 2652,
      "Ġbodies": 2653,
      "ĠAT": 2654,
      "aving": 2655,
      "Ġallow": 2656,
      "inks": 2657,
      "ĠIIT": 2658,
      "Ġcontrol": 2659,
      "Ġinfl": 2660,
      "App": 2661,
      "ances": 2662,
      "Ġraises": 2663,
      "Water": 2664,
      "odh": 2665,
      "ples": 2666,
      "Ġbirthday": 2667,
      "SA": 2668,
      "anda": 2669,
      "Ġraping": 2670,
      "Ġbridge": 2671,
      "ture": 2672,
      "Ġpollution": 2673,
      "ĠIt": 2674,
      "ĠJaipur": 2675,
      "reme": 2676,
      "Ġgener": 2677,
      "Ġrepl": 2678,
      "Ġrejects": 2679,
      "gery": 2680,
      "Ġsafe": 2681,
      "oice": 2682,
      "Ġrises": 2683,
      "ĠAAP": 2684,
      "Ġtouch": 2685,
      "ombay": 2686,
      "Ġlose": 2687,
      "ume": 2688,
      "epal": 2689,
      "riyanka": 2690,
      "rah": 2691,
      "avour": 2692,
      "Ġhere": 2693,
      "mar": 2694,
      "ven": 2695,
      "Ġborder": 2696,
      "olit": 2697,
      "ĠIndians": 2698,
      "Ġfix": 2699,
      "Ġtow": 2700,
      "amed": 2701,
      "ĠPal": 2702,
      "Ġheat": 2703,
      "ero": 2704,
      "ila": 2705,
      "Ġloot": 2706,
      "Ġlooks": 2707,
      "Ġrisk": 2708,
      "Ġshops": 2709,
      "lymp": 2710,
      "ĠWom": 2711,
      "ping": 2712,
      "Ġlight": 2713,
      "ĠBab": 2714,
      "Ġspeed": 2715,
      "Ġfull": 2716,
      "Ġmot": 2717,
      "Ġauto": 2718,
      "Ġrule": 2719,
      "eddy": 2720,
      "ĠBar": 2721,
      "Ġsurvey": 2722,
      "Ġfollow": 2723,
      "Ġnon": 2724,
      "hit": 2725,
      "oins": 2726,
      "oni": 2727,
      "ared": 2728,
      "Ġeas": 2729,
      "Ġcause": 2730,
      "Modi": 2731,
      "Ġfre": 2732,
      "Ġmem": 2733,
      "Ġmolest": 2734,
      "ĠGh": 2735,
      "avan": 2736,
      "ampions": 2737,
      "aries": 2738,
      "ikes": 2739,
      "astic": 2740,
      "Ġpresident": 2741,
      "CCI": 2742,
      "Ġdiffer": 2743,
      "Ġrates": 2744,
      "Ġhelps": 2745,
      "Ġremov": 2746,
      "Ġsqu": 2747,
      "Ġpast": 2748,
      "rab": 2749,
      "Ġlabour": 2750,
      "tor": 2751,
      "ĠRail": 2752,
      "Ġsteps": 2753,
      "Gang": 2754,
      "West": 2755,
      "ler": 2756,
      "Ġwhile": 2757,
      "Ġtalk": 2758,
      "tors": 2759,
      "isation": 2760,
      "ĠIPL": 2761,
      "ĠTest": 2762,
      "ĠNarendra": 2763,
      "acked": 2764,
      "to": 2765,
      "Ġsession": 2766,
      "ried": 2767,
      "Ġplace": 2768,
      "Ġmurdered": 2769,
      "Six": 2770,
      "Ġburn": 2771,
      "Ġteen": 2772,
      "Ġcatch": 2773,
      "ashion": 2774,
      "inese": 2775,
      "Ġwithd": 2776,
      "Ġcollaps": 2777,
      "Ġlawy": 2778,
      "Ġpromises": 2779,
      "Ġsnatch": 2780,
      "Girl": 2781,
      "World": 2782,
      "ĠBang": 2783,
      "iev": 2784,
      "red": 2785,
      "omin": 2786,
      "ejri": 2787,
      "go": 2788,
      "ja": 2789,
      "Ġsug": 2790,
      "Ġrural": 2791,
      "ĠCEO": 2792,
      "Ġtravel": 2793,
      "Ġmining": 2794,
      "ĠDecember": 2795,
      "vi": 2796,
      "ĠYadav": 2797,
      "Ġriver": 2798,
      "Ġstatus": 2799,
      "jun": 2800,
      "Ġsit": 2801,
      "rick": 2802,
      "Gold": 2803,
      "aul": 2804,
      "Ġthey": 2805,
      "Ġjoins": 2806,
      "rict": 2807,
      "Chand": 2808,
      "Ġvillages": 2809,
      "Ġhusband": 2810,
      "Ġforces": 2811,
      "Ġwarns": 2812,
      "oogle": 2813,
      "ĠPatna": 2814,
      "ea": 2815,
      "Ġwelc": 2816,
      "Ġspace": 2817,
      "ners": 2818,
      "Ġlive": 2819,
      "ĠCops": 2820,
      "Ġrece": 2821,
      "disha": 2822,
      "Ġspread": 2823,
      "Ġquar": 2824,
      "Ġlaunched": 2825,
      "ilm": 2826,
      "hazi": 2827,
      "Ġphot": 2828,
      "Ġteacher": 2829,
      "Ġurges": 2830,
      "Ġdump": 2831,
      "Ġcommission": 2832,
      "iety": 2833,
      "Ġpop": 2834,
      "Ġmet": 2835,
      "urance": 2836,
      "aged": 2837,
      "Ġexc": 2838,
      "Ġcrim": 2839,
      "Ġfilms": 2840,
      "Top": 2841,
      "Ġgarbage": 2842,
      "ĠChh": 2843,
      "Ġfeel": 2844,
      "Ġpasses": 2845,
      "Ġholds": 2846,
      "Ġdebut": 2847,
      "ium": 2848,
      "Ġmer": 2849,
      "Ġsmart": 2850,
      "ittee": 2851,
      "Ġwritten": 2852,
      "for": 2853,
      "Ġplayers": 2854,
      "Ġpolitics": 2855,
      "TC": 2856,
      "oid": 2857,
      "Ġsports": 2858,
      "Ġstays": 2859,
      "Ġequ": 2860,
      "aily": 2861,
      "Ġmishap": 2862,
      "uri": 2863,
      "Ġgame": 2864,
      "ired": 2865,
      "Ġthrow": 2866,
      "emic": 2867,
      "Ġcrash": 2868,
      "ense": 2869,
      "da": 2870,
      "ris": 2871,
      "vani": 2872,
      "Ġhopes": 2873,
      "ira": 2874,
      "ollar": 2875,
      "Ġremain": 2876,
      "Ġill": 2877,
      "Ġstory": 2878,
      "ober": 2879,
      "Ġ60": 2880,
      "ĠExp": 2881,
      "law": 2882,
      "Ġob": 2883,
      "Ġhow": 2884,
      "pped": 2885,
      "vest": 2886,
      "Ġfine": 2887,
      "eness": 2888,
      "Ġgot": 2889,
      "ivil": 2890,
      "apt": 2891,
      "Ġcountry": 2892,
      "14": 2893,
      "Ġstations": 2894,
      "Ġbribe": 2895,
      "land": 2896,
      "Ġdream": 2897,
      "Ġhard": 2898,
      "Ġste": 2899,
      "igr": 2900,
      "haziabad": 2901,
      "Pe": 2902,
      "jee": 2903,
      "Ġsem": 2904,
      "ĠSc": 2905,
      "Ġtreatment": 2906,
      "hal": 2907,
      "Ġleft": 2908,
      "plic": 2909,
      "eat": 2910,
      "Ġsite": 2911,
      "Ġseat": 2912,
      "phy": 2913,
      "Ġnumber": 2914,
      "tr": 2915,
      "vir": 2916,
      "Ġsince": 2917,
      "idence": 2918,
      "Ġdecision": 2919,
      "ejriwal": 2920,
      "acker": 2921,
      "Ġspl": 2922,
      "Ġlegal": 2923,
      "Ġest": 2924,
      "Ġdengue": 2925,
      "perts": 2926,
      "ruption": 2927,
      "DMK": 2928,
      "First": 2929,
      "Pakistan": 2930,
      "Ġphone": 2931,
      "Ġalleges": 2932,
      "Ġlim": 2933,
      "ĠKo": 2934,
      "Ġkeeps": 2935,
      "ishes": 2936,
      "awar": 2937,
      "apped": 2938,
      "Ġcompanies": 2939,
      "30": 2940,
      "Ġtoget": 2941,
      "ĠDe": 2942,
      "elled": 2943,
      "Haryana": 2944,
      "inals": 2945,
      "atory": 2946,
      "ĠArmy": 2947,
      "Ġowners": 2948,
      "Ġquestion": 2949,
      "ĠAssam": 2950,
      "Ġpat": 2951,
      "Ġmag": 2952,
      "Ġyrs": 2953,
      "Ġtogether": 2954,
      "ĠBal": 2955,
      "ification": 2956,
      "Ġasked": 2957,
      "Ġtrees": 2958,
      "Ġbike": 2959,
      "ĠSam": 2960,
      "Ġreports": 2961,
      "Ġtransport": 2962,
      "Ġemer": 2963,
      "Traffic": 2964,
      "Ġused": 2965,
      "Ġwere": 2966,
      "lex": 2967,
      "Ġclose": 2968,
      "Ġapprov": 2969,
      "Ġmaking": 2970,
      "Ġshares": 2971,
      "Ġrush": 2972,
      "ĠMoh": 2973,
      "ĠPark": 2974,
      "ials": 2975,
      "Ġcelebrate": 2976,
      "Ġbrother": 2977,
      "Ġvarsity": 2978,
      "Ram": 2979,
      "Ġforce": 2980,
      "Ġmanagement": 2981,
      "oud": 2982,
      "ashi": 2983,
      "uted": 2984,
      "ĠHigh": 2985,
      "ĠNG": 2986,
      "Ġdeadline": 2987,
      "Ġpanch": 2988,
      "Ġsold": 2989,
      "oned": 2990,
      "Ġgas": 2991,
      "erman": 2992,
      "Ġinstit": 2993,
      "itage": 2994,
      "Ġowner": 2995,
      "Ġcert": 2996,
      "ooth": 2997,
      "Ġappoint": 2998,
      "ospital": 2999,
      "Ġtrip": 3000,
      "Rel": 3001,
      "com": 3002,
      "Ġfair": 3003,
      "ĠRao": 3004,
      "Ġsle": 3005,
      "ĠMao": 3006,
      "upee": 3007,
      "Ġarea": 3008,
      "Ġtrial": 3009,
      "Ġadmin": 3010,
      "Ġreleased": 3011,
      "'m": 3012,
      "Civic": 3013,
      "Lucknow": 3014,
      "fall": 3015,
      "Ġdate": 3016,
      "agan": 3017,
      "rishna": 3018,
      "me": 3019,
      "izz": 3020,
      "acebook": 3021,
      "Ġtourism": 3022,
      "ĠClass": 3023,
      "Des": 3024,
      "Former": 3025,
      "Rain": 3026,
      "Ġdest": 3027,
      "Ġjewell": 3028,
      "Ġdrivers": 3029,
      "Ġdenies": 3030,
      "ĠJay": 3031,
      "Ġimm": 3032,
      "Ġguard": 3033,
      "Ġcheating": 3034,
      "DC": 3035,
      "anks": 3036,
      "Ġmonsoon": 3037,
      "lement": 3038,
      "ĠJanuary": 3039,
      "ortion": 3040,
      "ades": 3041,
      "Ġrefuses": 3042,
      "Ġfriends": 3043,
      "elop": 3044,
      "osh": 3045,
      "Ġaround": 3046,
      "ĠReport": 3047,
      "work": 3048,
      "achch": 3049,
      "Ass": 3050,
      "SR": 3051,
      "Ġ27": 3052,
      "ĠOlymp": 3053,
      "ogi": 3054,
      "Ġ2014": 3055,
      "Ġmajor": 3056,
      "asi": 3057,
      "Ġgiven": 3058,
      "My": 3059,
      "Nagpur": 3060,
      "ided": 3061,
      "ĠNational": 3062,
      "aints": 3063,
      "richy": 3064,
      "Ġdismiss": 3065,
      "ĠSalman": 3066,
      "arun": 3067,
      "fl": 3068,
      "Football": 3069,
      "Ġpics": 3070,
      "edical": 3071,
      "oyal": 3072,
      "Ġabduc": 3073,
      "bama": 3074,
      "gets": 3075,
      "Ġans": 3076,
      "Ġround": 3077,
      "Ġ28": 3078,
      "Ġpeace": 3079,
      "anjay": 3080,
      "Ġchallenge": 3081,
      "Ġsel": 3082,
      "Ġbi": 3083,
      "ĠSar": 3084,
      "Ġdirect": 3085,
      "500": 3086,
      "GI": 3087,
      "IIT": 3088,
      "Rahul": 3089,
      "Ġworks": 3090,
      "Sup": 3091,
      "dd": 3092,
      "Ġruns": 3093,
      "Ġrobbed": 3094,
      "Teach": 3095,
      "Ġsecretary": 3096,
      "Ġtimes": 3097,
      "enal": 3098,
      "Ġpick": 3099,
      "Ġwarn": 3100,
      "aze": 3101,
      "itions": 3102,
      "Ġride": 3103,
      "ilk": 3104,
      "Ġnever": 3105,
      "Ġcorpor": 3106,
      "Ġdespite": 3107,
      "Ġdrugs": 3108,
      "Ġtechn": 3109,
      "ĠGurgaon": 3110,
      "ER": 3111,
      "ĠAP": 3112,
      "ĠHar": 3113,
      "ories": 3114,
      "Ġlocals": 3115,
      "Do": 3116,
      "Ġfield": 3117,
      "Ġdeg": 3118,
      "Ġflights": 3119,
      "ĠMa": 3120,
      "igil": 3121,
      "Ġtiger": 3122,
      "eline": 3123,
      "ĠSund": 3124,
      "ĠVid": 3125,
      "Ġ31": 3126,
      "ivity": 3127,
      "ĠBoard": 3128,
      "Ġhighway": 3129,
      "Ġquestions": 3130,
      "Ġhouses": 3131,
      "Ġtitle": 3132,
      "ĠAnd": 3133,
      "ounter": 3134,
      "Ġhigher": 3135,
      "uff": 3136,
      "Ġexec": 3137,
      "inds": 3138,
      "Ġens": 3139,
      "oke": 3140,
      "Cop": 3141,
      "Law": 3142,
      "Ġlar": 3143,
      "Ġshe": 3144,
      "ĠYear": 3145,
      "Ġdecide": 3146,
      "Special": 3147,
      "Os": 3148,
      "Ġinaug": 3149,
      "Ġport": 3150,
      "Ġperf": 3151,
      "ĠMinister": 3152,
      "vt": 3153,
      "andi": 3154,
      "Ġcurb": 3155,
      "Ġvehicle": 3156,
      "ek": 3157,
      "ares": 3158,
      "Ġobs": 3159,
      "Ġcourse": 3160,
      "dict": 3161,
      "Ġ2015": 3162,
      "Ġ2019": 3163,
      "ald": 3164,
      "ĠFr": 3165,
      "Ġcampus": 3166,
      "Ġfuture": 3167,
      "Ġsigns": 3168,
      "ilities": 3169,
      "asw": 3170,
      "ĠSec": 3171,
      "Ġcompany": 3172,
      "erry": 3173,
      "Ġgovernor": 3174,
      "Ġ23": 3175,
      "Ġleak": 3176,
      "Ġ2017": 3177,
      "17": 3178,
      "Ġrace": 3179,
      "Ġquality": 3180,
      "Ġstrong": 3181,
      "Ġadmission": 3182,
      "25": 3183,
      "rad": 3184,
      "Ġtaken": 3185,
      "Ġmass": 3186,
      "ĠAli": 3187,
      "ements": 3188,
      "Ġeven": 3189,
      "Ġyouths": 3190,
      "Ġwitness": 3191,
      "Ġups": 3192,
      "nath": 3193,
      "ona": 3194,
      "Ġfuel": 3195,
      "Ġchair": 3196,
      "char": 3197,
      "heet": 3198,
      "Ġenter": 3199,
      "Ġformer": 3200,
      "rap": 3201,
      "imachal": 3202,
      "Ġrescue": 3203,
      "Ġprogram": 3204,
      "PF": 3205,
      "Ġcrow": 3206,
      "Ġvisits": 3207,
      "ruit": 3208,
      "Ġcourses": 3209,
      "EA": 3210,
      "ĠMo": 3211,
      "ĠOctober": 3212,
      "put": 3213,
      "ĠBhopal": 3214,
      "Ġcentral": 3215,
      "Ġmodel": 3216,
      "ĠNovember": 3217,
      "Ġhistory": 3218,
      "sp": 3219,
      "rove": 3220,
      "opard": 3221,
      "ĠEl": 3222,
      "Ġamb": 3223,
      "Ġcommits": 3224,
      "Ġexperts": 3225,
      "Ġhotel": 3226,
      "AAP": 3227,
      "Bus": 3228,
      "ĠBoss": 3229,
      "ĠVC": 3230,
      "Ġvaccine": 3231,
      "Ġhonour": 3232,
      "Ġweb": 3233,
      "ĠPresident": 3234,
      "Ġannounces": 3235,
      "uction": 3236,
      "eft": 3237,
      "Ġblasts": 3238,
      "ickets": 3239,
      "Ġrepair": 3240,
      "ockey": 3241,
      "Ġprofit": 3242,
      "Poll": 3243,
      "Ġpict": 3244,
      "Ġsearch": 3245,
      "ola": 3246,
      "roc": 3247,
      "iri": 3248,
      "opra": 3249,
      "Ġtrig": 3250,
      "Ġimport": 3251,
      "Ġchalleng": 3252,
      "Ġtrouble": 3253,
      "Mah": 3254,
      "Ġbiz": 3255,
      "ĠSr": 3256,
      "Ġjourn": 3257,
      "erred": 3258,
      "inking": 3259,
      "Ġstake": 3260,
      "Ġstars": 3261,
      "Ġage": 3262,
      "Ġtrying": 3263,
      "ĠAustralia": 3264,
      "Ġtraining": 3265,
      "Ġzone": 3266,
      "Ġauth": 3267,
      "achchan": 3268,
      "bir": 3269,
      "gers": 3270,
      "etch": 3271,
      "ĠAy": 3272,
      "eful": 3273,
      "Ġtraders": 3274,
      "Ġbomb": 3275,
      "Ġdollar": 3276,
      "ett": 3277,
      "Ġcomplaint": 3278,
      "Ġinaugur": 3279,
      "based": 3280,
      "ĠBMC": 3281,
      "ĠKejriwal": 3282,
      "Ġregister": 3283,
      "Ġsummer": 3284,
      "reg": 3285,
      "Ġjudge": 3286,
      "Fr": 3287,
      "ĠLanka": 3288,
      "Ġflat": 3289,
      "Aut": 3290,
      "ox": 3291,
      "pal": 3292,
      "onment": 3293,
      "iction": 3294,
      "ĠGames": 3295,
      "Ġplays": 3296,
      "eph": 3297,
      "Ġfiled": 3298,
      "Ġactor": 3299,
      "Ġdrops": 3300,
      "Ġministry": 3301,
      "oj": 3302,
      "oga": 3303,
      "ĠAfric": 3304,
      "Farmers": 3305,
      "iy": 3306,
      "ads": 3307,
      "ĠRes": 3308,
      "Fire": 3309,
      "Ġcars": 3310,
      "Ġpa": 3311,
      "ayam": 3312,
      "aidu": 3313,
      "Ġbird": 3314,
      "Ġwave": 3315,
      "abled": 3316,
      "Ġgoing": 3317,
      "Ġsmuggl": 3318,
      "Ġactivists": 3319,
      "ighb": 3320,
      "Ġroute": 3321,
      "Ġresponse": 3322,
      "SU": 3323,
      "echi": 3324,
      "ĠTe": 3325,
      "aik": 3326,
      "Ġlands": 3327,
      "Ġsexual": 3328,
      "NL": 3329,
      "adha": 3330,
      "ention": 3331,
      "Ġwithin": 3332,
      "Ġflag": 3333,
      "FC": 3334,
      "Re": 3335,
      "Ġdip": 3336,
      "Ġdance": 3337,
      "ires": 3338,
      "Ġrevenue": 3339,
      "Ġfavour": 3340,
      "amal": 3341,
      "pura": 3342,
      "Ġcollection": 3343,
      "Ġoutside": 3344,
      "Pre": 3345,
      "Ġign": 3346,
      "Ġsenior": 3347,
      "Ġcred": 3348,
      "Ġsmall": 3349,
      "Dev": 3350,
      "ored": 3351,
      "orts": 3352,
      "Ġunve": 3353,
      "Ġdelayed": 3354,
      "16": 3355,
      "ilt": 3356,
      "imp": 3357,
      "udi": 3358,
      "Ġbox": 3359,
      "Ġincl": 3360,
      "Ġhearing": 3361,
      "ĠBan": 3362,
      "raft": 3363,
      "Ġval": 3364,
      "Ġdoesn": 3365,
      "ĠSonia": 3366,
      "Ne": 3367,
      "areness": 3368,
      "Ġwa": 3369,
      "ols": 3370,
      "olid": 3371,
      "ĠCan": 3372,
      "ĠKore": 3373,
      "Ġaspir": 3374,
      "ĠChopra": 3375,
      "Ġaccidents": 3376,
      "Ġawareness": 3377,
      "Ġfront": 3378,
      "Go": 3379,
      "ica": 3380,
      "Ġlit": 3381,
      "round": 3382,
      "ĠCA": 3383,
      "Ġhangs": 3384,
      "ĠAugust": 3385,
      "tery": 3386,
      "Prot": 3387,
      "...": 3388,
      "Car": 3389,
      "uit": 3390,
      "vey": 3391,
      "Ġcelebrates": 3392,
      "Il": 3393,
      "SI": 3394,
      "ĠGod": 3395,
      "Ġmedic": 3396,
      "ĠStudy": 3397,
      "18": 3398,
      "Ġrains": 3399,
      "icro": 3400,
      "ental": 3401,
      "aga": 3402,
      "Ġtrail": 3403,
      "Ġquit": 3404,
      "back": 3405,
      "Ġtree": 3406,
      "Ġpassengers": 3407,
      "Ġrecovered": 3408,
      "Ġencroach": 3409,
      "Comm": 3410,
      "Dec": 3411,
      "pass": 3412,
      "Ġcold": 3413,
      "ema": 3414,
      "ĠAmit": 3415,
      "Ġregion": 3416,
      "Ġcelebrations": 3417,
      "Ġi": 3418,
      "Ġsanc": 3419,
      "iles": 3420,
      "ĠBachchan": 3421,
      "Ġ500": 3422,
      "Ġpetition": 3423,
      "ĠNH": 3424,
      "istr": 3425,
      "athi": 3426,
      "urt": 3427,
      "irus": 3428,
      "ables": 3429,
      "Ġclub": 3430,
      "Ġalong": 3431,
      "arr": 3432,
      "icit": 3433,
      "Ġdriving": 3434,
      "Ġmarks": 3435,
      "Ġincrease": 3436,
      "Rec": 3437,
      "Ġconstruction": 3438,
      "Ġtack": 3439,
      "osc": 3440,
      "ĠJharkhand": 3441,
      "13": 3442,
      "IP": 3443,
      "Road": 3444,
      "Ġrock": 3445,
      "ured": 3446,
      "Ġarms": 3447,
      "Ġgetting": 3448,
      "Ġsurgery": 3449,
      "From": 3450,
      "Shah": 3451,
      "free": 3452,
      "mas": 3453,
      "lear": 3454,
      "imate": 3455,
      "earing": 3456,
      "ĠHow": 3457,
      "Ġcorporation": 3458,
      "Ġharassment": 3459,
      "Rev": 3460,
      "Ġbond": 3461,
      "reets": 3462,
      "ĠNashik": 3463,
      "Ġreop": 3464,
      "stable": 3465,
      "liament": 3466,
      "Ġentry": 3467,
      "ni": 3468,
      "uters": 3469,
      "Ġ70": 3470,
      "Ġthreaten": 3471,
      "iet": 3472,
      "ĠTwo": 3473,
      "ually": 3474,
      "erst": 3475,
      "ashed": 3476,
      "Ġdemol": 3477,
      "Ġremains": 3478,
      "anner": 3479,
      "May": 3480,
      "atr": 3481,
      "aced": 3482,
      "ĠChar": 3483,
      "iry": 3484,
      "Ġnames": 3485,
      "Ġcapt": 3486,
      "Ġsingle": 3487,
      "ĠSeptember": 3488,
      "Ġdaily": 3489,
      "Ġrank": 3490,
      "aksh": 3491,
      "Ġbeen": 3492,
      "isters": 3493,
      "Ġspir": 3494,
      "Ġcompens": 3495,
      "Ġdetained": 3496,
      "Ġpapers": 3497,
      "Ġtie": 3498,
      "Ġfew": 3499,
      "Ġhomes": 3500,
      "ĠNav": 3501,
      "usive": 3502,
      "Ġpip": 3503,
      "ĠSurat": 3504,
      "month": 3505,
      "BC": 3506,
      "uo": 3507,
      "Ġtank": 3508,
      "Ġticket": 3509,
      "anath": 3510,
      "etty": 3511,
      "usion": 3512,
      "irc": 3513,
      "ĠRuss": 3514,
      "Ġworking": 3515,
      "Ab": 3516,
      "PG": 3517,
      "Ġfiring": 3518,
      "Ġhighest": 3519,
      "Ġthreatens": 3520,
      "EE": 3521,
      "Ġpain": 3522,
      "ĠBig": 3523,
      "IF": 3524,
      "Work": 3525,
      "inagar": 3526,
      "atore": 3527,
      "itted": 3528,
      "raz": 3529,
      "Ġusing": 3530,
      "imbatore": 3531,
      "ĠDr": 3532,
      "Ġabuse": 3533,
      "even": 3534,
      "Ġflyover": 3535,
      "ternational": 3536,
      "ĠMonday": 3537,
      "Get": 3538,
      "oft": 3539,
      "Ġinn": 3540,
      "osing": 3541,
      "iah": 3542,
      "Noida": 3543,
      "Ġinterest": 3544,
      "Ġvillagers": 3545,
      "TO": 3546,
      "iers": 3547,
      "joy": 3548,
      "onav": 3549,
      "Ġdise": 3550,
      "Ġhor": 3551,
      "ayan": 3552,
      "ĠGan": 3553,
      "Ġblames": 3554,
      "Ġaffair": 3555,
      "pro": 3556,
      "ĠRa": 3557,
      "odara": 3558,
      "Ġsepar": 3559,
      "Ġlockdown": 3560,
      "Ġlog": 3561,
      "Ġnote": 3562,
      "Ġcapital": 3563,
      "Ġcandidate": 3564,
      "una": 3565,
      "Ġheavy": 3566,
      "itional": 3567,
      "Army": 3568,
      "ittle": 3569,
      "ĠTrump": 3570,
      "Ġprison": 3571,
      "fts": 3572,
      "Ġren": 3573,
      "issions": 3574,
      "Ġcouncil": 3575,
      "Only": 3576,
      "Ġinternational": 3577,
      "Ġpressure": 3578,
      "ĠCC": 3579,
      "ĠMuk": 3580,
      "imal": 3581,
      "eeks": 3582,
      "ondon": 3583,
      "Ġmillion": 3584,
      "path": 3585,
      "Ġtel": 3586,
      "ĠED": 3587,
      "Ġresearch": 3588,
      "Ġdetails": 3589,
      "Ġcreate": 3590,
      "Ġverdict": 3591,
      "Ġide": 3592,
      "Ġfans": 3593,
      "Ġbas": 3594,
      "Ġwhe": 3595,
      "Ġstocks": 3596,
      "apping": 3597,
      "Ġtries": 3598,
      "Bu": 3599,
      "run": 3600,
      "ĠNitish": 3601,
      "ĠUN": 3602,
      "ĠEC": 3603,
      "Ġ80": 3604,
      "ĠExpress": 3605,
      "aa": 3606,
      "Ġsends": 3607,
      "Ġwould": 3608,
      "ĠReddy": 3609,
      "Ġplot": 3610,
      "Ġencounter": 3611,
      "Ġjumps": 3612,
      "ĠChrist": 3613,
      "Ġensure": 3614,
      "Ġwall": 3615,
      "Ġlot": 3616,
      "ĠAz": 3617,
      "Ġ29": 3618,
      "uge": 3619,
      "derly": 3620,
      "Ġwhen": 3621,
      "Ġmarkets": 3622,
      "Ġhousing": 3623,
      "adodara": 3624,
      "ĠAk": 3625,
      "ched": 3626,
      "epend": 3627,
      "Ġprepar": 3628,
      "Ġsuspect": 3629,
      "Ġcomplet": 3630,
      "Ġ2022": 3631,
      "kot": 3632,
      "Ġhuman": 3633,
      "elt": 3634,
      "icial": 3635,
      "ĠMadhya": 3636,
      "igation": 3637,
      "reater": 3638,
      "ĠGu": 3639,
      "Ġseal": 3640,
      "Ġworker": 3641,
      "Ġoppose": 3642,
      "Ġapplic": 3643,
      "Meet": 3644,
      "Nar": 3645,
      "lam": 3646,
      "Ġbacks": 3647,
      "ength": 3648,
      "Ġconsum": 3649,
      "Ġclasses": 3650,
      "HP": 3651,
      "ĠSA": 3652,
      "reak": 3653,
      "ups": 3654,
      "Ġchain": 3655,
      "Ġscare": 3656,
      "Patna": 3657,
      "time": 3658,
      "Ġid": 3659,
      "Ġwid": 3660,
      "ĠNorth": 3661,
      "ĠSunday": 3662,
      "Mal": 3663,
      "Ġcam": 3664,
      "Ġhappy": 3665,
      "Ġblame": 3666,
      "ounts": 3667,
      "Ġfamilies": 3668,
      "Miss": 3669,
      "ware": 3670,
      "ined": 3671,
      "izes": 3672,
      "Ġalive": 3673,
      "ohar": 3674,
      "eter": 3675,
      "Ġbreaks": 3676,
      "Phot": 3677,
      "ĠNepal": 3678,
      "Ġnews": 3679,
      "Ġslow": 3680,
      "Ġprevent": 3681,
      "Ġdefence": 3682,
      "Ġtransfer": 3683,
      "incip": 3684,
      "Ġhom": 3685,
      "ĠRev": 3686,
      "Ġdoub": 3687,
      "Ġassets": 3688,
      "Ġseries": 3689,
      "Cont": 3690,
      "anchi": 3691,
      "Ag": 3692,
      "ladesh": 3693,
      "uation": 3694,
      "ĠPand": 3695,
      "emen": 3696,
      "ĠDal": 3697,
      "ĠHospital": 3698,
      "Ġcommittee": 3699,
      "Ġpatient": 3700,
      "Rupee": 3701,
      "ds": 3702,
      "ora": 3703,
      "Ġcities": 3704,
      "eli": 3705,
      "ĠCB": 3706,
      "Ġmayor": 3707,
      "echn": 3708,
      "elopment": 3709,
      "va": 3710,
      "Health": 3711,
      "OC": 3712,
      "ghan": 3713,
      "kg": 3714,
      "nagar": 3715,
      "owers": 3716,
      "uct": 3717,
      "icted": 3718,
      "attis": 3719,
      "Ġbuildings": 3720,
      "ĠATM": 3721,
      "Shar": 3722,
      "Ġbandh": 3723,
      "ĠBad": 3724,
      "estic": 3725,
      "onda": 3726,
      "ĠBill": 3727,
      "ulation": 3728,
      "Ġtransf": 3729,
      "riday": 3730,
      "Ġwithdraw": 3731,
      "Br": 3732,
      "ties": 3733,
      "Ġnurs": 3734,
      "ifies": 3735,
      "Ġadop": 3736,
      "Ġwanted": 3737,
      "Ġsociety": 3738,
      "Ġgut": 3739,
      "sters": 3740,
      "Shiv": 3741,
      "anned": 3742,
      "Ġexpress": 3743,
      "Ġphase": 3744,
      "ĠMadurai": 3745,
      "Ġmor": 3746,
      "ĠRan": 3747,
      "iversary": 3748,
      "Ġtourists": 3749,
      "Ġwrong": 3750,
      "PO": 3751,
      "rast": 3752,
      "uf": 3753,
      "Ġstock": 3754,
      "abinet": 3755,
      "ĠTw": 3756,
      "Ġbeats": 3757,
      "Ġcoal": 3758,
      "ĠBhag": 3759,
      "Ġraids": 3760,
      "Ġministers": 3761,
      "ĠBharat": 3762,
      "People": 3763,
      "Jaipur": 3764,
      "MA": 3765,
      "yam": 3766,
      "Ġselling": 3767,
      "ĠSm": 3768,
      "ĠAkh": 3769,
      "ĠBS": 3770,
      "awan": 3771,
      "Ġaddress": 3772,
      "Ġseparate": 3773,
      "Ġant": 3774,
      "Ġplastic": 3775,
      "Ġoperations": 3776,
      "Ġmid": 3777,
      "ican": 3778,
      "ĠCha": 3779,
      "Ġnorth": 3780,
      "ajan": 3781,
      "ĠAdity": 3782,
      "ackeray": 3783,
      "ĠSchool": 3784,
      "ĠCentral": 3785,
      "ĠGST": 3786,
      "Ġblood": 3787,
      "Ġburgl": 3788,
      "Ġcertific": 3789,
      "onavirus": 3790,
      "Ġintro": 3791,
      "Ġmonitor": 3792,
      "rovers": 3793,
      "km": 3794,
      "amir": 3795,
      "igence": 3796,
      "ĠVal": 3797,
      "ritish": 3798,
      "ancy": 3799,
      "Ġshoots": 3800,
      "Offic": 3801,
      "To": 3802,
      "eless": 3803,
      "uments": 3804,
      "udhi": 3805,
      "Ġdispute": 3806,
      "Ġreveals": 3807,
      "bl": 3808,
      "ania": 3809,
      "Ġmetro": 3810,
      "olution": 3811,
      "Ġread": 3812,
      "appa": 3813,
      "Ġinfo": 3814,
      "Ġcurr": 3815,
      "Ġang": 3816,
      "Ġgreat": 3817,
      "ĠKann": 3818,
      "ĠChampions": 3819,
      "Ġaccuses": 3820,
      "Ġfinanc": 3821,
      "Ġbiggest": 3822,
      "Ġtackle": 3823,
      "ergy": 3824,
      "Ġmigr": 3825,
      "Ġways": 3826,
      "oshi": 3827,
      "Ġprop": 3828,
      "ecting": 3829,
      "Ġweather": 3830,
      "ĠMPs": 3831,
      "Illegal": 3832,
      "attisgarh": 3833,
      "ĠVir": 3834,
      "Ġbecomes": 3835,
      "Cy": 3836,
      "inch": 3837,
      "Ġbooks": 3838,
      "ĠRukh": 3839,
      "Ġsurpr": 3840,
      "ĠBhatt": 3841,
      "Salman": 3842,
      "Ġjewellery": 3843,
      "200": 3844,
      "Bank": 3845,
      "Mao": 3846,
      "za": 3847,
      "Ġsouth": 3848,
      "ĠSri": 3849,
      "iders": 3850,
      "osys": 3851,
      "ĠGhaziabad": 3852,
      "Ġextended": 3853,
      "Ġdesign": 3854,
      "ĠPatel": 3855,
      "Ġanniversary": 3856,
      "Ġescape": 3857,
      "Soon": 3858,
      "Ġtops": 3859,
      "Ġgains": 3860,
      "Ġ35": 3861,
      "ructure": 3862,
      "Ġgraft": 3863,
      "Ġfunction": 3864,
      "Ġcabinet": 3865,
      "pay": 3866,
      "Ġweeks": 3867,
      "Ġnorm": 3868,
      "Ġstress": 3869,
      "Ġnegl": 3870,
      "Ġattacked": 3871,
      "Ġboys": 3872,
      "ruary": 3873,
      "pers": 3874,
      "Ġmal": 3875,
      "asan": 3876,
      "Ġacce": 3877,
      "Ġpanchayat": 3878,
      "Or": 3879,
      "Ġcode": 3880,
      "edi": 3881,
      "ocation": 3882,
      "Ġshooting": 3883,
      "De": 3884,
      "ĠSang": 3885,
      "Ġnation": 3886,
      "ĠFriday": 3887,
      "Ġresign": 3888,
      "Ġteams": 3889,
      "ĠAmb": 3890,
      "Ġdocs": 3891,
      "Ġjustice": 3892,
      "Ġlearn": 3893,
      "National": 3894,
      "con": 3895,
      "Ġdid": 3896,
      "ote": 3897,
      "Ġwhy": 3898,
      "Ġfinally": 3899,
      "eas": 3900,
      "vind": 3901,
      "Ġsew": 3902,
      "Ġfat": 3903,
      "Ġdues": 3904,
      "Ġramp": 3905,
      "acts": 3906,
      "Ġshock": 3907,
      "Ġmarch": 3908,
      "Ġrobbery": 3909,
      "Ġpull": 3910,
      "ĠPad": 3911,
      "aza": 3912,
      "ĠCommission": 3913,
      "ĠEngland": 3914,
      "aria": 3915,
      "Ġpack": 3916,
      "Ġpaid": 3917,
      "Ġdidn": 3918,
      "using": 3919,
      "ulkar": 3920,
      "ĠChandigarh": 3921,
      "ĠRailway": 3922,
      "UK": 3923,
      "hold": 3924,
      "Ġtag": 3925,
      "roup": 3926,
      "Ġextra": 3927,
      "Ġawards": 3928,
      "rench": 3929,
      "Residents": 3930,
      "iya": 3931,
      "rest": 3932,
      "Ġgear": 3933,
      "Ġgears": 3934,
      "Ġstyle": 3935,
      "ĠPawar": 3936,
      "ĠTal": 3937,
      "Ġheritage": 3938,
      "Ġcorruption": 3939,
      "Ġopposition": 3940,
      "ky": 3941,
      "ray": 3942,
      "Ġfill": 3943,
      "ĠSun": 3944,
      "Ġjun": 3945,
      "Ġ45": 3946,
      "Ġrecruit": 3947,
      "Ġclears": 3948,
      "ĠFebruary": 3949,
      "wad": 3950,
      "Ġcour": 3951,
      "Ġmuch": 3952,
      "ĠCom": 3953,
      "osed": 3954,
      "Ġbypoll": 3955,
      "arsh": 3956,
      "Ġsett": 3957,
      "ĠState": 3958,
      "ĠAsian": 3959,
      "Ġlicence": 3960,
      "Ġprogramme": 3961,
      "Ġtry": 3962,
      "Ġforms": 3963,
      "quiry": 3964,
      "okes": 3965,
      "ohn": 3966,
      "Dh": 3967,
      "Ġbull": 3968,
      "ĠChinese": 3969,
      "ĠEur": 3970,
      "enger": 3971,
      "Ġfees": 3972,
      "Ġengineering": 3973,
      "hapur": 3974,
      "ĠAt": 3975,
      "Ġvend": 3976,
      "Ġdraws": 3977,
      "Ġwelcome": 3978,
      "40": 3979,
      "Dem": 3980,
      "uti": 3981,
      "ĠNag": 3982,
      "Security": 3983,
      "Ġcompensation": 3984,
      "Sing": 3985,
      "iling": 3986,
      "ulf": 3987,
      "Ġeach": 3988,
      "Ġcrush": 3989,
      "ished": 3990,
      "kshay": 3991,
      "Chandigarh": 3992,
      "Mon": 3993,
      "Sl": 3994,
      "Teen": 3995,
      "mission": 3996,
      "endulkar": 3997,
      "ĠLal": 3998,
      "Ġinvestors": 3999,
      "Ġshortage": 4000,
      "Ġpilgr": 4001,
      "ĠUttarakhand": 4002,
      "Ash": 4003,
      "Celeb": 4004,
      "IV": 4005,
      "Qu": 4006,
      "lers": 4007,
      "Ġfashion": 4008,
      "Ġtown": 4009,
      "Ġaide": 4010,
      "unal": 4011,
      "Ġenjoy": 4012,
      "Ġboyc": 4013,
      "Ġgrand": 4014,
      "Ġimprove": 4015,
      "udhiana": 4016,
      "Ġmach": 4017,
      "Ġmult": 4018,
      "Ġmaint": 4019,
      "Ġward": 4020,
      "ĠThane": 4021,
      "Ġattempt": 4022,
      "Ġadmissions": 4023,
      "Ġconduct": 4024,
      "BMC": 4025,
      "utions": 4026,
      "Ġthose": 4027,
      "osqu": 4028,
      "ĠOn": 4029,
      "rastructure": 4030,
      "Watch": 4031,
      "ye": 4032,
      "Ġwild": 4033,
      "Ġlack": 4034,
      "ĠTrichy": 4035,
      "ociation": 4036,
      "ĠJapan": 4037,
      "ĠWill": 4038,
      "Child": 4039,
      "Ġsurr": 4040,
      "Ġview": 4041,
      "Ġsoft": 4042,
      "Ġvictory": 4043,
      "Ġgroups": 4044,
      "Ġeasy": 4045,
      "Ġfreed": 4046,
      "oscope": 4047,
      "sec": 4048,
      "yn": 4049,
      "Ġrams": 4050,
      "also": 4051,
      "Gl": 4052,
      "HA": 4053,
      "Home": 4054,
      "Metro": 4055,
      "Ġsites": 4056,
      "atre": 4057,
      "ilder": 4058,
      "Ġlod": 4059,
      "Ġstorm": 4060,
      "ĠRBI": 4061,
      "anted": 4062,
      "axal": 4063,
      "Ġtargets": 4064,
      "Char": 4065,
      "arc": 4066,
      "Ġtoil": 4067,
      "iding": 4068,
      "omestic": 4069,
      "athy": 4070,
      "ĠOr": 4071,
      "Ġarrests": 4072,
      "Ġfined": 4073,
      "Ġcommunity": 4074,
      "ror": 4075,
      "Ġalso": 4076,
      "Ġmys": 4077,
      "Ġmulls": 4078,
      "olhapur": 4079,
      "Ġlate": 4080,
      "adem": 4081,
      "ĠIC": 4082,
      "Ġstrength": 4083,
      "ĠInf": 4084,
      "Ġbills": 4085,
      "Ġreaches": 4086,
      "ĠRoh": 4087,
      "Ġearn": 4088,
      "Ġvia": 4089,
      "Ġscanner": 4090,
      "Ġmovie": 4091,
      "Ġindustrial": 4092,
      "Panel": 4093,
      "Ġdifferent": 4094,
      "vironment": 4095,
      "TA": 4096,
      "TE": 4097,
      "Vill": 4098,
      "ĠCon": 4099,
      "ĠGang": 4100,
      "ishw": 4101,
      "Ġdry": 4102,
      "Ġfacilities": 4103,
      "ĠThackeray": 4104,
      "Kh": 4105,
      "action": 4106,
      "Ġquits": 4107,
      "encies": 4108,
      "ibr": 4109,
      "Ġenergy": 4110,
      "Trad": 4111,
      "Minor": 4112,
      "Ġtribal": 4113,
      "Boy": 4114,
      "WG": 4115,
      "bing": 4116,
      "wards": 4117,
      "Ġpitch": 4118,
      "ĠShe": 4119,
      "Ġstreet": 4120,
      "Ġvigil": 4121,
      "ibility": 4122,
      "Ġinsurance": 4123,
      "Ġavoid": 4124,
      "Fin": 4125,
      "RBI": 4126,
      "ke": 4127,
      "Ġsame": 4128,
      "Ġpenal": 4129,
      "ĠMeh": 4130,
      "Ġaccount": 4131,
      "Ġ2016": 4132,
      "Ġfacility": 4133,
      "100": 4134,
      "ton": 4135,
      "yg": 4136,
      "Ġwind": 4137,
      "ĠIm": 4138,
      "angu": 4139,
      "Ġcoast": 4140,
      "IIMS": 4141,
      "Fake": 4142,
      "Land": 4143,
      "Madhya": 4144,
      "hood": 4145,
      "jit": 4146,
      "Ġfur": 4147,
      "upta": 4148,
      "Ġsparks": 4149,
      "Ġnotes": 4150,
      "ĠAdvani": 4151,
      "NMC": 4152,
      "key": 4153,
      "Ġton": 4154,
      "Ġsever": 4155,
      "Who": 4156,
      "Ġdistrib": 4157,
      "rupt": 4158,
      "Ġchanges": 4159,
      "IPL": 4160,
      "den": 4161,
      "Ġfears": 4162,
      "ĠSub": 4163,
      "idel": 4164,
      "Ġloans": 4165,
      "Ġsurviv": 4166,
      "ĠMuslim": 4167,
      "24": 4168,
      "SG": 4169,
      "ĠSachin": 4170,
      "ĠMamata": 4171,
      "ĠBe": 4172,
      "ĠParty": 4173,
      "Opp": 4174,
      "ais": 4175,
      "Ġder": 4176,
      "reams": 4177,
      "ĠGad": 4178,
      "Ġfactory": 4179,
      "Just": 4180,
      "ux": 4181,
      "Ġpays": 4182,
      "Ġgain": 4183,
      "amy": 4184,
      "Ġresume": 4185,
      "Ġuns": 4186,
      "amily": 4187,
      "Ġenough": 4188,
      "Ġvotes": 4189,
      "Ġtariff": 4190,
      "hibition": 4191,
      "ĠAfrica": 4192,
      "Ġmission": 4193,
      "ĠMur": 4194,
      "Ġnamed": 4195,
      "ĠLondon": 4196,
      "Ġapproach": 4197,
      "Ġbeaten": 4198,
      "Bollywood": 4199,
      "room": 4200,
      "Ġdrain": 4201,
      "Be": 4202,
      "Real": 4203,
      "Ġappear": 4204,
      "Lok": 4205,
      "yd": 4206,
      "Ġroom": 4207,
      "olf": 4208,
      "ĠDhar": 4209,
      "Ġcry": 4210,
      "Ġseven": 4211,
      "eepika": 4212,
      "Ġelectric": 4213,
      "Ġschemes": 4214,
      "Minister": 4215,
      "Ġfootball": 4216,
      "Ġcollapse": 4217,
      "ĠCCTV": 4218,
      "NA": 4219,
      "mons": 4220,
      "site": 4221,
      "aved": 4222,
      "Ġraid": 4223,
      "Student": 4224,
      "Ġcareer": 4225,
      "ym": 4226,
      "ectors": 4227,
      "Ġneighb": 4228,
      "Ġrelig": 4229,
      "ĠAnand": 4230,
      "ĠRTI": 4231,
      "Ġriots": 4232,
      "gency": 4233,
      "Ġtight": 4234,
      "Ġmand": 4235,
      "ĠTel": 4236,
      "Ġmeas": 4237,
      "Ġscience": 4238,
      "Ġposs": 4239,
      "Ġshifted": 4240,
      "echie": 4241,
      "NU": 4242,
      "gine": 4243,
      "life": 4244,
      "alks": 4245,
      "ĠMor": 4246,
      "ĠIAS": 4247,
      "hips": 4248,
      "ĠNaidu": 4249,
      "ĠFacebook": 4250,
      "ointed": 4251,
      "ducation": 4252,
      "ique": 4253,
      "Bigg": 4254,
      "Ġcancelled": 4255,
      "Ġcritical": 4256,
      "LC": 4257,
      "NT": 4258,
      "Ġsand": 4259,
      "osts": 4260,
      "Ġlaws": 4261,
      "IADMK": 4262,
      "Ġbelow": 4263,
      "Ġprovide": 4264,
      "Ġproposal": 4265,
      "South": 4266,
      "gs": 4267,
      "Ġcivil": 4268,
      "Ġfort": 4269,
      "ulayam": 4270,
      "ĠNCP": 4271,
      "Ġdoor": 4272,
      "ĠKanpur": 4273,
      "Nashik": 4274,
      "Post": 4275,
      "Sa": 4276,
      "di": 4277,
      "Ġpvt": 4278,
      "Ġreply": 4279,
      "ective": 4280,
      "Ġplants": 4281,
      "outs": 4282,
      "play": 4283,
      "RK": 4284,
      "oi": 4285,
      "ves": 4286,
      "Ġbash": 4287,
      "urang": 4288,
      "amond": 4289,
      "Ġstrug": 4290,
      "Ġvisa": 4291,
      "kshop": 4292,
      "ĠLeague": 4293,
      "Ġstealing": 4294,
      "Ġspirit": 4295,
      "wadi": 4296,
      "atest": 4297,
      "ersion": 4298,
      "ĠMys": 4299,
      "oper": 4300,
      "Ġease": 4301,
      "Ġextortion": 4302,
      "Se": 4303,
      "duce": 4304,
      "inar": 4305,
      "Ġbow": 4306,
      "Ġstrate": 4307,
      "ĠGurugram": 4308,
      "ĠKorea": 4309,
      "Ret": 4310,
      "rand": 4311,
      "Ġcal": 4312,
      "Ġdips": 4313,
      "Ġholid": 4314,
      "ĠGo": 4315,
      "Ġsurge": 4316,
      "Ġdeputy": 4317,
      "Ġpostp": 4318,
      "Ġsubmit": 4319,
      "Amit": 4320,
      "RTC": 4321,
      "RD": 4322,
      "cill": 4323,
      "atives": 4324,
      "ĠDGP": 4325,
      "ĠIndore": 4326,
      "ĠEast": 4327,
      "indra": 4328,
      "awati": 4329,
      "Ġtesting": 4330,
      "Ġpolitic": 4331,
      "Ġsolar": 4332,
      "Ġcyber": 4333,
      "26": 4334,
      "cert": 4335,
      "we": 4336,
      "Ġiniti": 4337,
      "Ġgri": 4338,
      "Ġcarry": 4339,
      "ĠAnna": 4340,
      "Ġ90": 4341,
      "Ġcollector": 4342,
      "Ġwrites": 4343,
      "Acc": 4344,
      "aits": 4345,
      "ster": 4346,
      "Ġlov": 4347,
      "road": 4348,
      "ĠSin": 4349,
      "ĠCP": 4350,
      "ĠBas": 4351,
      "ĠPG": 4352,
      "Ġvol": 4353,
      "udh": 4354,
      "ĠHaz": 4355,
      "Ġnotices": 4356,
      "Ġuniversity": 4357,
      "ĠYogi": 4358,
      "Ġstrikes": 4359,
      "Ġimpact": 4360,
      "Ġcritic": 4361,
      "23": 4362,
      "Mob": 4363,
      "Vis": 4364,
      "de": 4365,
      "Ġemb": 4366,
      "Ġsister": 4367,
      "iller": 4368,
      "Ġvan": 4369,
      "Ġrequ": 4370,
      "Ġworry": 4371,
      "Ġalliance": 4372,
      "Bhar": 4373,
      "MU": 4374,
      "Mys": 4375,
      "Ġtim": 4376,
      "ilesh": 4377,
      "Ġlift": 4378,
      "ĠPra": 4379,
      "Ġcool": 4380,
      "Ġappeal": 4381,
      "afe": 4382,
      "Ġsought": 4383,
      "Ġsuffer": 4384,
      "Har": 4385,
      "Kal": 4386,
      "Ġboss": 4387,
      "ĠTir": 4388,
      "Ġtrust": 4389,
      "oots": 4390,
      "Ġproblems": 4391,
      "Ġcrop": 4392,
      "Ġpract": 4393,
      "Ġunl": 4394,
      "ultural": 4395,
      "ĠAsia": 4396,
      "odhya": 4397,
      "'ll": 4398,
      "Bab": 4399,
      "ND": 4400,
      "Vijay": 4401,
      "not": 4402,
      "ĠMot": 4403,
      "Ġtext": 4404,
      "Ġrelations": 4405,
      "Ġslum": 4406,
      "Ġawaits": 4407,
      "Ġseeking": 4408,
      "Ġclosed": 4409,
      "Ġboycott": 4410,
      "Ins": 4411,
      "Ġmember": 4412,
      "ĠOne": 4413,
      "Ġpregn": 4414,
      "ambaram": 4415,
      "Ġhurd": 4416,
      "aranasi": 4417,
      "Ġletter": 4418,
      "Ġproblem": 4419,
      "Auto": 4420,
      "TN": 4421,
      "cy": 4422,
      "Ġer": 4423,
      "atic": 4424,
      "Ġdark": 4425,
      "Ġhun": 4426,
      "asing": 4427,
      "Ġforced": 4428,
      "aper": 4429,
      "Ġkeen": 4430,
      "Ġtracks": 4431,
      "Ġcouns": 4432,
      "Ġinspir": 4433,
      "Ġcurbs": 4434,
      "Parents": 4435,
      "ba": 4436,
      "pet": 4437,
      "ĠIr": 4438,
      "Ġflo": 4439,
      "Ġreleases": 4440,
      "ammu": 4441,
      "ĠKochi": 4442,
      "CPM": 4443,
      "Dis": 4444,
      "Ġtickets": 4445,
      "Ġpra": 4446,
      "eder": 4447,
      "Ġauction": 4448,
      "Ġlower": 4449,
      "ĠTro": 4450,
      "Ġcontrovers": 4451,
      "Ġpaise": 4452,
      "ME": 4453,
      "MLA": 4454,
      "PU": 4455,
      "dev": 4456,
      "Ġmus": 4457,
      "Ġinside": 4458,
      "Ġcriminal": 4459,
      "Sub": 4460,
      "Ġcirc": 4461,
      "Ġpact": 4462,
      "Ġro": 4463,
      "Ġhunt": 4464,
      "Ġrunning": 4465,
      "Ġbillion": 4466,
      "Ġemployee": 4467,
      "urangabad": 4468,
      "70": 4469,
      "RE": 4470,
      "light": 4471,
      "Ġdad": 4472,
      "ĠPriyanka": 4473,
      "ĠRoy": 4474,
      "imm": 4475,
      "Ġshr": 4476,
      "ĠUd": 4477,
      "anta": 4478,
      "pline": 4479,
      "Anti": 4480,
      "olved": 4481,
      "Ġcredit": 4482,
      "Rob": 4483,
      "Ġbatt": 4484,
      "iled": 4485,
      "ĠST": 4486,
      "ĠPanch": 4487,
      "ima": 4488,
      "Ġjump": 4489,
      "Int": 4490,
      "Ġdebate": 4491,
      "Ġaspirants": 4492,
      "mohan": 4493,
      "nes": 4494,
      "Ġpot": 4495,
      "Ġlake": 4496,
      "ĠSikh": 4497,
      "ĠApp": 4498,
      "uls": 4499,
      "avis": 4500,
      "ellers": 4501,
      "ahabad": 4502,
      "ĠAmer": 4503,
      "Ġgrants": 4504,
      "Ġduped": 4505,
      "'d": 4506,
      "Green": 4507,
      "Polit": 4508,
      "raq": 4509,
      "ogra": 4510,
      "ĠAmar": 4511,
      "Ġneeded": 4512,
      "ls": 4513,
      "Ġtips": 4514,
      "Ġmind": 4515,
      "Ġlooking": 4516,
      "ĠExperts": 4517,
      "Ġconfir": 4518,
      "aith": 4519,
      "hav": 4520,
      "ji": 4521,
      "ayal": 4522,
      "leg": 4523,
      "Ġscient": 4524,
      "Ġjudicial": 4525,
      "Heavy": 4526,
      "Ġchairman": 4527,
      "Film": 4528,
      "Most": 4529,
      "Ġcreat": 4530,
      "urf": 4531,
      "ĠSidd": 4532,
      "Ġnomin": 4533,
      "ĠBombay": 4534,
      "ability": 4535,
      "Ġfarmer": 4536,
      "Private": 4537,
      "ĠDhoni": 4538,
      "Hind": 4539,
      "Ġball": 4540,
      "ĠPIL": 4541,
      "abet": 4542,
      "ĠNE": 4543,
      "alled": 4544,
      "uclear": 4545,
      "ĠObama": 4546,
      "Ġissued": 4547,
      "Ġwinter": 4548,
      "ĠArun": 4549,
      "Ġextends": 4550,
      "Ġsalary": 4551,
      "Ġpromote": 4552,
      "ved": 4553,
      "atar": 4554,
      "ĠSanjay": 4555,
      "ĠMand": 4556,
      "ogn": 4557,
      "Ġenters": 4558,
      "ermen": 4559,
      "ĠAdityanath": 4560,
      "60": 4561,
      "Und": 4562,
      "ĠBudget": 4563,
      "ĠDas": 4564,
      "Ġswine": 4565,
      "mates": 4566,
      "aly": 4567,
      "Ġbik": 4568,
      "asad": 4569,
      "ĠCPM": 4570,
      "utive": 4571,
      "Ġthese": 4572,
      "oda": 4573,
      "Ġadj": 4574,
      "ĠYou": 4575,
      "Ġsuspected": 4576,
      "Ġacquis": 4577,
      "Schools": 4578,
      "Ġdanger": 4579,
      "Ġlinks": 4580,
      "Ġthings": 4581,
      "ems": 4582,
      "ager": 4583,
      "ĠOdisha": 4584,
      "Ġsched": 4585,
      "Ġinfrastructure": 4586,
      "ĠSupreme": 4587,
      "Monsoon": 4588,
      "kari": 4589,
      "Ġter": 4590,
      "eries": 4591,
      "orial": 4592,
      "olar": 4593,
      "Ġcoming": 4594,
      "ukta": 4595,
      "Ġskip": 4596,
      "Ġsummons": 4597,
      "Ġlawyer": 4598,
      "Ġpicture": 4599,
      "Missing": 4600,
      "Ġfinancial": 4601,
      "Ġcad": 4602,
      "ential": 4603,
      "ĠKrishna": 4604,
      "uds": 4605,
      "Ġ300": 4606,
      "ancer": 4607,
      "Ġdelays": 4608,
      "Ġhalf": 4609,
      "Google": 4610,
      "pa": 4611,
      "ining": 4612,
      "eni": 4613,
      "Ġbanned": 4614,
      "aying": 4615,
      "iring": 4616,
      "Ġpredic": 4617,
      "Ġactress": 4618,
      "gedy": 4619,
      "Trans": 4620,
      "Ġinvestment": 4621,
      "Ġtemper": 4622,
      "Em": 4623,
      "Sex": 4624,
      "ĠHoli": 4625,
      "Ġplaces": 4626,
      "Ġjoint": 4627,
      "Ġattemp": 4628,
      "Ġspeech": 4629,
      "Del": 4630,
      "Dist": 4631,
      "NCP": 4632,
      "mal": 4633,
      "Ġhapp": 4634,
      "ĠPC": 4635,
      "ĠNet": 4636,
      "ĠTo": 4637,
      "ucks": 4638,
      "Ġ2013": 4639,
      "Ġprotect": 4640,
      "Ġweekend": 4641,
      "Ġtribute": 4642,
      "Ġconcern": 4643,
      "Im": 4644,
      "Jharkhand": 4645,
      "Ko": 4646,
      "Ġemp": 4647,
      "Ġpand": 4648,
      "ĠMir": 4649,
      "Ġstreets": 4650,
      "Ġresident": 4651,
      "imself": 4652,
      "Ġflee": 4653,
      "ieves": 4654,
      "Ġanswers": 4655,
      "Ġnormal": 4656,
      "Ġsend": 4657,
      "Ġhimself": 4658,
      "olve": 4659,
      "ĠPre": 4660,
      "Ġstretch": 4661,
      "Ġplanning": 4662,
      "Ġzoo": 4663,
      "Ġadds": 4664,
      "Uttarakhand": 4665,
      "ĠWoman": 4666,
      "ĠBangladesh": 4667,
      "Ġsuggest": 4668,
      "22": 4669,
      "Bar": 4670,
      "hat": 4671,
      "Ġdow": 4672,
      "Ġdone": 4673,
      "adar": 4674,
      "ecom": 4675,
      "Ġallows": 4676,
      "Ġcompet": 4677,
      "Ġcomplex": 4678,
      "Ġcounter": 4679,
      "Ġfailed": 4680,
      "Ġreduce": 4681,
      "akshi": 4682,
      "Ġengineer": 4683,
      "Ġdigital": 4684,
      "unny": 4685,
      "Gurugram": 4686,
      "oring": 4687,
      "Ġbeach": 4688,
      "ĠLS": 4689,
      "ĠUnion": 4690,
      "Class": 4691,
      "Ġproduction": 4692,
      "Ġconnect": 4693,
      "Ġdogs": 4694,
      "ohli": 4695,
      "Ġrecovery": 4696,
      "Ġfloods": 4697,
      "ĠWomen": 4698,
      "GC": 4699,
      "yers": 4700,
      "Ġmunicipal": 4701,
      "Ġinform": 4702,
      "ĠAfghan": 4703,
      "Ġsituation": 4704,
      "Ġcommissioner": 4705,
      "Ġperfect": 4706,
      "Ġcourts": 4707,
      "Kan": 4708,
      "night": 4709,
      "sid": 4710,
      "Ġok": 4711,
      "Ġmain": 4712,
      "Ġhockey": 4713,
      "Ġlens": 4714,
      "ĠCR": 4715,
      "Ġthere": 4716,
      "Ġmenace": 4717,
      "itizen": 4718,
      "Ġnumbers": 4719,
      "Ġeconomy": 4720,
      "born": 4721,
      "hab": 4722,
      "vers": 4723,
      "Ġlover": 4724,
      "apat": 4725,
      "ĠHimachal": 4726,
      "Ġarmy": 4727,
      "ervation": 4728,
      "elfare": 4729,
      "clusive": 4730,
      "Ġmagic": 4731,
      "icts": 4732,
      "Ġlatest": 4733,
      "Ġplaying": 4734,
      "Bhopal": 4735,
      "Ġcosts": 4736,
      "Ġeconomic": 4737,
      "Here": 4738,
      "Vir": 4739,
      "ĠSen": 4740,
      "ĠAuth": 4741,
      "imum": 4742,
      "aina": 4743,
      "Ġcaste": 4744,
      "Ġsuper": 4745,
      "Ġbusinessman": 4746,
      "ĠKannada": 4747,
      "Bombay": 4748,
      "DF": 4749,
      "Tw": 4750,
      "Ġwoo": 4751,
      "ĠIS": 4752,
      "ĠDes": 4753,
      "apore": 4754,
      "ĠJag": 4755,
      "Ġabs": 4756,
      "icking": 4757,
      "ĠShetty": 4758,
      "Ġregul": 4759,
      "Ġimplement": 4760,
      "ridge": 4761,
      "ercury": 4762,
      "atrina": 4763,
      "21": 4764,
      "ĠDi": 4765,
      "ĠDur": 4766,
      "riya": 4767,
      "vert": 4768,
      "ĠODI": 4769,
      "Many": 4770,
      "ehl": 4771,
      "Ġstranded": 4772,
      "Ġcalled": 4773,
      "Probe": 4774,
      "Ġjudges": 4775,
      "ened": 4776,
      "aco": 4777,
      "akash": 4778,
      "Ġoffices": 4779,
      "Ġcorrid": 4780,
      "Ġdismisses": 4781,
      "anes": 4782,
      "Ġpulls": 4783,
      "oof": 4784,
      "Ġweak": 4785,
      "Ġdenied": 4786,
      "Gu": 4787,
      "WD": 4788,
      "bal": 4789,
      "ĠDub": 4790,
      "arden": 4791,
      "Ġ48": 4792,
      "Inter": 4793,
      "Ġevents": 4794,
      "Ġvaccination": 4795,
      "Ġsquad": 4796,
      "Ġtell": 4797,
      "orge": 4798,
      "orities": 4799,
      "Ġstops": 4800,
      "oday": 4801,
      "Ġurban": 4802,
      "ĠMuslims": 4803,
      "HO": 4804,
      "Make": 4805,
      "NC": 4806,
      "ause": 4807,
      "ring": 4808,
      "Ġ:": 4809,
      "ily": 4810,
      "Ġlittle": 4811,
      "Ġshel": 4812,
      "ĠVas": 4813,
      "ĠManipur": 4814,
      "Ġdebt": 4815,
      "Ġreveal": 4816,
      "Ġriot": 4817,
      "Ġappointment": 4818,
      "Loc": 4819,
      "soft": 4820,
      "acing": 4821,
      "Ġpray": 4822,
      "ixed": 4823,
      "Ġhostel": 4824,
      "Ġmessage": 4825,
      "EST": 4826,
      "ĠMadh": 4827,
      "Ġspell": 4828,
      "ization": 4829,
      "Ġprincip": 4830,
      "Ġreported": 4831,
      "Ġcomplaints": 4832,
      "apuram": 4833,
      "ustralian": 4834,
      "Bad": 4835,
      "Ġ@": 4836,
      "Ġbooth": 4837,
      "ional": 4838,
      "ĠCoun": 4839,
      "uts": 4840,
      "ĠAI": 4841,
      "udge": 4842,
      "Ġbranch": 4843,
      "Ġcommuters": 4844,
      "Ġrising": 4845,
      "Ġstabbed": 4846,
      "Priyanka": 4847,
      "ki": 4848,
      "met": 4849,
      "tar": 4850,
      "Ġpension": 4851,
      "Ġmosqu": 4852,
      "Ġled": 4853,
      "idambaram": 4854,
      "ivists": 4855,
      "athon": 4856,
      "Ġcast": 4857,
      "Ġdrunk": 4858,
      "Ġ75": 4859,
      "useum": 4860,
      "ega": 4861,
      "ference": 4862,
      "Ġcycl": 4863,
      "Ġinflation": 4864,
      "Ġremoved": 4865,
      "Ġtriggers": 4866,
      "ĠTrophy": 4867,
      "Musl": 4868,
      "water": 4869,
      "Ġside": 4870,
      "Ġwarm": 4871,
      "olic": 4872,
      "Ġlangu": 4873,
      "ĠSush": 4874,
      "ĠDon": 4875,
      "arters": 4876,
      "Ġpanic": 4877,
      "Ġregistration": 4878,
      "Railways": 4879,
      "ĠEnglish": 4880,
      "Ġpilgrims": 4881,
      "NS": 4882,
      "Ran": 4883,
      "care": 4884,
      "Ġsan": 4885,
      "Ġculture": 4886,
      "Ġrare": 4887,
      "ĠFar": 4888,
      "ĠFest": 4889,
      "arket": 4890,
      "Ġsuspends": 4891,
      "Ġfever": 4892,
      "uddin": 4893,
      "ĠCBSE": 4894,
      "anna": 4895,
      "Ġsat": 4896,
      "Ġraz": 4897,
      "ĠRed": 4898,
      "ĠRSS": 4899,
      "ĠIIM": 4900,
      "Ġcrunch": 4901,
      "Ġ2020": 4902,
      "Ġintens": 4903,
      "areena": 4904,
      "Ġhelped": 4905,
      "Ġtourist": 4906,
      "Ġrejected": 4907,
      "Ġobj": 4908,
      "Fresh": 4909,
      "DS": 4910,
      "Tata": 4911,
      "aun": 4912,
      "ĠTimes": 4913,
      "harma": 4914,
      "ensus": 4915,
      "Ġtragedy": 4916,
      "Ġadmits": 4917,
      "Ġnetwork": 4918,
      "ĠMaoists": 4919,
      "Need": 4920,
      "bar": 4921,
      "Ġdreams": 4922,
      "Ġfloor": 4923,
      "Ġrevamp": 4924,
      "ĠClub": 4925,
      "Ġcleared": 4926,
      "Ġduping": 4927,
      "Ġestate": 4928,
      "Pet": 4929,
      "Sat": 4930,
      "ters": 4931,
      "Ġbott": 4932,
      "otees": 4933,
      "abs": 4934,
      "Ġ33": 4935,
      "Ġkiller": 4936,
      "oons": 4937,
      "Ġtrader": 4938,
      "Ġactivist": 4939,
      "Couple": 4940,
      "Ġlawyers": 4941,
      "ricket": 4942,
      "Red": 4943,
      "Seven": 4944,
      "Ġsam": 4945,
      "oroscope": 4946,
      "utch": 4947,
      "ĠNeh": 4948,
      "ĠGanga": 4949,
      "aja": 4950,
      "Ġaccess": 4951,
      "Ġdoing": 4952,
      "Ġremarks": 4953,
      "Ġawait": 4954,
      "Ġalleged": 4955,
      "Ġreality": 4956,
      "Doctors": 4957,
      "80": 4958,
      "Trib": 4959,
      "view": 4960,
      "ino": 4961,
      "Ġtourn": 4962,
      "Ġpun": 4963,
      "Ġmart": 4964,
      "Ġplat": 4965,
      "Ġfoul": 4966,
      "Ġpartner": 4967,
      "Ġfailure": 4968,
      "Ġaudit": 4969,
      "Are": 4970,
      "BR": 4971,
      "Ġlines": 4972,
      "Ġever": 4973,
      "ths": 4974,
      "ocial": 4975,
      "ĠLake": 4976,
      "Ġfires": 4977,
      "ĠInc": 4978,
      "Ġopening": 4979,
      "Ġmovement": 4980,
      "Ġpetrol": 4981,
      "ĠHindu": 4982,
      "Ġmotor": 4983,
      "Hot": 4984,
      "rel": 4985,
      "Ġtook": 4986,
      "Ġstamp": 4987,
      "ĠGerman": 4988,
      "Ġkick": 4989,
      "oreign": 4990,
      "ĠArvind": 4991,
      "Ġdirects": 4992,
      "Forest": 4993,
      "Ġartist": 4994,
      "Ġmarried": 4995,
      "Ġallowed": 4996,
      "Ġacquisition": 4997,
      "lights": 4998,
      "mits": 4999,
      "Ġinquiry": 5000,
      "Ġpath": 5001,
      "Ġbats": 5002,
      "ĠDo": 5003,
      "ansion": 5004,
      "Ġallot": 5005,
      "Ġprem": 5006,
      "Ġweight": 5007,
      "CBSE": 5008,
      "chiev": 5009,
      "Ġdrown": 5010,
      "icrosoft": 5011,
      "Def": 5012,
      "Good": 5013,
      "lea": 5014,
      "ĠPuja": 5015,
      "ĠII": 5016,
      "ĠJD": 5017,
      "Ġunion": 5018,
      "arya": 5019,
      "Ġhero": 5020,
      "Ġdeliver": 5021,
      "ĠParliament": 5022,
      "Ġdivision": 5023,
      "Ġavail": 5024,
      "ĠBaner": 5025,
      "Cons": 5026,
      "Sun": 5027,
      "zz": 5028,
      "Ġ+": 5029,
      "Ġmilk": 5030,
      "acc": 5031,
      "iran": 5032,
      "ĠTendulkar": 5033,
      "rif": 5034,
      "ubs": 5035,
      "Ġspend": 5036,
      "izag": 5037,
      "ullah": 5038,
      "Ġbreach": 5039,
      "aitley": 5040,
      "stitution": 5041,
      "stitute": 5042,
      "Ġcreates": 5043,
      "ĠTwitter": 5044,
      "list": 5045,
      "oe": 5046,
      "Ġtask": 5047,
      "ilty": 5048,
      "Ġgiving": 5049,
      "emale": 5050,
      "ĠNDA": 5051,
      "Ġvoice": 5052,
      "Ġsea": 5053,
      "hankar": 5054,
      "Ġqual": 5055,
      "Ġactive": 5056,
      "Ġ150": 5057,
      "Ġcustom": 5058,
      "Ġdegree": 5059,
      "ĠAuthority": 5060,
      "Food": 5061,
      "Your": 5062,
      "rang": 5063,
      "Ġring": 5064,
      "Ġmater": 5065,
      "ĠCol": 5066,
      "ived": 5067,
      "illed": 5068,
      "umes": 5069,
      "Ġretail": 5070,
      "Ġparts": 5071,
      "Ġphones": 5072,
      "Ġstatement": 5073,
      "Ġdamage": 5074,
      "Teachers": 5075,
      "FIR": 5076,
      "Ġbal": 5077,
      "Ġduo": 5078,
      "Ġresult": 5079,
      "ĠInternational": 5080,
      "Ġcheer": 5081,
      "Ġserious": 5082,
      "Ġviral": 5083,
      "ĠChristmas": 5084,
      "Cabinet": 5085,
      "Sar": 5086,
      "Young": 5087,
      "ints": 5088,
      "olars": 5089,
      "Ġgift": 5090,
      "Ġvows": 5091,
      "ĠGoogle": 5092,
      "Ġupgr": 5093,
      "ĠWar": 5094,
      "Ġreforms": 5095,
      "Ġimprov": 5096,
      "Ġpersons": 5097,
      "ici": 5098,
      "ĠBSP": 5099,
      "change": 5100,
      "ripura": 5101,
      "eev": 5102,
      "Ġspots": 5103,
      "Indust": 5104,
      "Ġprofess": 5105,
      "Ġlessons": 5106,
      "Pay": 5107,
      "Poor": 5108,
      "ĠIran": 5109,
      "Ġcrashes": 5110,
      "Ġpoison": 5111,
      "Ġmilitants": 5112,
      "Ġcurrency": 5113,
      "Bangalore": 5114,
      "Ġsim": 5115,
      "ande": 5116,
      "ument": 5117,
      "Ġcha": 5118,
      "Ġexit": 5119,
      "ĠVik": 5120,
      "Ġshowers": 5121,
      "Ġrainfall": 5122,
      "Sonia": 5123,
      "Ġsleep": 5124,
      "Ġcrowd": 5125,
      "Ġsmuggling": 5126,
      "Central": 5127,
      "cent": 5128,
      "most": 5129,
      "pan": 5130,
      "Ġsound": 5131,
      "Ġcer": 5132,
      "raf": 5133,
      "Ġnetas": 5134,
      "Ġfurther": 5135,
      "Let": 5136,
      "Part": 5137,
      "Sn": 5138,
      "illy": 5139,
      "enda": 5140,
      "ĠIndo": 5141,
      "crore": 5142,
      "Despite": 5143,
      "Ġsurprise": 5144,
      "Odisha": 5145,
      "Ġbars": 5146,
      "Ġhour": 5147,
      "Ġarm": 5148,
      "Ġcloud": 5149,
      "Ġelderly": 5150,
      "Ġedge": 5151,
      "Truck": 5152,
      "Ġ2023": 5153,
      "Australia": 5154,
      "Ra": 5155,
      "khar": 5156,
      "Ġsour": 5157,
      "aland": 5158,
      "Ġpoint": 5159,
      "Ġaims": 5160,
      "ura": 5161,
      "Ġlater": 5162,
      "Ġgod": 5163,
      "akk": 5164,
      "cha": 5165,
      "ĠGroup": 5166,
      "Ġking": 5167,
      "ĠPrasad": 5168,
      "Ġpeac": 5169,
      "Ġmanager": 5170,
      "ĠAshok": 5171,
      "ĠOlympics": 5172,
      "LE": 5173,
      "Sam": 5174,
      "anab": 5175,
      "Ġlosing": 5176,
      "amuna": 5177,
      "ĠCal": 5178,
      "ander": 5179,
      "Ġconstable": 5180,
      "Ġchance": 5181,
      "Ġexport": 5182,
      "Ġregular": 5183,
      "arbha": 5184,
      "Ġordered": 5185,
      "Ġsubsid": 5186,
      "Ġbenefit": 5187,
      "Ġdestro": 5188,
      "razil": 5189,
      "FI": 5190,
      "load": 5191,
      "Ġrom": 5192,
      "Ġwing": 5193,
      "asa": 5194,
      "uster": 5195,
      "ĠCar": 5196,
      "ivals": 5197,
      "ĠKohli": 5198,
      "Ġpriv": 5199,
      "Ġscores": 5200,
      "Ġbusy": 5201,
      "ealand": 5202,
      "Ġzones": 5203,
      "ĠZealand": 5204,
      "Ġoperators": 5205,
      "inton": 5206,
      "hawan": 5207,
      "Protest": 5208,
      "Net": 5209,
      "PMC": 5210,
      "wer": 5211,
      "Ġsans": 5212,
      "Ġfare": 5213,
      "Ġrum": 5214,
      "ĠPU": 5215,
      "ĠNand": 5216,
      "Ġworst": 5217,
      "ĠDevelopment": 5218,
      "Ġgeneral": 5219,
      "Ġsplit": 5220,
      "adhaar": 5221,
      "ĠSinha": 5222,
      "Ġtakers": 5223,
      "Ġforward": 5224,
      "Ġnuclear": 5225,
      "Ġvery": 5226,
      "ĠGuj": 5227,
      "Ġleopard": 5228,
      "iddle": 5229,
      "Ġcondem": 5230,
      "ĠEurope": 5231,
      "Di": 5232,
      "kers": 5233,
      "Ġboth": 5234,
      "ĠMS": 5235,
      "apes": 5236,
      "ĠLPG": 5237,
      "Ġoutf": 5238,
      "Ġflats": 5239,
      "Ġdrama": 5240,
      "Ġguilty": 5241,
      "Ġstaffers": 5242,
      "Ġcomplete": 5243,
      "Ġturnout": 5244,
      "Ġproducts": 5245,
      "Surat": 5246,
      "Ġpriority": 5247,
      "Assam": 5248,
      "ygen": 5249,
      "You": 5250,
      "Ġbrain": 5251,
      "ĠMall": 5252,
      "Ġnine": 5253,
      "ĠBCCI": 5254,
      "ĠDhan": 5255,
      "Ġeight": 5256,
      "ĠNMC": 5257,
      "Ġworried": 5258,
      "Ġinvites": 5259,
      "Ġcamps": 5260,
      "Ġvoting": 5261,
      "Phone": 5262,
      "friendly": 5263,
      "Ġcatches": 5264,
      "ĠReview": 5265,
      "Family": 5266,
      "pati": 5267,
      "eri": 5268,
      "edy": 5269,
      "ĠSe": 5270,
      "owing": 5271,
      "ĠIA": 5272,
      "veer": 5273,
      "Ġheads": 5274,
      "Free": 5275,
      "Nitish": 5276,
      "Tel": 5277,
      "UV": 5278,
      "xygen": 5279,
      "Ġtally": 5280,
      "alin": 5281,
      "rop": 5282,
      "Ġstore": 5283,
      "ivery": 5284,
      "Ġworries": 5285,
      "Ġdisapp": 5286,
      "Ġproperties": 5287,
      "Ġjourney": 5288,
      "Ġmeasures": 5289,
      "hot": 5290,
      "ĠIraq": 5291,
      "istry": 5292,
      "Ġchoice": 5293,
      "achh": 5294,
      "iban": 5295,
      "Ġinfra": 5296,
      "anja": 5297,
      "ĠSurvey": 5298,
      "Madras": 5299,
      "ĠBanerjee": 5300,
      "ham": 5301,
      "inam": 5302,
      "Ġcitizen": 5303,
      "Ġbans": 5304,
      "Ġhav": 5305,
      "olim": 5306,
      "Ġstun": 5307,
      "Ġbeaut": 5308,
      "Ġdeals": 5309,
      "ĠJoshi": 5310,
      "Ġlease": 5311,
      "Ġbrand": 5312,
      "Ġ2012": 5313,
      "Ġcommon": 5314,
      "Ġevening": 5315,
      "Ġvirus": 5316,
      "UT": 5317,
      "oop": 5318,
      "ĠNe": 5319,
      "ugu": 5320,
      "plom": 5321,
      "rithik": 5322,
      "Ġdepos": 5323,
      "Ġexpect": 5324,
      "adium": 5325,
      "phone": 5326,
      "Ġsilver": 5327,
      "Ġlabourers": 5328,
      "Ġadministration": 5329,
      "Ġunveils": 5330,
      "Ban": 5331,
      "North": 5332,
      "Ġcattle": 5333,
      "Ġdomestic": 5334,
      "Ġwelfare": 5335,
      "ĠMedical": 5336,
      "lean": 5337,
      "ĠRavi": 5338,
      "ĠTata": 5339,
      "allery": 5340,
      "ebi": 5341,
      "Ġpolling": 5342,
      "Ġplanned": 5343,
      "Ġprep": 5344,
      "Ġlosses": 5345,
      "Ġcancels": 5346,
      "Ġinclud": 5347,
      "idelines": 5348,
      "BT": 5349,
      "had": 5350,
      "lings": 5351,
      "tech": 5352,
      "isl": 5353,
      "Ġwhere": 5354,
      "ĠBand": 5355,
      "ĠBaj": 5356,
      "ĠIM": 5357,
      "Ġdiesel": 5358,
      "ĠChandr": 5359,
      "ĠXI": 5360,
      "Railway": 5361,
      "Ġapproves": 5362,
      "Ġwebsite": 5363,
      "Mamata": 5364,
      "Tax": 5365,
      "orry": 5366,
      "Ġhikes": 5367,
      "ĠMet": 5368,
      "Ġnom": 5369,
      "Ġthieves": 5370,
      "ugs": 5371,
      "Ġflout": 5372,
      "Ġabove": 5373,
      "Ġalways": 5374,
      "Ġsecy": 5375,
      "Ġsuspects": 5376,
      "Ġenvironment": 5377,
      "Ġviolation": 5378,
      "Ġurge": 5379,
      "Ġlevels": 5380,
      "ĠAyodhya": 5381,
      "Ġdemolition": 5382,
      "ĠRussia": 5383,
      "Garbage": 5384,
      "east": 5385,
      "wara": 5386,
      "Ġtable": 5387,
      "arth": 5388,
      "ĠIPS": 5389,
      "Ġcomeb": 5390,
      "ĠFl": 5391,
      "Ġslam": 5392,
      "Ġslips": 5393,
      "Ġpromise": 5394,
      "Ġeffect": 5395,
      "Ġperformance": 5396,
      "Ġholiday": 5397,
      "Susp": 5398,
      "Times": 5399,
      "yl": 5400,
      "ico": 5401,
      "ĠKhar": 5402,
      "ĠNir": 5403,
      "ashing": 5404,
      "heel": 5405,
      "Ġdrives": 5406,
      "epublic": 5407,
      "Ġprotection": 5408,
      "ĠUPA": 5409,
      "Art": 5410,
      "IIM": 5411,
      "Ġfishermen": 5412,
      "Ġtowards": 5413,
      "Ġcriminals": 5414,
      "She": 5415,
      "ker": 5416,
      "sy": 5417,
      "aters": 5418,
      "Ġpool": 5419,
      "Ġlay": 5420,
      "ĠDM": 5421,
      "ĠTMC": 5422,
      "ava": 5423,
      "inda": 5424,
      "pping": 5425,
      "Ġsym": 5426,
      "Ġalleg": 5427,
      "GH": 5428,
      "Old": 5429,
      "Reg": 5430,
      "ney": 5431,
      "wag": 5432,
      "Ġsens": 5433,
      "Ġinmates": 5434,
      "Ġrival": 5435,
      "ĠRai": 5436,
      "ĠDoc": 5437,
      "ĠJammu": 5438,
      "umbs": 5439,
      "Ġanim": 5440,
      "Ġfestive": 5441,
      "Ġmoment": 5442,
      "Ġdrowns": 5443,
      "Ġcorridor": 5444,
      "Ġsight": 5445,
      "Ġbids": 5446,
      "Ġmas": 5447,
      "unity": 5448,
      "utta": 5449,
      "state": 5450,
      "Ġkid": 5451,
      "ĠVen": 5452,
      "Ġ34": 5453,
      "Ġarrives": 5454,
      "Ġremark": 5455,
      "Ġturned": 5456,
      "Ġvacant": 5457,
      "uven": 5458,
      "Ġdeclared": 5459,
      "Ġbenefits": 5460,
      "ĠGanesh": 5461,
      "Ġdowry": 5462,
      "Ġcomeback": 5463,
      "Moh": 5464,
      "gent": 5465,
      "oos": 5466,
      "Ġund": 5467,
      "Ġerr": 5468,
      "Ġcin": 5469,
      "Ġachiev": 5470,
      "ĠSE": 5471,
      "achi": 5472,
      "ĠAbh": 5473,
      "ĠKam": 5474,
      "Ġtheatre": 5475,
      "Ġkh": 5476,
      "ĠLeft": 5477,
      "Ġrelax": 5478,
      "Ġ2011": 5479,
      "ucky": 5480,
      "eaders": 5481,
      "ĠWhy": 5482,
      "Ġtwe": 5483,
      "ĠCoimbatore": 5484,
      "Ġphotos": 5485,
      "Budget": 5486,
      "iting": 5487,
      "Ġliving": 5488,
      "ĠAC": 5489,
      "ĠAwards": 5490,
      "ĠGupta": 5491,
      "Ġagitation": 5492,
      "ressed": 5493,
      "Ġdraft": 5494,
      "Ġclosure": 5495,
      "Ġpresent": 5496,
      "Ed": 5497,
      "rum": 5498,
      "Ġten": 5499,
      "Ġdied": 5500,
      "adn": 5501,
      "ĠMohan": 5502,
      "Ġnat": 5503,
      "abl": 5504,
      "ĠGl": 5505,
      "Ġkg": 5506,
      "ĠLaw": 5507,
      "ĠFilm": 5508,
      "Ġbuys": 5509,
      "Ġcouncill": 5510,
      "Online": 5511,
      "Ġusers": 5512,
      "Ġopposes": 5513,
      "ĠMaoist": 5514,
      "payee": 5515,
      "BM": 5516,
      "Pass": 5517,
      "cing": 5518,
      "mark": 5519,
      "Ġcrem": 5520,
      "urday": 5521,
      "icate": 5522,
      "olation": 5523,
      "Ġstuck": 5524,
      "oti": 5525,
      "ĠKaran": 5526,
      "ulam": 5527,
      "ĠDutt": 5528,
      "uma": 5529,
      "alli": 5530,
      "ocr": 5531,
      "asha": 5532,
      "Ġ32": 5533,
      "arathi": 5534,
      "Black": 5535,
      "Villagers": 5536,
      "apatnam": 5537,
      "Hel": 5538,
      "Ġped": 5539,
      "Ġharm": 5540,
      "rape": 5541,
      "Ġkicks": 5542,
      "ĠWe": 5543,
      "issa": 5544,
      "Ġdisabled": 5545,
      "Ġexpansion": 5546,
      "adio": 5547,
      "Engine": 5548,
      "Ġlearning": 5549,
      "Ġmilitary": 5550,
      "Infosys": 5551,
      "ademy": 5552,
      "Aj": 5553,
      "Senior": 5554,
      "TR": 5555,
      "Ġforec": 5556,
      "Ġexhibition": 5557,
      "ĠFY": 5558,
      "Ġextension": 5559,
      "Ġhubby": 5560,
      "ĠChhattisgarh": 5561,
      "35": 5562,
      "Bur": 5563,
      "ĠKumb": 5564,
      "Ġchop": 5565,
      "Ġchann": 5566,
      "Ġagenda": 5567,
      "Ġaccounts": 5568,
      "ancing": 5569,
      "Ġtalent": 5570,
      "Ġrefund": 5571,
      "Ġallege": 5572,
      "Ġtemperature": 5573,
      "Ġattempts": 5574,
      "ĠCouncil": 5575,
      "'ve": 5576,
      "Oil": 5577,
      "Sachin": 5578,
      "gi": 5579,
      "ken": 5580,
      "Ġfog": 5581,
      "olt": 5582,
      "Ġstone": 5583,
      "plant": 5584,
      "alse": 5585,
      "Ġenth": 5586,
      "Ġmode": 5587,
      "Ġbuyers": 5588,
      "Ġrecruitment": 5589,
      "Ġvendors": 5590,
      "inated": 5591,
      "Ġho": 5592,
      "ayukta": 5593,
      "ĠDa": 5594,
      "Ġseize": 5595,
      "akhapatnam": 5596,
      "Ġneg": 5597,
      "Ġdisrup": 5598,
      "Ġrevive": 5599,
      "Ġstray": 5600,
      "Ġdefault": 5601,
      "Ġhanging": 5602,
      "Ġprogress": 5603,
      "Ġtechnology": 5604,
      "Ġschedule": 5605,
      "%;": 5606,
      "Did": 5607,
      "Terror": 5608,
      "Ġ0": 5609,
      "Ġsaves": 5610,
      "Ġmur": 5611,
      "ece": 5612,
      "ĠJust": 5613,
      "Ġplots": 5614,
      "ĠVadodara": 5615,
      "Ġwords": 5616,
      "Chh": 5617,
      "Ġassist": 5618,
      "Ġdocuments": 5619,
      "Ġpayment": 5620,
      "anji": 5621,
      "Ġannual": 5622,
      "Ġcauses": 5623,
      "Ġchargesheet": 5624,
      "Ġpoach": 5625,
      "Ġexplos": 5626,
      "Ġupset": 5627,
      "Ġsealed": 5628,
      "Ġproposes": 5629,
      "Ġreligious": 5630,
      "Medical": 5631,
      "hour": 5632,
      "alys": 5633,
      "Ġrice": 5634,
      "asons": 5635,
      "Ġchem": 5636,
      "ĠLalu": 5637,
      "ishek": 5638,
      "pert": 5639,
      "ĠRaja": 5640,
      "addy": 5641,
      "Ġpopular": 5642,
      "Jet": 5643,
      "deal": 5644,
      "inance": 5645,
      "alith": 5646,
      "Ġmaster": 5647,
      "rog": 5648,
      "Ġgif": 5649,
      "Ġgave": 5650,
      "ushar": 5651,
      "ĠDMK": 5652,
      "Ġexerc": 5653,
      "asters": 5654,
      "hana": 5655,
      "riculture": 5656,
      "ĠArjun": 5657,
      "Ġcrosses": 5658,
      "Ġbirds": 5659,
      "ehlot": 5660,
      "Citizens": 5661,
      "So": 5662,
      "nel": 5663,
      "ĠRel": 5664,
      "istic": 5665,
      "istani": 5666,
      "ensive": 5667,
      "Ġunf": 5668,
      "Ġcommit": 5669,
      "Experts": 5670,
      "Ġincome": 5671,
      "Ġcelebrated": 5672,
      "posal": 5673,
      "ufact": 5674,
      "Ac": 5675,
      "Tech": 5676,
      "Vid": 5677,
      "rant": 5678,
      "yer": 5679,
      "inary": 5680,
      "acle": 5681,
      "Ġrehab": 5682,
      "Ġki": 5683,
      "ĠJaitley": 5684,
      "Ġclimate": 5685,
      "Ġhealthy": 5686,
      "President": 5687,
      "Ġdrought": 5688,
      "Ġeco": 5689,
      "Ġsucc": 5690,
      "Ġlonger": 5691,
      "Ġkidnapped": 5692,
      "Ġneighbour": 5693,
      "adnavis": 5694,
      "Cash": 5695,
      "Out": 5696,
      "Pad": 5697,
      "wan": 5698,
      "eral": 5699,
      "Ġspec": 5700,
      "ulty": 5701,
      "ennis": 5702,
      "Ġskin": 5703,
      "ĠSuper": 5704,
      "Gurgaon": 5705,
      "Ġsewage": 5706,
      "Mo": 5707,
      "Russ": 5708,
      "like": 5709,
      "iny": 5710,
      "Ġrent": 5711,
      "ester": 5712,
      "ĠTra": 5713,
      "Ġrein": 5714,
      "Ġplaint": 5715,
      "ĠVaranasi": 5716,
      "Ġ36": 5717,
      "Ġparticip": 5718,
      "Ġbigger": 5719,
      "Ġbrothers": 5720,
      "Ġmodern": 5721,
      "Ġmigrants": 5722,
      "Ġfreedom": 5723,
      "Ġchaos": 5724,
      "BCCI": 5725,
      "Music": 5726,
      "NH": 5727,
      "Rem": 5728,
      "Time": 5729,
      "Ġtopp": 5730,
      "Ġairl": 5731,
      "ĠCWG": 5732,
      "Ġclar": 5733,
      "Ġblind": 5734,
      "ĠStreet": 5735,
      "Ġaffected": 5736,
      "Ġrealty": 5737,
      "Ġhotels": 5738,
      "Ġsugar": 5739,
      "Ġthrows": 5740,
      "Ġreopen": 5741,
      "OT": 5742,
      "craft": 5743,
      "roll": 5744,
      "Ġmant": 5745,
      "ĠSRK": 5746,
      "idhi": 5747,
      "ĠAIIMS": 5748,
      "ĠGovernment": 5749,
      "ĠHealth": 5750,
      "oking": 5751,
      "amsung": 5752,
      "Ġelectroc": 5753,
      "Ġgoods": 5754,
      "Ġsolve": 5755,
      "Ġemergency": 5756,
      "Ġstruggle": 5757,
      "Af": 5758,
      "BMP": 5759,
      "NE": 5760,
      "Panch": 5761,
      "ked": 5762,
      "log": 5763,
      "aming": 5764,
      "owda": 5765,
      "Ġreun": 5766,
      "Ġseen": 5767,
      "ankan": 5768,
      "Ġentr": 5769,
      "ĠMalik": 5770,
      "Ġ2021": 5771,
      "Ġdisease": 5772,
      "MR": 5773,
      "NBA": 5774,
      "Plea": 5775,
      "break": 5776,
      "Ġocc": 5777,
      "Ġhum": 5778,
      "ading": 5779,
      "Ġ37": 5780,
      "ĠRajkot": 5781,
      "Ġappointed": 5782,
      "Ġfeels": 5783,
      "Ġguidelines": 5784,
      "gao": 5785,
      "Ġsolution": 5786,
      "Ġadvis": 5787,
      "Ġfares": 5788,
      "Ġreplace": 5789,
      "Ġdegrees": 5790,
      "Murder": 5791,
      "eget": 5792,
      "Ġty": 5793,
      "Ġpicks": 5794,
      "Ġbat": 5795,
      "Ġrich": 5796,
      "Ġhair": 5797,
      "ĠSan": 5798,
      "ecks": 5799,
      "itya": 5800,
      "Ġagency": 5801,
      "ogue": 5802,
      "Ġdischar": 5803,
      "Ġbreath": 5804,
      "Ġpassport": 5805,
      "Ġstaffer": 5806,
      "ĠMadras": 5807,
      "Ġquarant": 5808,
      "Ġimportant": 5809,
      "Maoists": 5810,
      "Ġbase": 5811,
      "eding": 5812,
      "Ġgovern": 5813,
      "ĠSector": 5814,
      "ĠSMS": 5815,
      "ĠBel": 5816,
      "ĠPower": 5817,
      "ĠDC": 5818,
      "Ġdeep": 5819,
      "lying": 5820,
      "ipro": 5821,
      "Ġscene": 5822,
      "arkar": 5823,
      "Ġreduc": 5824,
      "Ġdiabet": 5825,
      "ddhav": 5826,
      "Ġpenalty": 5827,
      "Eight": 5828,
      "HU": 5829,
      "Thane": 5830,
      "Wor": 5831,
      "eers": 5832,
      "no": 5833,
      "ĠPil": 5834,
      "ĠRanchi": 5835,
      "ĠICC": 5836,
      "Ġbeef": 5837,
      "ĠHa": 5838,
      "acking": 5839,
      "ĠUT": 5840,
      "Ġaband": 5841,
      "Ġalone": 5842,
      "Ġguns": 5843,
      "Ġhalt": 5844,
      "Japan": 5845,
      "Ġhuge": 5846,
      "otic": 5847,
      "awada": 5848,
      "MCH": 5849,
      "Ġopt": 5850,
      "Bang": 5851,
      "Dep": 5852,
      "Fish": 5853,
      "Rest": 5854,
      "Sena": 5855,
      "Tiger": 5856,
      "ho": 5857,
      "ĠSy": 5858,
      "Ġconcl": 5859,
      "Ġcomb": 5860,
      "ajpayee": 5861,
      "riti": 5862,
      "rikar": 5863,
      "ickshaw": 5864,
      "Ġwaiting": 5865,
      "Doctor": 5866,
      "Ġpersonal": 5867,
      "ĠTeam": 5868,
      "alithaa": 5869,
      "Cart": 5870,
      "happy": 5871,
      "mail": 5872,
      "Ġtig": 5873,
      "Ġtied": 5874,
      "Ġast": 5875,
      "adia": 5876,
      "ĠBr": 5877,
      "ĠOld": 5878,
      "Ġmarry": 5879,
      "Ġexpected": 5880,
      "Ġaffect": 5881,
      "ĠSaturday": 5882,
      "ĠAgra": 5883,
      "Ġreceives": 5884,
      "Ġpipeline": 5885,
      "ependence": 5886,
      "Ġintroduc": 5887,
      "Ġhurdle": 5888,
      "And": 5889,
      "Amer": 5890,
      "Ma": 5891,
      "Mod": 5892,
      "kula": 5893,
      "eras": 5894,
      "Ġfan": 5895,
      "ĠRana": 5896,
      "estri": 5897,
      "aging": 5898,
      "Ġeve": 5899,
      "ĠNot": 5900,
      "ĠHai": 5901,
      "ĠVis": 5902,
      "Ġoption": 5903,
      "prene": 5904,
      "Ġterrorists": 5905,
      "ĠWhat": 5906,
      "ĠHindi": 5907,
      "Ġscreening": 5908,
      "Ġlarge": 5909,
      "Business": 5910,
      "Att": 5911,
      "Kar": 5912,
      "Ġfitness": 5913,
      "ĠSaw": 5914,
      "ĠSUV": 5915,
      "agn": 5916,
      "Ġscore": 5917,
      "Ġscholars": 5918,
      "Ġremove": 5919,
      "Ġdefeat": 5920,
      "otton": 5921,
      "Ġchanged": 5922,
      "Ġinstall": 5923,
      "Ġburning": 5924,
      "Ġexecutive": 5925,
      "Ġgutted": 5926,
      "If": 5927,
      "bn": 5928,
      "Ġovers": 5929,
      "ĠSid": 5930,
      "ĠID": 5931,
      "ĠTues": 5932,
      "Ġcracks": 5933,
      "eshwar": 5934,
      "Ġdisplay": 5935,
      "Ġcoronavirus": 5936,
      "Speed": 5937,
      "Ġskills": 5938,
      "Ġreserves": 5939,
      "Apple": 5940,
      "ĠMohali": 5941,
      "Ġcerem": 5942,
      "Dig": 5943,
      "Left": 5944,
      "VP": 5945,
      "hlet": 5946,
      "itra": 5947,
      "Ġaim": 5948,
      "ĠRat": 5949,
      "Ġep": 5950,
      "Exp": 5951,
      "Ġdivor": 5952,
      "Ġchallenges": 5953,
      "Ġhunger": 5954,
      "ĠFestival": 5955,
      "usharraf": 5956,
      "75": 5957,
      "Che": 5958,
      "MT": 5959,
      "VM": 5960,
      "Ġdil": 5961,
      "Ġoxygen": 5962,
      "Ġgen": 5963,
      "Ġgames": 5964,
      "aked": 5965,
      "Ġ44": 5966,
      "Ġ400": 5967,
      "Ġimage": 5968,
      "They": 5969,
      "Ġstruct": 5970,
      "Ġenv": 5971,
      "Ġsky": 5972,
      "LF": 5973,
      "yond": 5974,
      "inter": 5975,
      "Ġtot": 5976,
      "irs": 5977,
      "ĠMen": 5978,
      "ĠPa": 5979,
      "thing": 5980,
      "uda": 5981,
      "ĠHIV": 5982,
      "Ġworkshop": 5983,
      "Ġcanal": 5984,
      "heri": 5985,
      "Ġcommerc": 5986,
      "Ġurged": 5987,
      "Ġrebels": 5988,
      "Ġlooted": 5989,
      "Ġstrategy": 5990,
      "bound": 5991,
      "Ġcame": 5992,
      "Ġrop": 5993,
      "Ġmang": 5994,
      "Ġhaw": 5995,
      "Ġhosts": 5996,
      "acco": 5997,
      "iruv": 5998,
      "Ġbeyond": 5999,
      "ĠFC": 6000,
      "ĠWith": 6001,
      "ousands": 6002,
      "Ġminutes": 6003,
      "Ang": 6004,
      "Ġdiplom": 6005,
      "Ġaudience": 6006,
      "Ġambul": 6007,
      "Ġinnov": 6008,
      "Ġtransferred": 6009,
      "Ġpregnant": 6010,
      "Dhar": 6011,
      "Give": 6012,
      "Love": 6013,
      "OU": 6014,
      "turn": 6015,
      "Ġcook": 6016,
      "ĠSum": 6017,
      "Ġdeploy": 6018,
      "hani": 6019,
      "Ġabroad": 6020,
      "Ġbuilder": 6021,
      "Ġshowc": 6022,
      "Ġevidence": 6023,
      "Ġdelivery": 6024,
      "lier": 6025,
      "ĠTrans": 6026,
      "ĠAjmer": 6027,
      "Ġcollapses": 6028,
      "Ġlimit": 6029,
      "Ġabducted": 6030,
      "IE": 6031,
      "Life": 6032,
      "lal": 6033,
      "Ġsar": 6034,
      "ench": 6035,
      "alpur": 6036,
      "Ġax": 6037,
      "Ġdiss": 6038,
      "illing": 6039,
      "ĠNath": 6040,
      "ĠToday": 6041,
      "Ġvax": 6042,
      "thy": 6043,
      "Ġago": 6044,
      "ĠEk": 6045,
      "Ġcannot": 6046,
      "Ġtea": 6047,
      "Ġbrought": 6048,
      "Ġquarter": 6049,
      "ĠAkhilesh": 6050,
      "Ġseveral": 6051,
      "Ġshelter": 6052,
      "Foreign": 6053,
      "Ġvari": 6054,
      "ĠGold": 6055,
      "Ġextend": 6056,
      "Ġsummit": 6057,
      "Ġexpert": 6058,
      "Ġreceive": 6059,
      "Ġwarning": 6060,
      "OR": 6061,
      "cel": 6062,
      "ground": 6063,
      "kumar": 6064,
      "oil": 6065,
      "Ġtre": 6066,
      "Ġwest": 6067,
      "etic": 6068,
      "ĠTiger": 6069,
      "star": 6070,
      "Ġblow": 6071,
      "Ġwinning": 6072,
      "Ġjailed": 6073,
      "Ġfourth": 6074,
      "Ġirks": 6075,
      "Ġcertificate": 6076,
      "Ġinformation": 6077,
      "Bal": 6078,
      "RP": 6079,
      "nan": 6080,
      "Ġpending": 6081,
      "itivity": 6082,
      "Ġband": 6083,
      "Ġbikes": 6084,
      "Ġmight": 6085,
      "Ġlights": 6086,
      "erson": 6087,
      "ceed": 6088,
      "que": 6089,
      "ĠFrench": 6090,
      "ĠOf": 6091,
      "Ġcoup": 6092,
      "Ġscra": 6093,
      "Ġ55": 6094,
      "Ġblocks": 6095,
      "Ġinvolved": 6096,
      "Ġopened": 6097,
      "ravid": 6098,
      "Ġrobbers": 6099,
      "Smart": 6100,
      "Ġinstitute": 6101,
      "ĠTuesday": 6102,
      "Pal": 6103,
      "makers": 6104,
      "Ġtechie": 6105,
      "Ġwear": 6106,
      "Ġganja": 6107,
      "rael": 6108,
      "agement": 6109,
      "odd": 6110,
      "Ġyoga": 6111,
      "ĠLudhiana": 6112,
      "Ġfinish": 6113,
      "Ġinjuries": 6114,
      "Ġsexually": 6115,
      "ĠPatil": 6116,
      "Ġwrite": 6117,
      "Supreme": 6118,
      "ĠMoU": 6119,
      "ĠGadkari": 6120,
      "Ir": 6121,
      "lands": 6122,
      "Ġhi": 6123,
      "ĠSom": 6124,
      "level": 6125,
      "ĠBudd": 6126,
      "ĠKat": 6127,
      "ĠKolhapur": 6128,
      "allies": 6129,
      "ĠChidambaram": 6130,
      "Ġclin": 6131,
      "Ġconsult": 6132,
      "phones": 6133,
      "ittal": 6134,
      "Ġbabus": 6135,
      "ĠKalyan": 6136,
      "Ġsuffers": 6137,
      "Ġdoubles": 6138,
      "Ġcommercial": 6139,
      "Body": 6140,
      "auty": 6141,
      "lock": 6142,
      "Ġpace": 6143,
      "Ġdial": 6144,
      "ĠDalit": 6145,
      "ĠGaya": 6146,
      "Ġkept": 6147,
      "Ġarch": 6148,
      "Ġtraff": 6149,
      "Ġindustries": 6150,
      "Ġflying": 6151,
      "Activists": 6152,
      "Ġrenew": 6153,
      "Global": 6154,
      "Ġpeaceful": 6155,
      "Obama": 6156,
      "br": 6157,
      "dr": 6158,
      "onk": 6159,
      "oly": 6160,
      "ĠCont": 6161,
      "irector": 6162,
      "Ġthink": 6163,
      "ĠKish": 6164,
      "ĠUp": 6165,
      "Ġagencies": 6166,
      "inde": 6167,
      "Ġrevival": 6168,
      "Ġfinance": 6169,
      "Ġgradu": 6170,
      "Ġpleas": 6171,
      "ĠNGO": 6172,
      "Ġprofessor": 6173,
      "GA": 6174,
      "RA": 6175,
      "Ġfaith": 6176,
      "Ġbra": 6177,
      "Ġboun": 6178,
      "Ġaver": 6179,
      "Ġrly": 6180,
      "ĠMD": 6181,
      "abb": 6182,
      "Ġvent": 6183,
      "ĠJain": 6184,
      "ĠEd": 6185,
      "Ġattract": 6186,
      "Ġcontain": 6187,
      "Ġguards": 6188,
      "ĠThree": 6189,
      "bedkar": 6190,
      "ĠXII": 6191,
      "minute": 6192,
      "odhpur": 6193,
      "Ġlargest": 6194,
      "Ġliter": 6195,
      "Ġaccep": 6196,
      "Ġsurvivor": 6197,
      "Ġcontroversy": 6198,
      "ĠDubai": 6199,
      "Ġanimals": 6200,
      "Ġentrance": 6201,
      "Call": 6202,
      "WA": 6203,
      "Ġtort": 6204,
      "Ġfate": 6205,
      "Ġpump": 6206,
      "Ġbon": 6207,
      "Ġaf": 6208,
      "icha": 6209,
      "adra": 6210,
      "Ġonce": 6211,
      "raped": 6212,
      "ĠDiv": 6213,
      "ĠNaxal": 6214,
      "Ġpled": 6215,
      "ĠVish": 6216,
      "ĠChow": 6217,
      "Ġdrinking": 6218,
      "Ġattach": 6219,
      "Chinese": 6220,
      "Ġaltern": 6221,
      "Union": 6222,
      "Ġapolog": 6223,
      "Ġspotted": 6224,
      "Ġpersonnel": 6225,
      "Ġmartyr": 6226,
      "Tour": 6227,
      "There": 6228,
      "house": 6229,
      "Ġfit": 6230,
      "Ġmist": 6231,
      "Ġlad": 6232,
      "agging": 6233,
      "ĠNCR": 6234,
      "Ġexports": 6235,
      "ĠFDI": 6236,
      "Ġsuit": 6237,
      "ĠInstitute": 6238,
      "Ġthanks": 6239,
      "Ġviolations": 6240,
      "Ġfootpath": 6241,
      "ĠIslam": 6242,
      "Ġflees": 6243,
      "auvery": 6244,
      "Ġmusical": 6245,
      "Ġpandemic": 6246,
      "300": 6247,
      "Akshay": 6248,
      "Dead": 6249,
      "Kids": 6250,
      "Open": 6251,
      "hai": 6252,
      "ject": 6253,
      "Ġlays": 6254,
      "ĠSIT": 6255,
      "akar": 6256,
      "ĠAc": 6257,
      "ĠBritish": 6258,
      "Ġbeauty": 6259,
      "ĠJaya": 6260,
      "atha": 6261,
      "Ġcler": 6262,
      "Ġunivers": 6263,
      "Ġdisaster": 6264,
      "Ġelected": 6265,
      "Ġdefends": 6266,
      "Ġstatue": 6267,
      "Ġdiamond": 6268,
      "Ġassaulted": 6269,
      "Election": 6270,
      "Ġsemis": 6271,
      "Ġanswer": 6272,
      "Ġpackage": 6273,
      "Opposition": 6274,
      "Kochi": 6275,
      "Ġcinema": 6276,
      "ocracy": 6277,
      "Ġmurders": 6278,
      "Ġceremony": 6279,
      "DU": 6280,
      "Sania": 6281,
      "ias": 6282,
      "wide": 6283,
      "Ġcow": 6284,
      "Ġdose": 6285,
      "Ġmuseum": 6286,
      "Ġhire": 6287,
      "ĠShankar": 6288,
      "illa": 6289,
      "ĠGe": 6290,
      "Ġyatra": 6291,
      "Ġchamp": 6292,
      "Ġspect": 6293,
      "atters": 6294,
      "rolog": 6295,
      "Ġautos": 6296,
      "Ġcondition": 6297,
      "Ġlinked": 6298,
      "Ġmolesting": 6299,
      "ĠBadal": 6300,
      "Ġlanguage": 6301,
      "College": 6302,
      "rong": 6303,
      "tual": 6304,
      "Ġwish": 6305,
      "Ġhots": 6306,
      "Ġhoard": 6307,
      "ĠMeg": 6308,
      "ĠMulayam": 6309,
      "ĠPer": 6310,
      "ĠRS": 6311,
      "aval": 6312,
      "cept": 6313,
      "Ġshine": 6314,
      "Ġcho": 6315,
      "Ġchit": 6316,
      "ĠFour": 6317,
      "Ġleast": 6318,
      "Ġtruth": 6319,
      "Ġoutl": 6320,
      "ĠOpp": 6321,
      "Star": 6322,
      "Ġbuying": 6323,
      "Arun": 6324,
      "Ġcomplain": 6325,
      "Ġdonation": 6326,
      "Ġrestaur": 6327,
      "Ġprofession": 6328,
      "Ġpushes": 6329,
      "Ġproposed": 6330,
      "Ġmerger": 6331,
      "Ġcaptain": 6332,
      "Ġcounselling": 6333,
      "VC": 6334,
      "Where": 6335,
      "Ġbased": 6336,
      "ĠTRS": 6337,
      "ĠTechn": 6338,
      "ighter": 6339,
      "Ġash": 6340,
      "ifest": 6341,
      "ĠFadnavis": 6342,
      "Ġraps": 6343,
      "ĠThak": 6344,
      "Ġoperation": 6345,
      "Madurai": 6346,
      "Ġtrailer": 6347,
      "Ġdiseases": 6348,
      "Ġunlikely": 6349,
      "Lack": 6350,
      "Mother": 6351,
      "SH": 6352,
      "gar": 6353,
      "Ġfig": 6354,
      "Ġrocks": 6355,
      "uting": 6356,
      "oming": 6357,
      "akhi": 6358,
      "ocate": 6359,
      "aths": 6360,
      "ipe": 6361,
      "Ġplane": 6362,
      "Trump": 6363,
      "ottest": 6364,
      "Ġcoaches": 6365,
      "Teacher": 6366,
      "Ġwaiver": 6367,
      "Ay": 6368,
      "Hous": 6369,
      "NDA": 6370,
      "Pics": 6371,
      "Ġdiver": 6372,
      "ĠMiss": 6373,
      "ĠDig": 6374,
      "abu": 6375,
      "ĠTej": 6376,
      "Ġexchange": 6377,
      "Indore": 6378,
      "Ġslip": 6379,
      "Ġassures": 6380,
      "Ġboat": 6381,
      "Ġmakeover": 6382,
      "Train": 6383,
      "Ġknot": 6384,
      "Ġwitnesses": 6385,
      "IFA": 6386,
      "Ġmorning": 6387,
      "90": 6388,
      "uter": 6389,
      "ĠGen": 6390,
      "Ġbear": 6391,
      "ĠJun": 6392,
      "Ġconstit": 6393,
      "umber": 6394,
      "Ġque": 6395,
      "Ġoptions": 6396,
      "Ġfines": 6397,
      "Ġmedal": 6398,
      "Ġhealthcare": 6399,
      "Ġapart": 6400,
      "eerut": 6401,
      "Ġcolour": 6402,
      "uzz": 6403,
      "uzaff": 6404,
      "Ġsteals": 6405,
      "ĠVidarbha": 6406,
      "Ġauthorities": 6407,
      "Cal": 6408,
      "kal": 6409,
      "Ġpc": 6410,
      "Ġpoth": 6411,
      "urb": 6412,
      "Ġhail": 6413,
      "Ġlovers": 6414,
      "reens": 6415,
      "ĠDesh": 6416,
      "Ġproof": 6417,
      "hara": 6418,
      "ĠOver": 6419,
      "Ġparks": 6420,
      "Ġrestric": 6421,
      "Ġsignal": 6422,
      "Ġdamaged": 6423,
      "Ġinternet": 6424,
      "Ġconnection": 6425,
      "Ġremoval": 6426,
      "Ġrelationship": 6427,
      "Ġprincipal": 6428,
      "Ġsamples": 6429,
      "Sush": 6430,
      "aish": 6431,
      "win": 6432,
      "Ġship": 6433,
      "Ġdin": 6434,
      "ilip": 6435,
      "ĠCO": 6436,
      "ĠJam": 6437,
      "Ġacting": 6438,
      "ĠVer": 6439,
      "ĠWeek": 6440,
      "eve": 6441,
      "ĠYatra": 6442,
      "ĠYamuna": 6443,
      "Ġactivities": 6444,
      "Ġexperience": 6445,
      "Corpor": 6446,
      "uxury": 6447,
      "Her": 6448,
      "PCB": 6449,
      "jan": 6450,
      "eta": 6451,
      "ĠNC": 6452,
      "harth": 6453,
      "Ġjawan": 6454,
      "Ġovert": 6455,
      "ĠRajya": 6456,
      "Ġvoter": 6457,
      "Ġvisitors": 6458,
      "Ġpolicemen": 6459,
      "Ġearth": 6460,
      "Ġconvicted": 6461,
      "Himachal": 6462,
      "Imp": 6463,
      "LT": 6464,
      "Nepal": 6465,
      "Rare": 6466,
      "gic": 6467,
      "gies": 6468,
      "hir": 6469,
      "Ġhints": 6470,
      "ĠIGI": 6471,
      "ĠJohn": 6472,
      "Ġhelpline": 6473,
      "Ġfunding": 6474,
      "Ġgrab": 6475,
      "Ġlegisl": 6476,
      "Ġconcerns": 6477,
      "Ġtrigger": 6478,
      "Traders": 6479,
      "Camp": 6480,
      "Take": 6481,
      "pm": 6482,
      "yap": 6483,
      "Ġult": 6484,
      "Ġsaved": 6485,
      "arpur": 6486,
      "Ġpurch": 6487,
      "ayi": 6488,
      "ĠPort": 6489,
      "Ġvalu": 6490,
      "Ġminors": 6491,
      "arshan": 6492,
      "Ġcelebs": 6493,
      "Ġzero": 6494,
      "ursday": 6495,
      "Ġbench": 6496,
      "Ġdeclares": 6497,
      "Ġtemples": 6498,
      "Ġtoilets": 6499,
      "ishwarya": 6500,
      "Book": 6501,
      "BBS": 6502,
      "Nine": 6503,
      "bad": 6504,
      "Ġbed": 6505,
      "Ġment": 6506,
      "inger": 6507,
      "Ġgone": 6508,
      "ĠPe": 6509,
      "ĠReg": 6510,
      "ĠFM": 6511,
      "ikanth": 6512,
      "Ġmanufact": 6513,
      "beat": 6514,
      "Ġplayer": 6515,
      "Ġcelebration": 6516,
      "ological": 6517,
      "Ġkidnap": 6518,
      "Ġcommunal": 6519,
      "inamool": 6520,
      "Facebook": 6521,
      "ju": 6522,
      "aro": 6523,
      "araj": 6524,
      "Ġfemale": 6525,
      "Ġmaid": 6526,
      "Ġwent": 6527,
      "ĠAv": 6528,
      "eman": 6529,
      "ags": 6530,
      "ĠDU": 6531,
      "ĠGehlot": 6532,
      "Ġconstruc": 6533,
      "Ġwors": 6534,
      "Ġ38": 6535,
      "perty": 6536,
      "Ġalarm": 6537,
      "Ġfeet": 6538,
      "Ġweap": 6539,
      "Ġconservation": 6540,
      "Ġgolden": 6541,
      "Enc": 6542,
      "Ġthrashed": 6543,
      "Ġkidnapping": 6544,
      "Ġefforts": 6545,
      "Ġjunior": 6546,
      "iate": 6547,
      "nbs": 6548,
      "yas": 6549,
      "Ġtemp": 6550,
      "Ġcart": 6551,
      "Ġrage": 6552,
      "Ġthief": 6553,
      "ĠKart": 6554,
      "Ġreally": 6555,
      "ĠGreater": 6556,
      "Ġopport": 6557,
      "Ġactors": 6558,
      "Ġvision": 6559,
      "Ġphys": 6560,
      "halaya": 6561,
      "Ġmachines": 6562,
      "Ġpossible": 6563,
      "Ġterms": 6564,
      "ĠAfghanistan": 6565,
      "Ġplatform": 6566,
      "Ġstructures": 6567,
      "DM": 6568,
      "Sri": 6569,
      "TMC": 6570,
      "Ġwalks": 6571,
      "anding": 6572,
      "ĠAIADMK": 6573,
      "reed": 6574,
      "ĠRos": 6575,
      "ression": 6576,
      "Ġarrive": 6577,
      "axals": 6578,
      "actors": 6579,
      "Ġ2010": 6580,
      "ĠQu": 6581,
      "Team": 6582,
      "Ġassaulting": 6583,
      "ĠMaha": 6584,
      "regular": 6585,
      "Ġflags": 6586,
      "ĠCanada": 6587,
      "ĠChampionship": 6588,
      "Ġsettle": 6589,
      "Ġsurrenders": 6590,
      "Muslim": 6591,
      "Ġincluding": 6592,
      "Av": 6593,
      "Bro": 6594,
      "Tal": 6595,
      "pin": 6596,
      "wheel": 6597,
      "oric": 6598,
      "Ġresolve": 6599,
      "Ġmeal": 6600,
      "Ġflow": 6601,
      "Ġtrav": 6602,
      "Ġpartners": 6603,
      "ĠSteel": 6604,
      "ĠAmr": 6605,
      "Ġcollision": 6606,
      "ĠMayawati": 6607,
      "Ġrespite": 6608,
      "Drunk": 6609,
      "Ġacquitted": 6610,
      "Ġengineers": 6611,
      "Ġpilot": 6612,
      "Ġmolestation": 6613,
      "Ġdumping": 6614,
      "Ġjournal": 6615,
      "Ġcameras": 6616,
      "Ġhacked": 6617,
      "Ġgh": 6618,
      "Ġgap": 6619,
      "ĠNavi": 6620,
      "Ġjaw": 6621,
      "Ġacid": 6622,
      "Indians": 6623,
      "ushka": 6624,
      "Ġconsider": 6625,
      "Ġpopulation": 6626,
      "ĠOlympic": 6627,
      "ĠCAG": 6628,
      "Officials": 6629,
      "ĠApple": 6630,
      "Ġconfirms": 6631,
      "Ġadjour": 6632,
      "Ġbooths": 6633,
      "Ġdivorce": 6634,
      "'re": 6635,
      "maker": 6636,
      "Ġdust": 6637,
      "Ġrallies": 6638,
      "ĠMc": 6639,
      "ĠAurangabad": 6640,
      "ĠPrem": 6641,
      "ĠTop": 6642,
      "udes": 6643,
      "ĠHP": 6644,
      "Ġchill": 6645,
      "Ġtrend": 6646,
      "ampnbs": 6647,
      "ĠYouth": 6648,
      "afia": 6649,
      "Ġstopped": 6650,
      "Ġcycle": 6651,
      "Coimbatore": 6652,
      "Ġreservation": 6653,
      "Ġapproval": 6654,
      "ĠNGT": 6655,
      "Ġselection": 6656,
      "ĠDurga": 6657,
      "45": 6658,
      "Col": 6659,
      "ought": 6660,
      "Ġstick": 6661,
      "ĠBus": 6662,
      "ĠRepublic": 6663,
      "ĠKing": 6664,
      "Ġresigns": 6665,
      "ĠOffic": 6666,
      "Ġalmost": 6667,
      "Ġpremi": 6668,
      "Ġsuspension": 6669,
      "Ġguide": 6670,
      "Ġtribals": 6671,
      "Ġrolls": 6672,
      "Ġregistered": 6673,
      "Ġsoftware": 6674,
      "Ġcoastal": 6675,
      "Ġprepare": 6676,
      "Ġexercise": 6677,
      "Ġelectrocuted": 6678,
      "AMC": 6679,
      "Sr": 6680,
      "Sum": 6681,
      "oz": 6682,
      "Ġfalse": 6683,
      "ede": 6684,
      "Ġha": 6685,
      "ĠCr": 6686,
      "ĠMarathi": 6687,
      "abour": 6688,
      "Ġprove": 6689,
      "Ġyield": 6690,
      "Ġplun": 6691,
      "ĠOm": 6692,
      "Ġmega": 6693,
      "ĠUnited": 6694,
      "Ġcharged": 6695,
      "Ġswitch": 6696,
      "Ġincident": 6697,
      "ĠAssociation": 6698,
      "Ġkidney": 6699,
      "Ġdevotees": 6700,
      "ĠPanaji": 6701,
      "Cycl": 6702,
      "Ġenvoy": 6703,
      "400": 6704,
      "God": 6705,
      "Some": 6706,
      "Video": 6707,
      "ially": 6708,
      "rec": 6709,
      "ori": 6710,
      "Ġpuja": 6711,
      "Ġber": 6712,
      "ĠChief": 6713,
      "Ġsteel": 6714,
      "ĠBi": 6715,
      "ĠNow": 6716,
      "ĠJagan": 6717,
      "ivek": 6718,
      "Ġscrap": 6719,
      "Ġimpr": 6720,
      "ĠRajnath": 6721,
      "Ġfaculty": 6722,
      "Ġtwin": 6723,
      "Ġsinger": 6724,
      "ĠKalam": 6725,
      "Ġwithdra": 6726,
      "Ġequip": 6727,
      "Ġcertificates": 6728,
      "ĠHazare": 6729,
      "District": 6730,
      "ĠNehru": 6731,
      "Jewell": 6732,
      "NIT": 6733,
      "Sanjay": 6734,
      "gate": 6735,
      "long": 6736,
      "panch": 6737,
      "point": 6738,
      "rets": 6739,
      "uing": 6740,
      "vy": 6741,
      "esha": 6742,
      "Ġpup": 6743,
      "Ġhrs": 6744,
      "Ġhiring": 6745,
      "ĠCJ": 6746,
      "Ġstands": 6747,
      "ĠAamir": 6748,
      "ĠBrit": 6749,
      "ĠKas": 6750,
      "ĠTour": 6751,
      "Ġproc": 6752,
      "Ġprosec": 6753,
      "Ġtrucks": 6754,
      "ĠWed": 6755,
      "azon": 6756,
      "ĠThursday": 6757,
      "Ġbuilders": 6758,
      "Ġserve": 6759,
      "NGO": 6760,
      "vention": 6761,
      "holds": 6762,
      "Mobile": 6763,
      "Ġgifts": 6764,
      "ampnbsp": 6765,
      "Governor": 6766,
      "HE": 6767,
      "auc": 6768,
      "mumbai": 6769,
      "rigation": 6770,
      "yar": 6771,
      "Ġfights": 6772,
      "enance": 6773,
      "Ġrans": 6774,
      "Ġmatter": 6775,
      "urd": 6776,
      "Ġhab": 6777,
      "Ġhall": 6778,
      "Ġgather": 6779,
      "ĠCS": 6780,
      "ĠACB": 6781,
      "ĠAward": 6782,
      "oster": 6783,
      "ĠKamal": 6784,
      "Ġkiss": 6785,
      "ĠHollywood": 6786,
      "ackers": 6787,
      "Ġremand": 6788,
      "Ġfray": 6789,
      "Exclusive": 6790,
      "Ġemot": 6791,
      "Ġfighting": 6792,
      "aviour": 6793,
      "Engl": 6794,
      "Ġreviews": 6795,
      "Ġescapes": 6796,
      "Flood": 6797,
      "Ġapplications": 6798,
      "Ġresignation": 6799,
      "Ġfatal": 6800,
      "Vadodara": 6801,
      "iant": 6802,
      "arg": 6803,
      "ato": 6804,
      "etan": 6805,
      "Ġlibr": 6806,
      "irement": 6807,
      "ĠNRI": 6808,
      "apy": 6809,
      "avid": 6810,
      "Ġji": 6811,
      "ĠLo": 6812,
      "Ġscri": 6813,
      "Ġcontempt": 6814,
      "Ġ65": 6815,
      "Ġdecline": 6816,
      "Ġhelping": 6817,
      "Ġcorp": 6818,
      "Ġmisses": 6819,
      "Advani": 6820,
      "Burgl": 6821,
      "Abh": 6822,
      "Every": 6823,
      "power": 6824,
      "racts": 6825,
      "erate": 6826,
      "Ġpowers": 6827,
      "ĠRagh": 6828,
      "Ġveg": 6829,
      "Ġreasons": 6830,
      "ĠGreen": 6831,
      "iked": 6832,
      "eves": 6833,
      "Ġamend": 6834,
      "Ġapply": 6835,
      "Ġlooms": 6836,
      "Ġdupes": 6837,
      "Ġsongs": 6838,
      "Ġwelcomes": 6839,
      "Accused": 6840,
      "ING": 6841,
      "PIL": 6842,
      "come": 6843,
      "son": 6844,
      "Ġpill": 6845,
      "Ġmakers": 6846,
      "ĠPur": 6847,
      "ĠDeepika": 6848,
      "ĠTDP": 6849,
      "ooja": 6850,
      "Ġ43": 6851,
      "Ġnearly": 6852,
      "Ġpassenger": 6853,
      "Ġrefuse": 6854,
      "Ġsoar": 6855,
      "Ġphoto": 6856,
      "Ġaccept": 6857,
      "Ġallegations": 6858,
      "preneurs": 6859,
      "Aamir": 6860,
      "BSP": 6861,
      "wari": 6862,
      "Ġut": 6863,
      "Ġentre": 6864,
      "itude": 6865,
      "roid": 6866,
      "ĠServ": 6867,
      "ules": 6868,
      "ources": 6869,
      "ĠFort": 6870,
      "ĠCheck": 6871,
      "Ġassess": 6872,
      "Ġfoundation": 6873,
      "affron": 6874,
      "ĠAnt": 6875,
      "ĠAnil": 6876,
      "Ġgrant": 6877,
      "eena": 6878,
      "Ġruling": 6879,
      "Leopard": 6880,
      "Actor": 6881,
      "Second": 6882,
      "Ġcolon": 6883,
      "Photog": 6884,
      "Ġokays": 6885,
      "Dengue": 6886,
      "Fir": 6887,
      "Happy": 6888,
      "IO": 6889,
      "Low": 6890,
      "Ġtor": 6891,
      "Ġcultural": 6892,
      "Ġpond": 6893,
      "Ġpose": 6894,
      "enty": 6895,
      "ĠSSC": 6896,
      "acter": 6897,
      "ĠBa": 6898,
      "ĠBah": 6899,
      "rew": 6900,
      "ĠDhawan": 6901,
      "eart": 6902,
      "Ġcrimes": 6903,
      "Ġspike": 6904,
      "ishing": 6905,
      "Ġcloses": 6906,
      "Ġquizz": 6907,
      "atta": 6908,
      "uke": 6909,
      "Ġincidents": 6910,
      "arbh": 6911,
      "RTS": 6912,
      "Ġcyl": 6913,
      "iscal": 6914,
      "TOI": 6915,
      "Ġidols": 6916,
      "Ġcompetition": 6917,
      "84": 6918,
      "John": 6919,
      "Keep": 6920,
      "NRI": 6921,
      "Rape": 6922,
      "conom": 6923,
      "Ġ.": 6924,
      "Ġbeds": 6925,
      "ilpa": 6926,
      "ĠMore": 6927,
      "ĠAut": 6928,
      "ĠAadhaar": 6929,
      "ĠNavy": 6930,
      "Ġvice": 6931,
      "Ġchurch": 6932,
      "ĠLord": 6933,
      "ĠVarun": 6934,
      "Ġquarters": 6935,
      "asekhar": 6936,
      "actor": 6937,
      "Ġaircraft": 6938,
      "Ġtwice": 6939,
      "Ġharvest": 6940,
      "Ġlifts": 6941,
      "nesday": 6942,
      "OP": 6943,
      "Social": 6944,
      "coh": 6945,
      "iences": 6946,
      "keep": 6947,
      "ny": 6948,
      "Ġwhip": 6949,
      "ĠAfter": 6950,
      "ĠPMC": 6951,
      "ainted": 6952,
      "Ġrepr": 6953,
      "itha": 6954,
      "Ġunear": 6955,
      "angaluru": 6956,
      "Ġwriter": 6957,
      "Ġdiet": 6958,
      "iffic": 6959,
      "RSS": 6960,
      "Ġidentify": 6961,
      "Ġidentified": 6962,
      "Ġtouches": 6963,
      "Ġpostponed": 6964,
      "certain": 6965,
      "Under": 6966,
      "Ġpremises": 6967,
      "Ġsubsidy": 6968,
      "Ġdiabetes": 6969,
      "Cartoons": 6970,
      "Deb": 6971,
      "Major": 6972,
      "aults": 6973,
      "Ġfram": 6974,
      "itz": 6975,
      "Ġhy": 6976,
      "elift": 6977,
      "ĠMath": 6978,
      "igration": 6979,
      "ĠPath": 6980,
      "ĠRI": 6981,
      "ĠKe": 6982,
      "uli": 6983,
      "ully": 6984,
      "ĠTripura": 6985,
      "avit": 6986,
      "ĠJal": 6987,
      "Ġtrue": 6988,
      "ishra": 6989,
      "Ġrecogn": 6990,
      "uckus": 6991,
      "ukone": 6992,
      "Ġinjury": 6993,
      "SEB": 6994,
      "Ġsupporters": 6995,
      "Farmer": 6996,
      "Ġobserv": 6997,
      "AU": 6998,
      "cement": 6999,
      "tel": 7000,
      "Ġsun": 7001,
      "Ġfel": 7002,
      "itin": 7003,
      "ĠSukh": 7004,
      "ĠRah": 7005,
      "raine": 7006,
      "ĠDw": 7007,
      "Ġagent": 7008,
      "elligence": 7009,
      "ĠChall": 7010,
      "Ġrecomm": 7011,
      "Ġcalling": 7012,
      "Shr": 7013,
      "Ġterrorism": 7014,
      "NGC": 7015,
      "Ġcloser": 7016,
      "Ġinspector": 7017,
      "andalwood": 7018,
      "Ġnegligence": 7019,
      "Amitabh": 7020,
      "Ġrumours": 7021,
      "iruvan": 7022,
      "Dal": 7023,
      "German": 7024,
      "Kidn": 7025,
      "Mot": 7026,
      "Microsoft": 7027,
      "Park": 7028,
      "gu": 7029,
      "inikanth": 7030,
      "Ġtender": 7031,
      "ano": 7032,
      "Ġdivers": 7033,
      "Ġwishes": 7034,
      "ĠAcc": 7035,
      "ulk": 7036,
      "imary": 7037,
      "ectric": 7038,
      "iform": 7039,
      "ĠLG": 7040,
      "ĠVizag": 7041,
      "Ġtrap": 7042,
      "Ġwhite": 7043,
      "Ġcommand": 7044,
      "Ġappe": 7045,
      "Ġrapes": 7046,
      "Ġbound": 7047,
      "Ġevac": 7048,
      "Ġposes": 7049,
      "uvraj": 7050,
      "Ġlowest": 7051,
      "eneral": 7052,
      "Crim": 7053,
      "Small": 7054,
      "Ġcontractor": 7055,
      "Build": 7056,
      "CS": 7057,
      "ES": 7058,
      "Lalu": 7059,
      "isions": 7060,
      "Ġhaving": 7061,
      "Ġlapt": 7062,
      "achar": 7063,
      "ĠMed": 7064,
      "Ġstrict": 7065,
      "Ġstadium": 7066,
      "ĠPuri": 7067,
      "abi": 7068,
      "ĠTaj": 7069,
      "Ġreason": 7070,
      "ĠFrom": 7071,
      "Ġtrace": 7072,
      "Stop": 7073,
      "Ġprev": 7074,
      "Ġsweet": 7075,
      "Ġadditional": 7076,
      "ĠRTE": 7077,
      "Ġconditions": 7078,
      "autam": 7079,
      "Ġcrops": 7080,
      "Ġinstitutes": 7081,
      "Lawyers": 7082,
      "Ġfavourite": 7083,
      "Ġwithdraws": 7084,
      "ĠPadukone": 7085,
      "Ġavailable": 7086,
      "Bik": 7087,
      "Coun": 7088,
      "Education": 7089,
      "mukh": 7090,
      "Ġfell": 7091,
      "Ġranks": 7092,
      "Ġmum": 7093,
      "asion": 7094,
      "ĠSud": 7095,
      "ĠAustralian": 7096,
      "Ġchecks": 7097,
      "ĠUddhav": 7098,
      "ĠVill": 7099,
      "ĠEducation": 7100,
      "Ġflays": 7101,
      "hern": 7102,
      "Ġattention": 7103,
      "arnath": 7104,
      "Ġdemon": 7105,
      "Ġsuppl": 7106,
      "Ġprotesters": 7107,
      "Ġinterim": 7108,
      "Ġleadership": 7109,
      "ueless": 7110,
      "ĠMCD": 7111,
      "Narendra": 7112,
      "Ġsurrender": 7113,
      "Ġmystery": 7114,
      "Ġvolunt": 7115,
      "Ġtotal": 7116,
      "27": 7117,
      "Ap": 7118,
      "Few": 7119,
      "UN": 7120,
      "Ġpedd": 7121,
      "Ġmax": 7122,
      "urr": 7123,
      "ĠPoll": 7124,
      "ĠKi": 7125,
      "Ġchampions": 7126,
      "ĠPrakash": 7127,
      "ooter": 7128,
      "Ġdeleg": 7129,
      "Ġuses": 7130,
      "posed": 7131,
      "peak": 7132,
      "Drug": 7133,
      "Ġhonours": 7134,
      "Ġawarded": 7135,
      "Ġaudio": 7136,
      "Crime": 7137,
      "ĠKaif": 7138,
      "imple": 7139,
      "ĠTaliban": 7140,
      "ĠGanguly": 7141,
      "ĠTelugu": 7142,
      "ĠPrabh": 7143,
      "Photogallery": 7144,
      "Div": 7145,
      "Ghaziabad": 7146,
      "Med": 7147,
      "few": 7148,
      "gm": 7149,
      "rate": 7150,
      "uild": 7151,
      "esent": 7152,
      "Ġfault": 7153,
      "Ġhails": 7154,
      "usa": 7155,
      "Ġstories": 7156,
      "ulate": 7157,
      "ighting": 7158,
      "umble": 7159,
      "Ġanimal": 7160,
      "ankar": 7161,
      "Ġquick": 7162,
      "ĠPranab": 7163,
      "Invest": 7164,
      "enced": 7165,
      "Ġpositivity": 7166,
      "Ġtaxi": 7167,
      "ĠMalays": 7168,
      "Ġhandle": 7169,
      "Ġroutes": 7170,
      "Ġharassing": 7171,
      "ĠRanbir": 7172,
      "Ġcrushed": 7173,
      "Kanpur": 7174,
      "Disc": 7175,
      "Far": 7176,
      "PP": 7177,
      "week": 7178,
      "Ġcries": 7179,
      "Ġdhar": 7180,
      "Ġops": 7181,
      "Ġmafia": 7182,
      "asy": 7183,
      "Ġgarden": 7184,
      "adow": 7185,
      "ademic": 7186,
      "ĠId": 7187,
      "ooch": 7188,
      "Ġseizes": 7189,
      "Ġunions": 7190,
      "Ġbuilt": 7191,
      "Ġassociation": 7192,
      "Ġfacing": 7193,
      "ĠInter": 7194,
      "Ġtransplant": 7195,
      "Ġviolating": 7196,
      "Corporation": 7197,
      "ratri": 7198,
      "Death": 7199,
      "Ġupgrade": 7200,
      "Ġdestroy": 7201,
      "'?": 7202,
      "28": 7203,
      "Clean": 7204,
      "HD": 7205,
      "KMC": 7206,
      "Po": 7207,
      "ganj": 7208,
      "Ġsick": 7209,
      "orks": 7210,
      "Ġburns": 7211,
      "icon": 7212,
      "ĠBrazil": 7213,
      "ĠGirl": 7214,
      "aveen": 7215,
      "ĠStalin": 7216,
      "Ġwinner": 7217,
      "ounds": 7218,
      "Ġgranted": 7219,
      "Ġcentury": 7220,
      "ĠParrikar": 7221,
      "Ġconfident": 7222,
      "NGT": 7223,
      "ĠAssembly": 7224,
      "yanmar": 7225,
      "Ġnomination": 7226,
      "Brit": 7227,
      "Father": 7228,
      "lin": 7229,
      "wah": 7230,
      "Ġsac": 7231,
      "andeep": 7232,
      "igin": 7233,
      "ĠBagh": 7234,
      "ĠNa": 7235,
      "ĠGovernor": 7236,
      "riors": 7237,
      "iful": 7238,
      "plus": 7239,
      "efin": 7240,
      "eps": 7241,
      "Ġquiz": 7242,
      "puri": 7243,
      "Ġappoints": 7244,
      "atsApp": 7245,
      "azz": 7246,
      "Ġregistr": 7247,
      "Ġcollect": 7248,
      "Ġhearts": 7249,
      "aughters": 7250,
      "Ġfollowing": 7251,
      "Ġexcise": 7252,
      "Ġwheat": 7253,
      "Ġmulti": 7254,
      "Ġearnings": 7255,
      "Ġrazed": 7256,
      "Dalit": 7257,
      "Deepika": 7258,
      "Have": 7259,
      "Job": 7260,
      "Public": 7261,
      "SBI": 7262,
      "gin": 7263,
      "mate": 7264,
      "Ġdress": 7265,
      "Ġrid": 7266,
      "Ġgender": 7267,
      "erse": 7268,
      "Ġstalls": 7269,
      "ĠAkshay": 7270,
      "ĠKab": 7271,
      "ocol": 7272,
      "Ġyr": 7273,
      "outhern": 7274,
      "Ġspark": 7275,
      "ishad": 7276,
      "Ġreserve": 7277,
      "armer": 7278,
      "Ġcurfew": 7279,
      "Ġshopping": 7280,
      "Ġsanct": 7281,
      "Mayor": 7282,
      "hing": 7283,
      "ishi": 7284,
      "Ġmercury": 7285,
      "Ġmixed": 7286,
      "ĠSim": 7287,
      "ĠSha": 7288,
      "ĠMaya": 7289,
      "istle": 7290,
      "ĠIndies": 7291,
      "Ġresolution": 7292,
      "Ġitems": 7293,
      "Ġposing": 7294,
      "Ġtale": 7295,
      "Ġconvocation": 7296,
      "ĠRTO": 7297,
      "Compl": 7298,
      "Ġsoldiers": 7299,
      "Ġfields": 7300,
      "ĠArunachal": 7301,
      "Ġcustomers": 7302,
      "Ġoccup": 7303,
      "ifficult": 7304,
      "99": 7305,
      "Liquor": 7306,
      "Row": 7307,
      "Su": 7308,
      "Ur": 7309,
      "Ġradar": 7310,
      "urbs": 7311,
      "imited": 7312,
      "Ġveget": 7313,
      "Ġconference": 7314,
      "Ġagriculture": 7315,
      "itsar": 7316,
      "Ġmeat": 7317,
      "Ġblues": 7318,
      "ĠBhavan": 7319,
      "ĠSingapore": 7320,
      "Ġpeak": 7321,
      "Ġfacelift": 7322,
      "Ġstartups": 7323,
      "Ġcrew": 7324,
      "Ġterminal": 7325,
      "Ġeveryone": 7326,
      "ĠAllahabad": 7327,
      "Ġpictures": 7328,
      "Ġidol": 7329,
      "Finally": 7330,
      "ĠAmarinder": 7331,
      "legally": 7332,
      "Banks": 7333,
      "atia": 7334,
      "Ġporn": 7335,
      "Ġdedic": 7336,
      "ĠCap": 7337,
      "Ġstall": 7338,
      "ĠBij": 7339,
      "Ġeg": 7340,
      "ĠNR": 7341,
      "Ġshun": 7342,
      "ĠLankan": 7343,
      "Ġcloth": 7344,
      "Ġfacts": 7345,
      "otsav": 7346,
      "Arjun": 7347,
      "Ġknock": 7348,
      "rawl": 7349,
      "Ġpresence": 7350,
      "Ġtowns": 7351,
      "Ġmemorial": 7352,
      "laws": 7353,
      "ĠiPhone": 7354,
      "Ġcamera": 7355,
      "ĠMehta": 7356,
      "Bet": 7357,
      "iest": 7358,
      "rated": 7359,
      "ĠSo": 7360,
      "ĠCant": 7361,
      "rag": 7362,
      "hieves": 7363,
      "Ġproduce": 7364,
      "ailed": 7365,
      "Ġword": 7366,
      "ĠOsc": 7367,
      "arka": 7368,
      "ehold": 7369,
      "Ġfarming": 7370,
      "Ġdivided": 7371,
      "Ġidentity": 7372,
      "Ġlicences": 7373,
      "impri": 7374,
      "Ġmaintain": 7375,
      "ĠIAF": 7376,
      "ĠSawant": 7377,
      "Ġjawans": 7378,
      "ĠWednesday": 7379,
      "iruvananth": 7380,
      "65": 7381,
      "Bomb": 7382,
      "Cha": 7383,
      "Coll": 7384,
      "House": 7385,
      "Madh": 7386,
      "Trichy": 7387,
      "bers": 7388,
      "Ġcous": 7389,
      "Ġdomin": 7390,
      "Ġroof": 7391,
      "urappa": 7392,
      "Ġwards": 7393,
      "icle": 7394,
      "ayed": 7395,
      "ĠMy": 7396,
      "rey": 7397,
      "oph": 7398,
      "ĠIPO": 7399,
      "Ġacres": 7400,
      "Ġcasual": 7401,
      "Ġdisposal": 7402,
      "Ġflyers": 7403,
      "Ġsignals": 7404,
      "Ġvarsities": 7405,
      "Ġmachine": 7406,
      "hotra": 7407,
      "Ġimprison": 7408,
      "Id": 7409,
      "cles": 7410,
      "iro": 7411,
      "kraine": 7412,
      "Ġdaco": 7413,
      "Ġrub": 7414,
      "urers": 7415,
      "ĠMas": 7416,
      "ĠMela": 7417,
      "ĠAh": 7418,
      "ĠDeep": 7419,
      "Ġeast": 7420,
      "ĠJodhpur": 7421,
      "Ġjoy": 7422,
      "Ġupholds": 7423,
      "ĠIndependence": 7424,
      "Ġflak": 7425,
      "icken": 7426,
      "arma": 7427,
      "These": 7428,
      "Short": 7429,
      "Ġinfections": 7430,
      "ĠManmohan": 7431,
      "Ġinjures": 7432,
      "ĠParis": 7433,
      "iwari": 7434,
      "PCMC": 7435,
      "Legal": 7436,
      "Ġpilots": 7437,
      "Ġcrackdown": 7438,
      "Ġburnt": 7439,
      "ĠValley": 7440,
      "Ġastrolog": 7441,
      "American": 7442,
      "Bo": 7443,
      "British": 7444,
      "Cricket": 7445,
      "King": 7446,
      "bi": 7447,
      "fort": 7448,
      "party": 7449,
      "zen": 7450,
      "Ġpaddy": 7451,
      "icides": 7452,
      "Ġlect": 7453,
      "ĠMishra": 7454,
      "ready": 7455,
      "ĠReal": 7456,
      "ĠKatrina": 7457,
      "imala": 7458,
      "Ġveter": 7459,
      "ifth": 7460,
      "Ġdrink": 7461,
      "Ġquashes": 7462,
      "rown": 7463,
      "Ġgirlfriend": 7464,
      "Ġtried": 7465,
      "Ġpermission": 7466,
      "Plan": 7467,
      "ĠSaudi": 7468,
      "ĠForce": 7469,
      "Ġtower": 7470,
      "Ġchallenged": 7471,
      "Ġencroachments": 7472,
      "Ġcompletes": 7473,
      "Ġpoliticians": 7474,
      "ography": 7475,
      "Ġprayers": 7476,
      "Ġabandoned": 7477,
      "Ġfelicit": 7478,
      "Head": 7479,
      "ICC": 7480,
      "Non": 7481,
      "Navi": 7482,
      "SRTC": 7483,
      "sm": 7484,
      "Ġpal": 7485,
      "Ġpts": 7486,
      "Ġpurs": 7487,
      "ĠMG": 7488,
      "ĠArab": 7489,
      "ĠPics": 7490,
      "ĠTown": 7491,
      "Ġexemp": 7492,
      "Ġclashes": 7493,
      "airy": 7494,
      "Ġdemocracy": 7495,
      "Anand": 7496,
      "News": 7497,
      "Ġitself": 7498,
      "alking": 7499,
      "IAF": 7500,
      "Ġshifts": 7501,
      "CPI": 7502,
      "Ġannounced": 7503,
      "Ġcolours": 7504,
      "Ġhorror": 7505,
      "Ġconsumers": 7506,
      "Maoist": 7507,
      "Ġcarrying": 7508,
      "Ġpunish": 7509,
      "Ġpedestri": 7510,
      "ĠKumbh": 7511,
      "Ġcouples": 7512,
      "Ġconstitu": 7513,
      "regularities": 7514,
      "iruvananthapuram": 7515,
      "ACB": 7516,
      "Nav": 7517,
      "Roh": 7518,
      "Rains": 7519,
      "laze": 7520,
      "wada": 7521,
      "Ġsells": 7522,
      "Ġrange": 7523,
      "Ġmall": 7524,
      "Ġmap": 7525,
      "ador": 7526,
      "acity": 7527,
      "ĠRath": 7528,
      "Ġagents": 7529,
      "Ġ39": 7530,
      "ĠEm": 7531,
      "ĠEid": 7532,
      "Ġclueless": 7533,
      "Ġcoff": 7534,
      "Ġkillers": 7535,
      "Ġablaze": 7536,
      "Ġalum": 7537,
      "ĠYork": 7538,
      "International": 7539,
      "Ġdeficit": 7540,
      "Ġimpress": 7541,
      "Ġfighters": 7542,
      "Ġapathy": 7543,
      "force": 7544,
      "Ġmultip": 7545,
      "Ġwildlife": 7546,
      "ĠMysore": 7547,
      "Ġnegative": 7548,
      "Ds": 7549,
      "Men": 7550,
      "Ġtap": 7551,
      "Ġtaste": 7552,
      "Ġhat": 7553,
      "Ġlyn": 7554,
      "ĠRJD": 7555,
      "Ġeat": 7556,
      "Ġleague": 7557,
      "Ġunhappy": 7558,
      "Ġ42": 7559,
      "Ġord": 7560,
      "Ġwhich": 7561,
      "Ġ72": 7562,
      "Ġposition": 7563,
      "ĠArt": 7564,
      "Ġentert": 7565,
      "Ġshield": 7566,
      "Ġresponsible": 7567,
      "Ġtriple": 7568,
      "ĠSrinagar": 7569,
      "Ġdeposit": 7570,
      "ichael": 7571,
      "Ġuniversities": 7572,
      "Ġappeals": 7573,
      "Best": 7574,
      "Of": 7575,
      "bum": 7576,
      "phan": 7577,
      "xic": 7578,
      "arian": 7579,
      "Ġroyal": 7580,
      "Ġforum": 7581,
      "ĠMe": 7582,
      "Ġdear": 7583,
      "ifer": 7584,
      "Ġjam": 7585,
      "ĠLa": 7586,
      "ĠWC": 7587,
      "umbo": 7588,
      "uki": 7589,
      "Ġstrang": 7590,
      "Anna": 7591,
      "Ġwinners": 7592,
      "Ġfeat": 7593,
      "Ġsmooth": 7594,
      "Amar": 7595,
      "SRK": 7596,
      "ĠFrance": 7597,
      "Ġidea": 7598,
      "Ġconsumer": 7599,
      "Ġmandatory": 7600,
      "Political": 7601,
      "Ġsuccumbs": 7602,
      "Ġtrafficking": 7603,
      "Karan": 7604,
      "Ludhiana": 7605,
      "Up": 7606,
      "Vi": 7607,
      "iece": 7608,
      "isa": 7609,
      "askar": 7610,
      "Ġvenue": 7611,
      "ĠGir": 7612,
      "ĠHot": 7613,
      "ĠJohar": 7614,
      "ĠIndust": 7615,
      "ĠOBC": 7616,
      "Ġmanifest": 7617,
      "Indo": 7618,
      "Ġsetting": 7619,
      "Ġheroin": 7620,
      "ouhan": 7621,
      "Ġtales": 7622,
      "Ġsyll": 7623,
      "Ġconfl": 7624,
      "Ġspeak": 7625,
      "Ġsuccessful": 7626,
      "ĠAjit": 7627,
      "Ġobserve": 7628,
      "Dhoni": 7629,
      "Ġbullet": 7630,
      "ĠChandrasekhar": 7631,
      "Ġmasks": 7632,
      "Ġimprisonment": 7633,
      "Ak": 7634,
      "Greater": 7635,
      "Long": 7636,
      "NR": 7637,
      "Sk": 7638,
      "Shi": 7639,
      "bus": 7640,
      "minton": 7641,
      "Ġfiscal": 7642,
      "Ġbure": 7643,
      "Ġrig": 7644,
      "Ġmn": 7645,
      "acement": 7646,
      "ĠBy": 7647,
      "ĠBedi": 7648,
      "Ġathlet": 7649,
      "uled": 7650,
      "ĠLax": 7651,
      "qual": 7652,
      "heer": 7653,
      "obby": 7654,
      "Ġquake": 7655,
      "ehwag": 7656,
      "Ġmedals": 7657,
      "Ġfalling": 7658,
      "Ġcheated": 7659,
      "ĠChandra": 7660,
      "Allahabad": 7661,
      "ĠWestern": 7662,
      "Ġstabs": 7663,
      "Ġinaugurates": 7664,
      "Ġadopt": 7665,
      "Ġdistribution": 7666,
      "ĠHaasan": 7667,
      "32": 7668,
      "GST": 7669,
      "Jaya": 7670,
      "Pati": 7671,
      "can": 7672,
      "wealth": 7673,
      "Ġpock": 7674,
      "iter": 7675,
      "ĠShi": 7676,
      "ĠMarket": 7677,
      "ĠBro": 7678,
      "ĠPon": 7679,
      "ĠRob": 7680,
      "abus": 7681,
      "Ġthefts": 7682,
      "the": 7683,
      "Ġcruc": 7684,
      "nsure": 7685,
      "ĠYour": 7686,
      "oked": 7687,
      "ooda": 7688,
      "Ġboards": 7689,
      "Should": 7690,
      "Ġedu": 7691,
      "Ġglory": 7692,
      "Ġtwist": 7693,
      "coming": 7694,
      "Ġperforms": 7695,
      "iyar": 7696,
      "Ġsanctions": 7697,
      "ĠSAD": 7698,
      "ĠNEET": 7699,
      "AIADMK": 7700,
      "Bid": 7701,
      "wom": 7702,
      "wani": 7703,
      "Ġmaj": 7704,
      "ication": 7705,
      "Ġlies": 7706,
      "ombs": 7707,
      "ĠAp": 7708,
      "ĠDA": 7709,
      "tha": 7710,
      "ocates": 7711,
      "Ġresumes": 7712,
      "Ġscen": 7713,
      "Ġ49": 7714,
      "Ġrecovers": 7715,
      "areilly": 7716,
      "ĠShinde": 7717,
      "ĠManohar": 7718,
      "Ġsweep": 7719,
      "hika": 7720,
      "Property": 7721,
      "Amid": 7722,
      "Ġafford": 7723,
      "Ġgangster": 7724,
      "Ġannounce": 7725,
      "Ġhalts": 7726,
      "radun": 7727,
      "Ġinaugurated": 7728,
      "Ġvalue": 7729,
      "Ġmedicine": 7730,
      "Demand": 7731,
      "ĠMysuru": 7732,
      "Ġoutfit": 7733,
      "TU": 7734,
      "Won": 7735,
      "real": 7736,
      "osis": 7737,
      "upathi": 7738,
      "ĠGrand": 7739,
      "ĠGowda": 7740,
      "avati": 7741,
      "ĠFirst": 7742,
      "ĠVin": 7743,
      "ĠVij": 7744,
      "ubanes": 7745,
      "Ġcooper": 7746,
      "rows": 7747,
      "axy": 7748,
      "ĠShr": 7749,
      "Ġregisters": 7750,
      "ĠMalhotra": 7751,
      "ĠSalem": 7752,
      "Ġthrash": 7753,
      "Ġtroops": 7754,
      "Ġbelt": 7755,
      "Ġcoaching": 7756,
      "Ġrebel": 7757,
      "Ġlodged": 7758,
      "Ġdangerous": 7759,
      "Ġsuggests": 7760,
      "Ġquarantine": 7761,
      "ĠRoshan": 7762,
      "wahati": 7763,
      "Ġcrucial": 7764,
      "ubaneswar": 7765,
      "47": 7766,
      "Akh": 7767,
      "ius": 7768,
      "Ġcues": 7769,
      "Ġmiddle": 7770,
      "Ġhaul": 7771,
      "ĠMBBS": 7772,
      "umer": 7773,
      "ĠLife": 7774,
      "ĠOP": 7775,
      "Ġstudies": 7776,
      "Ġ600": 7777,
      "ehradun": 7778,
      "Ġundergo": 7779,
      "anced": 7780,
      "Ġedition": 7781,
      "ĠKapil": 7782,
      "Ġadvice": 7783,
      "ĠDevi": 7784,
      "Ġsilent": 7785,
      "Ġinflu": 7786,
      "Ġmemory": 7787,
      "ieve": 7788,
      "Ġportal": 7789,
      "Ġhonoured": 7790,
      "ephant": 7791,
      "Ġignored": 7792,
      "ĠMukher": 7793,
      "Ġinitiative": 7794,
      "Ġbalance": 7795,
      "uvenile": 7796,
      "Ġhotsp": 7797,
      "Ġdharna": 7798,
      "Mor": 7799,
      "Making": 7800,
      "Readers": 7801,
      "Thieves": 7802,
      "Vot": 7803,
      "polit": 7804,
      "Ġbun": 7805,
      "Ġwet": 7806,
      "aman": 7807,
      "ushi": 7808,
      "ĠSah": 7809,
      "ĠPSU": 7810,
      "ĠDravid": 7811,
      "ĠNIA": 7812,
      "avours": 7813,
      "ĠHoroscope": 7814,
      "awat": 7815,
      "Ġ52": 7816,
      "Manipur": 7817,
      "ĠAmbedkar": 7818,
      "Ġcorner": 7819,
      "Ġguest": 7820,
      "Ġmoving": 7821,
      "IAL": 7822,
      "Ġconvict": 7823,
      "uthor": 7824,
      "Ġwatching": 7825,
      "ĠSpecial": 7826,
      "Reliance": 7827,
      "Ġprisoners": 7828,
      "azaar": 7829,
      "Ġmaintenance": 7830,
      "Ġforecast": 7831,
      "ĠGeorge": 7832,
      "Samsung": 7833,
      "TDP": 7834,
      "comm": 7835,
      "fare": 7836,
      "kha": 7837,
      "Ġsons": 7838,
      "Ġpharma": 7839,
      "Ġbrib": 7840,
      "Ġrivers": 7841,
      "Ġmental": 7842,
      "Ġwary": 7843,
      "ĠMr": 7844,
      "Ġthought": 7845,
      "agi": 7846,
      "ĠKareena": 7847,
      "Ġrepe": 7848,
      "Ġprob": 7849,
      "Ġisn": 7850,
      "ajwadi": 7851,
      "Ġspent": 7852,
      "ellite": 7853,
      "Ġnothing": 7854,
      "attar": 7855,
      "orders": 7856,
      "Ġremember": 7857,
      "Ġgrows": 7858,
      "Ġwriting": 7859,
      "igerian": 7860,
      "ĠBabu": 7861,
      "ĠTeach": 7862,
      "Petrol": 7863,
      "Ġtab": 7864,
      "Ġtension": 7865,
      "Ġsed": 7866,
      "Ġpic": 7867,
      "isf": 7868,
      "Ġration": 7869,
      "Ġmoots": 7870,
      "Ġluxury": 7871,
      "ĠSind": 7872,
      "idi": 7873,
      "ĠMu": 7874,
      "ova": 7875,
      "che": 7876,
      "rier": 7877,
      "Ġagrees": 7878,
      "pless": 7879,
      "overty": 7880,
      "ampur": 7881,
      "Ġlakhs": 7882,
      "atio": 7883,
      "Ġrevised": 7884,
      "ĠAng": 7885,
      "Ġtaxes": 7886,
      "Ġmovies": 7887,
      "Ġaffects": 7888,
      "Ġthrong": 7889,
      "Ġirrigation": 7890,
      "Ġincreases": 7891,
      "ACE": 7892,
      "Ġdismissed": 7893,
      "Ġencroachment": 7894,
      "Ġideas": 7895,
      "Ġtransfers": 7896,
      "Ġpraises": 7897,
      "ĠJustice": 7898,
      "AE": 7899,
      "Cold": 7900,
      "Cust": 7901,
      "GS": 7902,
      "Hist": 7903,
      "Kolhapur": 7904,
      "uals": 7905,
      "Ġire": 7906,
      "oration": 7907,
      "Ġaides": 7908,
      "Ġrides": 7909,
      "ayak": 7910,
      "aded": 7911,
      "ching": 7912,
      "ĠGaur": 7913,
      "ĠGopal": 7914,
      "ĠLove": 7915,
      "Ġseg": 7916,
      "ĠOs": 7917,
      "ueen": 7918,
      "Ġmoved": 7919,
      "Ġdesi": 7920,
      "Ġconvicts": 7921,
      "Coronavirus": 7922,
      "BSF": 7923,
      "Ġdumped": 7924,
      "aptain": 7925,
      "Ġsteady": 7926,
      "ĠSmart": 7927,
      "Ġtoilet": 7928,
      "aisal": 7929,
      "Ġelectricity": 7930,
      "Ġmosquit": 7931,
      "Ġmaterial": 7932,
      "600": 7933,
      "Mass": 7934,
      "Meg": 7935,
      "OM": 7936,
      "iod": 7937,
      "anidhi": 7938,
      "Ġsap": 7939,
      "Ġsops": 7940,
      "Ġsizz": 7941,
      "Ġdaughters": 7942,
      "ayats": 7943,
      "ircle": 7944,
      "ĠMain": 7945,
      "iva": 7946,
      "ĠAMC": 7947,
      "upur": 7948,
      "ĠHills": 7949,
      "ifty": 7950,
      "ĠVIP": 7951,
      "isher": 7952,
      "Ġclim": 7953,
      "Ġclick": 7954,
      "orse": 7955,
      "Ġretirement": 7956,
      "Ġillegally": 7957,
      "Ġterrorist": 7958,
      "Ġminority": 7959,
      "Drive": 7960,
      "Ġthriller": 7961,
      "Maruti": 7962,
      "Ġfactor": 7963,
      "Ġintroduce": 7964,
      "Ġunsafe": 7965,
      "ĠAmerican": 7966,
      "Ġcondemns": 7967,
      "IEW": 7968,
      "French": 7969,
      "Rep": 7970,
      "Set": 7971,
      "Sebi": 7972,
      "cor": 7973,
      "paid": 7974,
      "inn": 7975,
      "inate": 7976,
      "Ġtunn": 7977,
      "Ġcotton": 7978,
      "Ġdating": 7979,
      "Ġradio": 7980,
      "Ġoath": 7981,
      "icious": 7982,
      "ĠBest": 7983,
      "ĠBBMP": 7984,
      "ĠPWD": 7985,
      "ĠRani": 7986,
      "ovind": 7987,
      "Ġvide": 7988,
      "Ġshadow": 7989,
      "ĠJu": 7990,
      "aiya": 7991,
      "ĠFern": 7992,
      "ĠVihar": 7993,
      "ĠChild": 7994,
      "Ġhighways": 7995,
      "Ġelephant": 7996,
      "Ġleading": 7997,
      "Ġundert": 7998,
      "ancell": 7999
    },
    "merges": [
      [
        "i",
        "n"
      ],
      [
        "Ġ",
        "t"
      ],
      [
        "e",
        "r"
      ],
      [
        "a",
        "n"
      ],
      [
        "e",
        "s"
      ],
      [
        "Ġ",
        "s"
      ],
      [
        "o",
        "n"
      ],
      [
        "o",
        "r"
      ],
      [
        "a",
        "r"
      ],
      [
        "Ġ",
        "f"
      ],
      [
        "a",
        "t"
      ],
      [
        "Ġ",
        "c"
      ],
      [
        "e",
        "n"
      ],
      [
        "a",
        "l"
      ],
      [
        "Ġt",
        "o"
      ],
      [
        "Ġ",
        "in"
      ],
      [
        "Ġ",
        "p"
      ],
      [
        "i",
        "t"
      ],
      [
        "Ġ",
        "b"
      ],
      [
        "e",
        "d"
      ],
      [
        "Ġ",
        "a"
      ],
      [
        "Ġ",
        "d"
      ],
      [
        "i",
        "s"
      ],
      [
        "Ġ",
        "r"
      ],
      [
        "Ġ",
        "o"
      ],
      [
        "Ġ",
        "m"
      ],
      [
        "u",
        "r"
      ],
      [
        "in",
        "g"
      ],
      [
        "Ġ",
        "w"
      ],
      [
        "Ġ",
        "h"
      ],
      [
        "e",
        "l"
      ],
      [
        "i",
        "l"
      ],
      [
        "i",
        "c"
      ],
      [
        "a",
        "s"
      ],
      [
        "Ġf",
        "or"
      ],
      [
        "o",
        "l"
      ],
      [
        "e",
        "t"
      ],
      [
        "Ġ",
        "l"
      ],
      [
        "a",
        "y"
      ],
      [
        "r",
        "o"
      ],
      [
        "i",
        "on"
      ],
      [
        "Ġ",
        "g"
      ],
      [
        "Ġo",
        "f"
      ],
      [
        "a",
        "d"
      ],
      [
        "u",
        "n"
      ],
      [
        "a",
        "m"
      ],
      [
        "u",
        "s"
      ],
      [
        "en",
        "t"
      ],
      [
        "Ġ",
        "S"
      ],
      [
        "e",
        "c"
      ],
      [
        "a",
        "c"
      ],
      [
        "er",
        "s"
      ],
      [
        "i",
        "d"
      ],
      [
        "Ġ",
        "C"
      ],
      [
        "Ġ",
        "on"
      ],
      [
        "u",
        "t"
      ],
      [
        "i",
        "r"
      ],
      [
        "Ġ",
        "M"
      ],
      [
        "Ġ",
        "n"
      ],
      [
        "Ġs",
        "t"
      ],
      [
        "'",
        "s"
      ],
      [
        "o",
        "m"
      ],
      [
        "an",
        "d"
      ],
      [
        "o",
        "t"
      ],
      [
        "a",
        "k"
      ],
      [
        "Ġt",
        "h"
      ],
      [
        "l",
        "e"
      ],
      [
        "i",
        "v"
      ],
      [
        "i",
        "g"
      ],
      [
        "Ġ",
        "A"
      ],
      [
        "Ġ",
        "B"
      ],
      [
        "r",
        "e"
      ],
      [
        "Ġ",
        "P"
      ],
      [
        "Ġ",
        "R"
      ],
      [
        "r",
        "a"
      ],
      [
        "o",
        "s"
      ],
      [
        "es",
        "t"
      ],
      [
        "o",
        "w"
      ],
      [
        "e",
        "m"
      ],
      [
        "o",
        "v"
      ],
      [
        "c",
        "h"
      ],
      [
        "t",
        "s"
      ],
      [
        "u",
        "p"
      ],
      [
        "a",
        "g"
      ],
      [
        "Ġ",
        "K"
      ],
      [
        "il",
        "l"
      ],
      [
        "Ġ",
        "at"
      ],
      [
        "u",
        "l"
      ],
      [
        "o",
        "p"
      ],
      [
        "t",
        "er"
      ],
      [
        "i",
        "m"
      ],
      [
        "Ġ",
        "I"
      ],
      [
        "at",
        "ion"
      ],
      [
        "Ġ",
        "D"
      ],
      [
        "Ġ",
        "e"
      ],
      [
        "a",
        "b"
      ],
      [
        "o",
        "d"
      ],
      [
        "h",
        "i"
      ],
      [
        "Ġ",
        "N"
      ],
      [
        "Ġ",
        "T"
      ],
      [
        "Ġ",
        "v"
      ],
      [
        "u",
        "m"
      ],
      [
        "al",
        "l"
      ],
      [
        "Ġth",
        "e"
      ],
      [
        "a",
        "in"
      ],
      [
        "t",
        "h"
      ],
      [
        "Ġr",
        "e"
      ],
      [
        "Ġ",
        "G"
      ],
      [
        "a",
        "p"
      ],
      [
        "r",
        "i"
      ],
      [
        "Ġ",
        "1"
      ],
      [
        "s",
        "t"
      ],
      [
        "it",
        "h"
      ],
      [
        "o",
        "ur"
      ],
      [
        "n",
        "d"
      ],
      [
        "es",
        "s"
      ],
      [
        "Ġ",
        "2"
      ],
      [
        "Ġb",
        "e"
      ],
      [
        "Ġp",
        "ro"
      ],
      [
        "Ġd",
        "e"
      ],
      [
        "it",
        "y"
      ],
      [
        "u",
        "d"
      ],
      [
        "e",
        "ar"
      ],
      [
        "Ġ",
        "k"
      ],
      [
        "a",
        "v"
      ],
      [
        "Ġ",
        "H"
      ],
      [
        "h",
        "ar"
      ],
      [
        "ig",
        "h"
      ],
      [
        "k",
        "s"
      ],
      [
        "i",
        "a"
      ],
      [
        "at",
        "e"
      ],
      [
        "Ġw",
        "ith"
      ],
      [
        "ec",
        "t"
      ],
      [
        "Ġa",
        "s"
      ],
      [
        "Ġ",
        "'"
      ],
      [
        "e",
        "e"
      ],
      [
        "i",
        "es"
      ],
      [
        "e",
        "w"
      ],
      [
        "o",
        "c"
      ],
      [
        "or",
        "e"
      ],
      [
        "en",
        "d"
      ],
      [
        "v",
        "er"
      ],
      [
        "c",
        "e"
      ],
      [
        "is",
        "t"
      ],
      [
        "ro",
        "m"
      ],
      [
        "i",
        "f"
      ],
      [
        "an",
        "g"
      ],
      [
        "Ġ",
        "y"
      ],
      [
        "un",
        "d"
      ],
      [
        "Ġf",
        "rom"
      ],
      [
        "Ġs",
        "h"
      ],
      [
        "ay",
        "s"
      ],
      [
        "Ġ",
        "J"
      ],
      [
        "Ġc",
        "on"
      ],
      [
        "a",
        "i"
      ],
      [
        "ic",
        "e"
      ],
      [
        "l",
        "y"
      ],
      [
        "ac",
        "k"
      ],
      [
        "Ġ",
        "ar"
      ],
      [
        "Ġp",
        "l"
      ],
      [
        "u",
        "g"
      ],
      [
        "Ġ",
        "j"
      ],
      [
        "Ġc",
        "h"
      ],
      [
        "Ġ",
        "U"
      ],
      [
        "an",
        "t"
      ],
      [
        "0",
        "0"
      ],
      [
        "Ġe",
        "x"
      ],
      [
        "Ġ",
        "up"
      ],
      [
        "ent",
        "s"
      ],
      [
        "Ġa",
        "c"
      ],
      [
        "iv",
        "e"
      ],
      [
        "p",
        "or"
      ],
      [
        "Ġa",
        "g"
      ],
      [
        "a",
        "il"
      ],
      [
        "at",
        "h"
      ],
      [
        "Ġp",
        "ol"
      ],
      [
        "u",
        "c"
      ],
      [
        "Ġ",
        "is"
      ],
      [
        "Ġ",
        "L"
      ],
      [
        "Ġh",
        "el"
      ],
      [
        "q",
        "u"
      ],
      [
        "as",
        "h"
      ],
      [
        "Ġ",
        "and"
      ],
      [
        "Ġc",
        "r"
      ],
      [
        "on",
        "g"
      ],
      [
        "Ġg",
        "et"
      ],
      [
        "ar",
        "t"
      ],
      [
        "Ġc",
        "om"
      ],
      [
        "ar",
        "d"
      ],
      [
        "Ġ",
        "F"
      ],
      [
        "an",
        "s"
      ],
      [
        "ĠI",
        "nd"
      ],
      [
        "Ġof",
        "f"
      ],
      [
        "a",
        "j"
      ],
      [
        "Ġb",
        "y"
      ],
      [
        "f",
        "f"
      ],
      [
        "i",
        "k"
      ],
      [
        "Ġc",
        "as"
      ],
      [
        "Ġo",
        "ver"
      ],
      [
        "ol",
        "d"
      ],
      [
        "h",
        "a"
      ],
      [
        "m",
        "ent"
      ],
      [
        "o",
        "o"
      ],
      [
        "us",
        "t"
      ],
      [
        "ak",
        "e"
      ],
      [
        "Ġ",
        "V"
      ],
      [
        "ac",
        "h"
      ],
      [
        "Ġw",
        "or"
      ],
      [
        "in",
        "e"
      ],
      [
        "d",
        "er"
      ],
      [
        "o",
        "ut"
      ],
      [
        "u",
        "b"
      ],
      [
        "Ġs",
        "p"
      ],
      [
        "as",
        "t"
      ],
      [
        "el",
        "l"
      ],
      [
        "Ġl",
        "e"
      ],
      [
        "igh",
        "t"
      ],
      [
        "Ġag",
        "ain"
      ],
      [
        "i",
        "al"
      ],
      [
        "ĠC",
        "h"
      ],
      [
        "Ġt",
        "r"
      ],
      [
        "Ġn",
        "ot"
      ],
      [
        "Ġ",
        "W"
      ],
      [
        "Ġs",
        "e"
      ],
      [
        "is",
        "h"
      ],
      [
        "ĠR",
        "s"
      ],
      [
        "it",
        "s"
      ],
      [
        "p",
        "l"
      ],
      [
        "f",
        "ter"
      ],
      [
        "ov",
        "t"
      ],
      [
        "Ġ",
        "3"
      ],
      [
        "en",
        "s"
      ],
      [
        "h",
        "e"
      ],
      [
        "ag",
        "e"
      ],
      [
        "o",
        "b"
      ],
      [
        "Ġ",
        "E"
      ],
      [
        "Ġr",
        "es"
      ],
      [
        "i",
        "p"
      ],
      [
        "Ġc",
        "l"
      ],
      [
        "Ġo",
        "ut"
      ],
      [
        "Ġhel",
        "d"
      ],
      [
        "os",
        "t"
      ],
      [
        "g",
        "e"
      ],
      [
        "w",
        "o"
      ],
      [
        "r",
        "ess"
      ],
      [
        "por",
        "t"
      ],
      [
        "id",
        "e"
      ],
      [
        "Ġ",
        "O"
      ],
      [
        "Ġagain",
        "st"
      ],
      [
        "t",
        "ion"
      ],
      [
        "e",
        "f"
      ],
      [
        "um",
        "b"
      ],
      [
        "h",
        "an"
      ],
      [
        "u",
        "e"
      ],
      [
        "ov",
        "er"
      ],
      [
        "in",
        "d"
      ],
      [
        "as",
        "s"
      ],
      [
        "Ġs",
        "ays"
      ],
      [
        "p",
        "p"
      ],
      [
        "Ġa",
        "fter"
      ],
      [
        "op",
        "s"
      ],
      [
        "Ġf",
        "ir"
      ],
      [
        "i",
        "an"
      ],
      [
        "o",
        "us"
      ],
      [
        "Ġn",
        "ew"
      ],
      [
        "es",
        "h"
      ],
      [
        "el",
        "hi"
      ],
      [
        "i",
        "z"
      ],
      [
        "en",
        "g"
      ],
      [
        "Ġp",
        "r"
      ],
      [
        "Ġc",
        "o"
      ],
      [
        "Ġk",
        "ill"
      ],
      [
        "or",
        "s"
      ],
      [
        "a",
        "w"
      ],
      [
        "Ġ",
        "un"
      ],
      [
        "al",
        "s"
      ],
      [
        "ĠInd",
        "ia"
      ],
      [
        "n",
        "s"
      ],
      [
        "is",
        "s"
      ],
      [
        "Ġm",
        "e"
      ],
      [
        "o",
        "g"
      ],
      [
        "ur",
        "e"
      ],
      [
        "ar",
        "y"
      ],
      [
        "Ġs",
        "c"
      ],
      [
        "J",
        "P"
      ],
      [
        "S",
        "t"
      ],
      [
        "Ġ2",
        "0"
      ],
      [
        "Ġf",
        "l"
      ],
      [
        "Ġd",
        "r"
      ],
      [
        "av",
        "e"
      ],
      [
        "Ġg",
        "o"
      ],
      [
        "o",
        "ol"
      ],
      [
        "re",
        "e"
      ],
      [
        "o",
        "y"
      ],
      [
        "d",
        "ay"
      ],
      [
        "Ġt",
        "ra"
      ],
      [
        "Ġst",
        "ud"
      ],
      [
        "ar",
        "k"
      ],
      [
        "a",
        "h"
      ],
      [
        "ac",
        "e"
      ],
      [
        "e",
        "y"
      ],
      [
        "ol",
        "l"
      ],
      [
        "am",
        "p"
      ],
      [
        "Ġ",
        "an"
      ],
      [
        "oo",
        "k"
      ],
      [
        "Ġcas",
        "e"
      ],
      [
        "r",
        "y"
      ],
      [
        "Ġm",
        "an"
      ],
      [
        "Ġ",
        "5"
      ],
      [
        "Ġb",
        "l"
      ],
      [
        "Ġa",
        "d"
      ],
      [
        "et",
        "s"
      ],
      [
        "Ġs",
        "ch"
      ],
      [
        "o",
        "ad"
      ],
      [
        "an",
        "k"
      ],
      [
        "Ġf",
        "o"
      ],
      [
        "r",
        "ic"
      ],
      [
        "ug",
        "h"
      ],
      [
        "Ġar",
        "r"
      ],
      [
        "p",
        "er"
      ],
      [
        "Ġin",
        "t"
      ],
      [
        "Ġ",
        "4"
      ],
      [
        "e",
        "p"
      ],
      [
        "Ġm",
        "in"
      ],
      [
        "if",
        "e"
      ],
      [
        "Ġc",
        "an"
      ],
      [
        "Ġm",
        "ay"
      ],
      [
        "is",
        "e"
      ],
      [
        "om",
        "e"
      ],
      [
        "Ġh",
        "e"
      ],
      [
        "Ġ",
        "or"
      ],
      [
        "at",
        "er"
      ],
      [
        "Ġ",
        "qu"
      ],
      [
        "I",
        "nd"
      ],
      [
        "l",
        "d"
      ],
      [
        "Ġw",
        "om"
      ],
      [
        "an",
        "a"
      ],
      [
        "h",
        "er"
      ],
      [
        "en",
        "ce"
      ],
      [
        "at",
        "es"
      ],
      [
        "Ġt",
        "e"
      ],
      [
        "ak",
        "h"
      ],
      [
        "Ġn",
        "e"
      ],
      [
        "umb",
        "ai"
      ],
      [
        "Ġr",
        "ec"
      ],
      [
        "Ġs",
        "ee"
      ],
      [
        "ion",
        "s"
      ],
      [
        "e",
        "b"
      ],
      [
        "Ġg",
        "ovt"
      ],
      [
        "il",
        "d"
      ],
      [
        "in",
        "s"
      ],
      [
        "ow",
        "n"
      ],
      [
        "our",
        "t"
      ],
      [
        "Ġa",
        "b"
      ],
      [
        "ab",
        "ad"
      ],
      [
        "p",
        "ur"
      ],
      [
        "Ġac",
        "c"
      ],
      [
        "e",
        "v"
      ],
      [
        "an",
        "ce"
      ],
      [
        "Ġarr",
        "est"
      ],
      [
        "Ġy",
        "ear"
      ],
      [
        "ar",
        "s"
      ],
      [
        "or",
        "m"
      ],
      [
        "M",
        "C"
      ],
      [
        "Ġwor",
        "k"
      ],
      [
        "ar",
        "e"
      ],
      [
        "Ġd",
        "is"
      ],
      [
        "Ġpol",
        "l"
      ],
      [
        "Ġat",
        "t"
      ],
      [
        "oc",
        "k"
      ],
      [
        "Ġget",
        "s"
      ],
      [
        "'",
        "t"
      ],
      [
        "Ġm",
        "ore"
      ],
      [
        "Ġw",
        "ill"
      ],
      [
        "Ġw",
        "h"
      ],
      [
        "Ġ",
        "all"
      ],
      [
        "ĠP",
        "r"
      ],
      [
        "Ġcon",
        "t"
      ],
      [
        "o",
        "on"
      ],
      [
        "ir",
        "l"
      ],
      [
        "ig",
        "n"
      ],
      [
        "ic",
        "k"
      ],
      [
        "ow",
        "er"
      ],
      [
        "am",
        "il"
      ],
      [
        "C",
        "h"
      ],
      [
        "ĠD",
        "elhi"
      ],
      [
        "v",
        "e"
      ],
      [
        "ar",
        "m"
      ],
      [
        "w",
        "ay"
      ],
      [
        "ro",
        "w"
      ],
      [
        "y",
        "a"
      ],
      [
        "ov",
        "id"
      ],
      [
        "on",
        "e"
      ],
      [
        "g",
        "es"
      ],
      [
        "a",
        "x"
      ],
      [
        "on",
        "s"
      ],
      [
        "Ġoff",
        "ic"
      ],
      [
        "Ġr",
        "el"
      ],
      [
        "at",
        "a"
      ],
      [
        "o",
        "un"
      ],
      [
        "Ġ",
        "al"
      ],
      [
        "M",
        "an"
      ],
      [
        "ul",
        "t"
      ],
      [
        "p",
        "s"
      ],
      [
        "em",
        "b"
      ],
      [
        "Ġh",
        "igh"
      ],
      [
        "u",
        "j"
      ],
      [
        "Ġde",
        "ath"
      ],
      [
        "Ġf",
        "il"
      ],
      [
        "Ġc",
        "ity"
      ],
      [
        "ur",
        "n"
      ],
      [
        "Ġint",
        "o"
      ],
      [
        "ing",
        "s"
      ],
      [
        "N",
        "o"
      ],
      [
        "b",
        "e"
      ],
      [
        "o",
        "ot"
      ],
      [
        "on",
        "d"
      ],
      [
        "ic",
        "al"
      ],
      [
        "im",
        "e"
      ],
      [
        "an",
        "ts"
      ],
      [
        "Ġsch",
        "ool"
      ],
      [
        "Ġar",
        "e"
      ],
      [
        "Ġs",
        "et"
      ],
      [
        "re",
        "at"
      ],
      [
        "Ġr",
        "oad"
      ],
      [
        "it",
        "e"
      ],
      [
        "Ġ",
        "Y"
      ],
      [
        "Ġstud",
        "ents"
      ],
      [
        "f",
        "t"
      ],
      [
        "m",
        "an"
      ],
      [
        "und",
        "er"
      ],
      [
        "ar",
        "n"
      ],
      [
        "iv",
        "ers"
      ],
      [
        "I",
        "n"
      ],
      [
        "over",
        "n"
      ],
      [
        "Ġs",
        "ec"
      ],
      [
        "Ġ",
        "el"
      ],
      [
        "as",
        "e"
      ],
      [
        "o",
        "in"
      ],
      [
        "id",
        "ent"
      ],
      [
        "ac",
        "t"
      ],
      [
        "Ġb",
        "us"
      ],
      [
        "it",
        "ion"
      ],
      [
        "ation",
        "s"
      ],
      [
        "Ġl",
        "akh"
      ],
      [
        "out",
        "h"
      ],
      [
        "Ġm",
        "on"
      ],
      [
        "ak",
        "es"
      ],
      [
        "ĠB",
        "JP"
      ],
      [
        "Ġle",
        "ad"
      ],
      [
        "ĠC",
        "M"
      ],
      [
        "Ġb",
        "r"
      ],
      [
        "o",
        "k"
      ],
      [
        "Ġp",
        "art"
      ],
      [
        "al",
        "a"
      ],
      [
        "Ġpol",
        "ice"
      ],
      [
        "us",
        "h"
      ],
      [
        "Ġd",
        "o"
      ],
      [
        "Ġ20",
        "1"
      ],
      [
        "Ġo",
        "p"
      ],
      [
        "en",
        "c"
      ],
      [
        "ong",
        "ress"
      ],
      [
        "i",
        "e"
      ],
      [
        "ic",
        "t"
      ],
      [
        "er",
        "v"
      ],
      [
        "Ġa",
        "m"
      ],
      [
        "is",
        "ter"
      ],
      [
        "Ġarrest",
        "ed"
      ],
      [
        "Ġs",
        "l"
      ],
      [
        "Ġcas",
        "es"
      ],
      [
        "n",
        "a"
      ],
      [
        "Ġ",
        "im"
      ],
      [
        "Ġh",
        "er"
      ],
      [
        "od",
        "y"
      ],
      [
        "ĠH",
        "C"
      ],
      [
        "at",
        "ch"
      ],
      [
        "l",
        "es"
      ],
      [
        "y",
        "ear"
      ],
      [
        "Ġcom",
        "m"
      ],
      [
        "ur",
        "der"
      ],
      [
        "00",
        "0"
      ],
      [
        "Ġb",
        "u"
      ],
      [
        "ĠR",
        "aj"
      ],
      [
        "t",
        "y"
      ],
      [
        "at",
        "i"
      ],
      [
        "iv",
        "es"
      ],
      [
        "Ġ",
        "6"
      ],
      [
        "Ġpro",
        "t"
      ],
      [
        "at",
        "t"
      ],
      [
        "Ġa",
        "pp"
      ],
      [
        "ad",
        "e"
      ],
      [
        "all",
        "y"
      ],
      [
        "ĠS",
        "h"
      ],
      [
        "Ġ",
        "it"
      ],
      [
        "am",
        "s"
      ],
      [
        "Ġkill",
        "ed"
      ],
      [
        "un",
        "e"
      ],
      [
        "t",
        "ra"
      ],
      [
        "e",
        "h"
      ],
      [
        "Ġ",
        "under"
      ],
      [
        "Ġme",
        "et"
      ],
      [
        "end",
        "s"
      ],
      [
        "os",
        "e"
      ],
      [
        "ĠC",
        "ovid"
      ],
      [
        "Ġas",
        "s"
      ],
      [
        "u",
        "es"
      ],
      [
        "Ġc",
        "ops"
      ],
      [
        "s",
        "s"
      ],
      [
        "Ġg",
        "irl"
      ],
      [
        "un",
        "ch"
      ],
      [
        "o",
        "or"
      ],
      [
        "Ġn",
        "o"
      ],
      [
        "Ġ1",
        "0"
      ],
      [
        "or",
        "y"
      ],
      [
        "an",
        "i"
      ],
      [
        "ik",
        "e"
      ],
      [
        "uc",
        "k"
      ],
      [
        "a",
        "ir"
      ],
      [
        "Ġr",
        "ap"
      ],
      [
        "o",
        "od"
      ],
      [
        "it",
        "al"
      ],
      [
        "Ġ",
        "&"
      ],
      [
        "is",
        "ts"
      ],
      [
        "os",
        "p"
      ],
      [
        "o",
        "u"
      ],
      [
        "t",
        "ing"
      ],
      [
        "ov",
        "e"
      ],
      [
        "ar",
        "at"
      ],
      [
        "Ġm",
        "urder"
      ],
      [
        "W",
        "h"
      ],
      [
        "ent",
        "re"
      ],
      [
        "Ġc",
        "ourt"
      ],
      [
        "Ġ",
        "7"
      ],
      [
        "i",
        "b"
      ],
      [
        "Ġl",
        "a"
      ],
      [
        "Ġd",
        "em"
      ],
      [
        "at",
        "s"
      ],
      [
        "Ġt",
        "ake"
      ],
      [
        "Ġb",
        "o"
      ],
      [
        "T",
        "h"
      ],
      [
        "Ġto",
        "day"
      ],
      [
        "l",
        "l"
      ],
      [
        "Ġb",
        "ack"
      ],
      [
        "od",
        "i"
      ],
      [
        "a",
        "har"
      ],
      [
        "Ġw",
        "ater"
      ],
      [
        "a",
        "z"
      ],
      [
        "Ġcr",
        "ore"
      ],
      [
        "ap",
        "p"
      ],
      [
        "Ġs",
        "ur"
      ],
      [
        "Ġh",
        "ave"
      ],
      [
        "v",
        "el"
      ],
      [
        "us",
        "ed"
      ],
      [
        "ol",
        "le"
      ],
      [
        "Ġh",
        "is"
      ],
      [
        "eng",
        "al"
      ],
      [
        "r",
        "it"
      ],
      [
        "Ġst",
        "ate"
      ],
      [
        "ec",
        "ts"
      ],
      [
        "t",
        "ed"
      ],
      [
        "or",
        "d"
      ],
      [
        "Ġs",
        "up"
      ],
      [
        "T",
        "he"
      ],
      [
        "Ġb",
        "ut"
      ],
      [
        "id",
        "s"
      ],
      [
        "at",
        "ed"
      ],
      [
        "a",
        "f"
      ],
      [
        "Ġl",
        "and"
      ],
      [
        "ĠM",
        "umbai"
      ],
      [
        "ul",
        "d"
      ],
      [
        "B",
        "I"
      ],
      [
        "us",
        "e"
      ],
      [
        "Ind",
        "ia"
      ],
      [
        "ĠS",
        "t"
      ],
      [
        "u",
        "k"
      ],
      [
        "ĠB",
        "h"
      ],
      [
        "im",
        "s"
      ],
      [
        "ab",
        "le"
      ],
      [
        "or",
        "t"
      ],
      [
        "ul",
        "l"
      ],
      [
        "Ġre",
        "v"
      ],
      [
        "Ġr",
        "em"
      ],
      [
        "Ġde",
        "p"
      ],
      [
        "ee",
        "p"
      ],
      [
        "Ġst",
        "r"
      ],
      [
        "ect",
        "ion"
      ],
      [
        "e",
        "al"
      ],
      [
        "Ġc",
        "all"
      ],
      [
        "Ġpl",
        "an"
      ],
      [
        "hi",
        "ef"
      ],
      [
        "Ġt",
        "ri"
      ],
      [
        "ad",
        "esh"
      ],
      [
        "Ġt",
        "wo"
      ],
      [
        "our",
        "s"
      ],
      [
        "ĠS",
        "ing"
      ],
      [
        "Ġl",
        "ife"
      ],
      [
        "er",
        "y"
      ],
      [
        "am",
        "e"
      ],
      [
        "overn",
        "ment"
      ],
      [
        "A",
        "n"
      ],
      [
        "Ġd",
        "ec"
      ],
      [
        "Ġd",
        "own"
      ],
      [
        "an",
        "c"
      ],
      [
        "em",
        "p"
      ],
      [
        "Ġf",
        "in"
      ],
      [
        "il",
        "e"
      ],
      [
        "m",
        "s"
      ],
      [
        "Ġd",
        "ist"
      ],
      [
        "Ġfo",
        "und"
      ],
      [
        "Ġb",
        "ook"
      ],
      [
        "G",
        "ovt"
      ],
      [
        "Ġr",
        "et"
      ],
      [
        "ic",
        "s"
      ],
      [
        "ash",
        "tra"
      ],
      [
        "Ġac",
        "t"
      ],
      [
        "Ġt",
        "est"
      ],
      [
        "Ġde",
        "ad"
      ],
      [
        "Ġth",
        "is"
      ],
      [
        "Ġwom",
        "an"
      ],
      [
        "d",
        "uc"
      ],
      [
        "uj",
        "arat"
      ],
      [
        "Ġp",
        "e"
      ],
      [
        "Ġsh",
        "ow"
      ],
      [
        "Ġprot",
        "est"
      ],
      [
        "Ġv",
        "is"
      ],
      [
        "i",
        "x"
      ],
      [
        "en",
        "n"
      ],
      [
        "Ġp",
        "an"
      ],
      [
        "ff",
        "ic"
      ],
      [
        "Ġfir",
        "st"
      ],
      [
        "Ġp",
        "ower"
      ],
      [
        "Ġm",
        "ed"
      ],
      [
        "ation",
        "al"
      ],
      [
        "Ġp",
        "re"
      ],
      [
        "g",
        "et"
      ],
      [
        "Ġis",
        "s"
      ],
      [
        "Ġh",
        "as"
      ],
      [
        "Ġa",
        "ir"
      ],
      [
        "Ġcom",
        "p"
      ],
      [
        "el",
        "y"
      ],
      [
        "ĠU",
        "n"
      ],
      [
        "Ġsee",
        "ks"
      ],
      [
        "it",
        "ies"
      ],
      [
        "Ġc",
        "har"
      ],
      [
        "a",
        "ff"
      ],
      [
        "Ġpro",
        "j"
      ],
      [
        "Ġla",
        "unch"
      ],
      [
        "S",
        "h"
      ],
      [
        "Ġp",
        "er"
      ],
      [
        "Ġyear",
        "s"
      ],
      [
        "ahar",
        "ashtra"
      ],
      [
        "ic",
        "es"
      ],
      [
        "Ġ",
        "8"
      ],
      [
        "ar",
        "i"
      ],
      [
        "Ġhel",
        "p"
      ],
      [
        "c",
        "t"
      ],
      [
        "is",
        "es"
      ],
      [
        "Ġs",
        "u"
      ],
      [
        "ĠSing",
        "h"
      ],
      [
        "T",
        "wo"
      ],
      [
        "Ġc",
        "hief"
      ],
      [
        "x",
        "t"
      ],
      [
        "Ġwom",
        "en"
      ],
      [
        "Ġh",
        "osp"
      ],
      [
        "Ġd",
        "ies"
      ],
      [
        "Ġe",
        "v"
      ],
      [
        "Ġc",
        "ar"
      ],
      [
        "g",
        "al"
      ],
      [
        "B",
        "JP"
      ],
      [
        "Ġd",
        "ay"
      ],
      [
        "ect",
        "or"
      ],
      [
        "ec",
        "h"
      ],
      [
        "us",
        "p"
      ],
      [
        "iv",
        "er"
      ],
      [
        "er",
        "r"
      ],
      [
        "ous",
        "e"
      ],
      [
        "ri",
        "k"
      ],
      [
        "ĠPr",
        "adesh"
      ],
      [
        "o",
        "h"
      ],
      [
        "r",
        "am"
      ],
      [
        "in",
        "a"
      ],
      [
        "ot",
        "her"
      ],
      [
        "l",
        "ine"
      ],
      [
        "Ġin",
        "f"
      ],
      [
        "Ġpl",
        "ay"
      ],
      [
        "Ġp",
        "os"
      ],
      [
        "m",
        "a"
      ],
      [
        "el",
        "eb"
      ],
      [
        "Ġpro",
        "be"
      ],
      [
        "H",
        "C"
      ],
      [
        "ĠU",
        "S"
      ],
      [
        "al",
        "i"
      ],
      [
        "Ġm",
        "ake"
      ],
      [
        "ĠA",
        "m"
      ],
      [
        "D",
        "elhi"
      ],
      [
        "Ġm",
        "ar"
      ],
      [
        "in",
        "k"
      ],
      [
        "ard",
        "s"
      ],
      [
        "o",
        "a"
      ],
      [
        "em",
        "ent"
      ],
      [
        "Ġh",
        "ome"
      ],
      [
        "p",
        "r"
      ],
      [
        "Ġc",
        "or"
      ],
      [
        "and",
        "s"
      ],
      [
        "ĠM",
        "odi"
      ],
      [
        "g",
        "l"
      ],
      [
        "ĠM",
        "an"
      ],
      [
        "el",
        "s"
      ],
      [
        "ĠP",
        "M"
      ],
      [
        "Ġin",
        "v"
      ],
      [
        "Ġd",
[...]
